휘발유	12864
##━━	8837
수준급	30378
산채	29727
##아치	19153
공산주의	12261
항공	4699
밀어주	28987
京	228
액세서리	13360
Korea	16280
가압	19600
EV	20851
##치아	17494
11	3718
Off	24308
##눅	3300
가전제품	15075
수필	10612
##ree	15785
##유럽	9627
아닌데	8874
잊어버렸	29179
허탈	18733
##inc	18734
태동	24851
선정	4218
나이스	25469
서안	29082
끼친	17933
##늠	3430
##ner	14134
활짝	10682
관세	7258
냉철	20477
강세	8172
##방울	10586
미술	4818
의총	22281
운치	31190
경색	14349
##olf	30892
굿모닝	24060
환	1935
수비	6061
튼튼	9895
이내	5511
남인	21751
혹독	14957
바지	8802
명료	17834
條	398
잉글랜드	11237
그쵸	12295
Social	21833
예체능	23225
##TC	17239
황무지	29034
49	5839
줄기	7919
티비	9578
본문	12457
##행사	16049
다이렉트	25198
##ine	8626
수성	8878
엑스포	9948
엿	1435
세액	12169
웃기	12494
글래	22377
##orea	11643
##짐	2719
농산물	7721
데려왔	28232
마디	7105
##84	25079
문화재	7281
부지	5208
##본부	12498
샤오미	27891
전범	22984
월요일	10132
##에프	24722
경과	10663
했으면	27477
단발	19690
무릅쓰	18128
김상	8008
노여	26968
##샌	2785
브레이크	12272
기량	10996
누리	4246
피서	20322
법원	4772
가차	25201
훨	1950
꾀	688
알고리즘	22990
##sp	20926
휴지	17177
저질	10570
벡스코	24751
십일	26696
가자	21721
##은땀	26940
증상	5930
달콤	9010
올림픽	4572
##질랜드	12258
휩싸이	28894
헬	1915
비주류	17404
##쁘	3175
재건	6968
더없이	19279
[unused349]	31849
얼마나	4296
##erc	28477
구급	14922
돕	854
폴리	8894
마니아	13276
프리랜서	24988
빙긋	26075
유럽연합	11971
알아차	12643
여간	13500
[unused300]	31800
될까요	14765
파란색	18280
돈벌이	23530
민영	9375
석유공사	19054
觀	490
##아슬	19459
##운동연합	20979
ᆞ	111
송영	15199
돌아다녔	23888
특전	20487
해피	11144
大	306
Econom	20464
##ents	22188
화석	13793
가려져	30216
생크림	26243
##77	20569
##31	23119
강렬	8766
맹활약	17156
슈즈	16286
떠올랐	8234
원정대	23473
주지	12527
튜브	18566
##ter	6064
남해	12358
배기	13112
관여	8428
소림	27777
영회	29818
선녀	24519
소망	9444
내리	4848
개그맨	13367
챔피언십	12779
##바일	5210
매개	10213
빈도	12764
빤히	23053
달구	19268
털어놓	10433
일례	21720
외형	13190
호리	27742
##ust	10550
##혁명	17124
임상	8743
국립대	18555
판사	6146
백설	24160
김순	23552
늘어날	8518
뽑	1220
##섯	2839
지도자	5647
날아가	11433
##av	10702
주사	8409
낙찰자	26008
친히	28670
유화	14237
제언	23602
그래요	6496
여호	16067
[unused472]	31972
##시울	21856
한진	8818
애슐리	27904
완전히	4991
##포드	21091
##혔	2561
중간	5141
올림	4504
적당	6701
거스르	25132
수온	23967
지도층	23226
차주	24604
황영	24815
나갔	5888
그리스도	6458
이동국	17082
네티	9062
조각가	24743
떠드	29349
변하	6567
허	1905
##티노	22077
##성장	8120
그랜	15821
스토	5367
살펴본다	20944
해협	25633
##킷	3267
농경지	25060
다를까	25444
개발비	23815
##딩	2500
슬라이	13765
상태	3889
아브라	20861
반야	30030
국공립	19387
열의	23434
##셀	2387
눈썰	31122
물으니	28505
[unused57]	31557
갖췄	9706
라멘	21588
##테이션	11001
##냄	3335
내팽개	30564
##다임	9767
실추	26310
사막	9673
격	584
복권	13313
앞섰	14274
사라질	14519
싸워	12281
김문수	15403
두렵	13186
##블로	19101
일삼	13971
##거운	5030
##Ⅱ	3118
언급	4949
반발	5398
더군요	8291
사사	13317
얽혀	16756
naver	21192
홍합	26474
메우	15339
맹렬	19627
KDB	18393
마지	4141
с	109
지명자	29971
빠	1196
##ary	11247
독립성	14975
조력	17508
Se	19148
문법	11034
비겁	22122
州	333
일세	12845
보이스	14369
##계산	27420
元	244
호들	26728
이바	30403
이사국	31064
개개	10198
밤중	15255
분화	13740
TO	16538
##리트	5914
##어리	8156
기술자	12889
##론자	24407
너무너무	15179
##습기	14639
벚꽃	12042
면회	17212
지크	18387
수구	21484
##붙이	17925
안양	7870
##10	11610
John	14588
설득	5838
Mar	13613
천신	23973
CR	18205
페놀	30404
[unused448]	31948
젤리	15836
##돗	3488
몰두	10849
덕택	23851
통한	4742
HD	11421
요구	3917
##오드	16953
[unused65]	31565
##수염	22630
개소식	22536
적중	17228
다를	7673
정신없이	17532
사운드	11921
최민	18200
수현	20615
한나라	5143
기지	6521
좌파	10361
사각지대	13732
야망	20294
김태희	27451
[unused353]	31853
##간다는	26052
발등	20746
계산	5394
반지	10817
령도	30263
언행	17713
매치	7752
관리직	30948
배설	17502
[unused9]	31509
법정	6170
마루	11027
배급사	28157
ECB	23037
월터	29380
가열	16779
재능기부	20598
김양	18980
##★	3279
알아	4860
로보	20338
##밑	3122
##모습	11736
매서	20999
햇	1901
휘발	11689
국교	20787
오즈	26534
物	427
바지락	27776
옐로	28804
항복	13221
Dem	28733
아모레	15231
박세리	27544
차이	4193
속마음	20287
각하	17052
유다	22438
빨랐	22893
和	287
쁨	1231
날카	8510
아이폰	7765
운반	11047
매사	14717
방관	20457
직접	3868
깃들	23583
정부안	26993
##운다	10591
정해져	15770
토끼	8981
밝힌다	21607
홍진	23990
24	4056
플래카드	26566
농수	12810
꺼리	14168
최상급	28060
MWC	28126
##기업	4371
인장	29862
발성	30648
암자	31148
취할	11560
장타	15342
리비아	14409
##보기	24374
##용차	8257
63	6405
선수	3825
아메리	15054
후원금	13546
화재	6008
윈	1486
재질	15495
##cess	20129
셰프	13497
051	30497
##망이	14136
즐기	5380
환경영향평가	19798
단과	13838
##밤	2949
막대	7670
##유업	25487
김정은	7054
모았	7368
억류	20102
기체	18020
정남	29794
최형우	21342
일용직	26455
제일모직	16520
조종사	14929
떠오	8757
보쌈	21528
대칭	23805
[unused375]	31875
메디컬	21361
##지부	9851
지울	19165
케임	25303
카페	4964
편익	16018
우유	7282
관영	22884
Education	30715
알코올	10271
생산물	25565
백두대간	23141
이스라엘	7051
끌어올렸	18398
월급	7989
Chris	25963
##´	3439
이뤄질	9733
카스	16456
발주자	26284
정치인	6680
기일	13625
거점	8386
박명	17490
사상가	17934
일흔	27965
정중	13624
적발	7238
분경	22309
##슬링	18763
급부상	17580
스타인	27398
무의	17795
한껏	12006
시커	21119
아킬레스	29393
[unused40]	31540
소재지	20395
피드	13876
연기금	21208
차관	7085
으리	7356
##보	2178
늘릴	12773
유토피아	20862
부결	13310
충당	11599
합니까	12085
수종	31298
국군	11849
담백	14052
부위원장	13459
##팎	3497
##19	22328
해장	19152
##넘	2927
등록	4607
베인	31050
대응	4509
꼭두	28681
[unused100]	31600
품목	6852
아리아	18914
숭실	24816
테마	6507
손님	6654
승려	13824
[unused422]	31922
찌르	14044
공유	5194
농성	10497
목록	10188
아님	9887
##윙	2900
연극	5909
배후	9861
그거	5139
삼겹살	11183
530	24115
크리스틴	30994
이륙	31389
야채	9498
대두	11667
영빈	29029
국왕	10718
전라북도	30534
프라이데이	31104
##라비아	14131
섞	1260
WP	27115
리포트	15726
서귀포시	22099
찰나	19846
목욕탕	17819
하토	27604
##들여	9171
발사대	28825
잡음	18373
성패	18251
당수	30863
귀하	16045
부시장	15470
##카드	6299
불법행위	16252
악취	12530
모자란	23974
스가	26192
##예진	27155
특정	4814
디자인	4482
끈적	22659
##K	2213
엔딩	17211
저건	22279
펴냄	22771
요금제	10841
천문	9818
EBS	12216
##씬	2410
구가	19594
대군	17375
없이	3806
아낌없이	21830
아소	31486
인천항	17917
심의위	26400
꾹	690
##벚	3316
재단	5045
修	241
이창	12172
##키퍼	12998
최원	23860
박윤	31052
자괴	27840
공정위	8488
또래	12081
프레이	26777
##년	2440
공휴일	16644
기염	30020
데이터베이스	15626
오묘	26903
말	1041
1985	10665
##ott	20785
찬사	14643
##굶	2690
지지부진	17416
##트니	27562
신사동	25450
으러	8378
됐었	16205
풍족	25189
여단	20856
서재	12565
##동물	27589
꼭	677
쾌	1736
성결	29556
외대	21947
듭니다	11815
이낙연	22668
내각	9405
씌우	27391
##밀히	9638
버럭	24186
##다리	6982
##유국	23110
평신	28120
구위	30156
가문	9459
방편	20673
친구	3949
가격대	18452
발굴	5681
개요	20245
##SI	14948
스탠다드	30860
SNS	6691
엑스	7354
그럼	4292
전집	15146
공론	10942
끔찍	9371
정동	11109
##활약	17046
어려우	18262
##art	8443
릅	1024
수소문	27932
입찰	6877
시녀	25289
##리니스트	27090
강조	3986
수직	10566
알려져	6420
선고	5779
뺏	1205
##앙	2167
##CC	7329
모둠	27989
종가	13844
등기	9138
단절	9792
변두리	27082
써먹	25441
ㅠㅜ	30004
트윈	17436
규약	19501
##세웠	21851
##그마	15729
어릴	8115
발행	5467
풍겼	31479
혜주	28319
강자	11265
발행인	23138
슬램	26187
마술	11367
장담	13243
역부족	17666
학문	6204
사후	8500
달래	9897
잇달	10981
##ose	20027
##뽕	3107
레이스	9742
물어야	20112
조정	4221
돌이킬	22110
App	22715
비일비재	27436
WTO	16103
창조	4805
만성	9305
주민	3972
회의록	19931
공장장	25478
정숙	21127
뼈아	24113
펫	1854
대책위	12632
술탄	28314
통행	9429
책임지	9136
반동	19630
윤정	23171
식스	22335
##ard	7811
비상사태	27108
전차	13533
어르	7666
장모님	31462
##페이스	15092
##음식	28586
특활	29850
짤막	24739
왕실	11730
사려	22733
일간지	14659
최명	25610
도드라	30085
×	101
추진	3835
동반	5904
미성	13989
새기	18795
그대로	4311
웨이트	22380
거역	25711
병변	27979
메뉴판	15834
남북	4711
어때	10604
的	445
편식	22032
가와	22412
xx	12136
경지	11988
블러	26340
실연	28749
ㅎ	193
사무직	26848
##제당	16640
거짓	5648
1946	16312
미투	19650
어서요	24483
차도	23374
행자부	26971
##제이	15881
##냉키	29623
야간	8478
##테	2201
놨다	18727
248	30927
본사	6368
캄보디아	13778
사극	16986
카를로스	25840
[unused258]	31758
##모비스	15466
한입	18324
##물살	26113
음성	6963
도박	8902
선뜻	13742
##EV	29703
장학	6893
체코	14574
흘러갔	27577
묻	1092
뜬금	22870
닉스	24196
눈부시	23204
이유로	23048
32	4987
조희	20506
아이덴티티	24003
이하	4547
포도당	29152
[unused477]	31977
차별	4874
ㆍ제	22785
BIS	26538
차체	15754
##무쌍	28602
시켰	4781
거친	7869
섣부	25862
##뉴	3065
눈꽃	29692
펜션	16185
변용	30296
즉석	13470
마고	29146
##뺨	2909
클	1752
세워졌	22666
##롤	3034
이문	16149
우열	27685
조선업	15018
】	177
소속	4546
순서	7444
정파	18642
감시	6315
##저래	25833
경기도	4619
두고	24402
##ont	21934
경	591
km	6460
##업	2078
나폴리	27984
이뤄진	8815
값	550
로제	26014
##○	2817
보디	18467
주력	6023
##평균	13504
백제	8713
##넋	3576
##경영	20466
부유	10429
바	1118
닉슨	25551
213	27322
끙끙	29069
머물러	11609
듀얼	18100
희생양	22354
장직	30414
참가	4460
1921	25067
##하우	7429
패밀리	12076
워낙	7020
목화	26912
존폐	30706
고향	5512
늦	798
무작정	14854
검은색	21092
60	4343
상가	6682
어두웠	30143
한사	28230
##뭡	3422
편견	9354
발작	18138
지위	6401
리오	14628
네트워크	5502
입가	15014
쯤	1624
KAIST	16138
환경운동연합	21550
수자원	13421
득실	20036
내막	24676
찔러	15457
흰	1968
피에	27102
##ins	17969
밀린	18964
아전	26036
기척	28879
브	1184
튜	1810
202	7735
깨워	28365
오토	8272
돌아서	13297
저해	13630
헤어나	30748
즐겁	7455
남동	12519
##코르	22206
감산	25759
맷	1055
구요	5163
무실	14898
천시	27597
회로	13063
종결	12200
환각	24832
찾아내	8733
어떨지	28893
##륭	3154
아닌지	9834
부적절	12719
##ys	19413
究	457
초여름	30321
##반	2536
##능	2183
고안	14465
휴스턴	23097
##승부	15756
##ondon	17277
활약	5943
##혼	2123
##뒀	3551
축소	6009
MV	12459
걷어	20832
아메리카노	18511
##여대	13826
지침서	27583
##등	2491
##ience	18017
상거래	13086
##조림	18015
##카운트	28514
직	1584
추측	9415
심층	11698
퇴출	11865
인민군	18507
던질	19219
##own	21331
오크	16737
민요	17704
파헤쳐	27050
##내린	26215
##잇	2636
부담	4147
##시대회	30883
소형차	22845
파리바	20354
법상	14637
한파	14897
메르스	9050
라서	6606
2005	5656
에릭	13300
건너뛰	30300
스키	7374
춤추	14727
보정	17280
유례없	27791
공자	9246
유소년	19230
략	962
스튜디오	9238
출토	19055
통화량	31022
##갇	3555
19	3630
유례	16412
시멘트	12390
종신	15395
##코인	20072
카탈로그	30959
못한다	6531
차리	11013
오사카	11901
이겨	7918
훈련소	29842
후원자	17650
##act	16023
착안	17150
害	322
굉장히	4843
Is	22656
김두한	25662
숙였	18214
주안	19164
적응	6670
한창	7880
##쓰기	9764
아킬	23555
In	6528
이발	20180
命	286
받치	27347
##감독	22551
스킨십	28548
좋아해서	30581
시방	30239
맞	1047
임기	6724
대장	6085
않	1380
결백	29282
향상	5144
빅토리아	19211
##ch	4906
##마루	18368
한일	30662
[unused109]	31609
an	11171
##치즈	23655
##ign	13584
입비	28154
##수영	30561
브릿	22357
트로	9689
출	1675
결탁	26833
탈바꿈	13210
실력	5473
##ICE	24195
도포	30343
仁	230
아닌가	5215
자재	11075
Tr	14472
##V	2392
##CI	17112
MA	19791
수석대표	26750
[unused487]	31987
[unused71]	31571
##이상	18164
##유산	9525
##미트	26096
헤어질	28840
골동	27926
198	4231
본부	4522
서울시	5087
감내	20202
릿	1034
알아차렸	25714
##케미칼	17837
온통	10268
오두막	24435
파리	5986
##땅	3000
연출	5192
집어들	26407
우리	3616
몰렸	13549
그립	15507
홍명	15892
범	1143
과열	12161
남도	15366
아구	29288
도르	25410
노안	28237
전액	8922
##evelopment	22703
창호	19213
김병준	31156
##틀리	24314
서기	8907
지켜보	6637
튜닝	25525
##젯	2770
고덕	19990
개량	13869
##TRA	20707
본인	5006
알약	30549
전조	23421
야유	22489
와라	24802
방배	28030
머리카락	9750
골프	4824
일행	8325
넘어졌	29659
원외	26225
예정일	31291
[unused255]	31755
블랙	5676
바꾸	5016
폴로	27922
시상	7789
아래쪽	15109
##ally	24203
하이데	19049
노년	12210
계책	23529
##엔지니어링	27150
근현	21228
앙드레	28366
기존	4078
유지비	30719
왜곡	7399
감행	13737
##상가	16875
자금난	22207
유동	7157
##ail	8077
여권	8130
男	438
최전	19899
##바이벌	23420
##라는	23548
드라이브	12766
맨	1052
체크	7189
펠	1853
cat	16922
든다	6759
철원	17534
에드	11353
신촌	14917
복당	20974
암흑	15537
##이스	4168
色	476
유대감	29982
할게요	15442
비밀	5361
생색	28653
전념	12554
처장	9357
필사	14664
학과	6021
MO	9445
당사국	20740
존립	20613
마음속	12348
중화	11707
##준혁	24615
##시	2067
先	245
영원	6099
태화강	24730
##주의	3802
양봉	30650
새해	8244
통계	5735
했잖아	12922
흘	1961
들꽃	30884
##쿠	2666
진중	22559
위생	9205
뾰	1222
1956	17916
은영	24817
##온다	6939
##어링	21416
의료인	29305
매체	5775
일본	3708
레고	20855
##리포니아	10757
85	6434
거품	9534
프란체	31455
배송	9488
##논	2473
PE	14282
바깥쪽	18639
블루스	26232
항공모	28802
워	1476
고동	27504
송년	20333
개봉	6837
ㆍ일	16187
혈	1920
순경	19420
del	25389
벳	1152
밤샘	25151
달아나	13946
##ir	6492
양념장	24038
해	1897
##빨리	8910
공용	15968
영산	14337
450	13103
270	15783
햄릿	28856
##ure	9124
던스	28470
단지	4204
켰	1725
띄우	17274
제트	20398
쌍둥이	13555
예속	25184
쌀	1339
그럼에도	6681
굳어진	30078
열도	21918
드러낼	20773
##맏	3461
예술단	20459
##기금	15908
준다	4478
당국	5015
몸매	10266
송환	19005
세차	18125
차인	18896
자행	15943
00	8052
서사시	25062
좋아해	26746
탈퇴	11533
미르	15406
촬	1669
잠수함	13711
못해서	17493
컴퍼니	13973
166	17114
노니	23253
전주시	24356
내쉬	11541
##뼈	2865
##작전	27026
표창	11892
트레인	26511
봉지	15709
경미	22061
마신	10899
##딩크	19098
연기력	18445
상영	8452
도라지	24389
이룬	7728
초청	6142
순방	15635
뒤따라	16341
김시	16944
흑백	16917
##폴리	30921
문학사	17242
훈	1944
수립	5651
이한구	26040
벌칙	28631
##세우	15473
리라는	13945
흐리	17798
벙	1146
공영	9507
피닉스	29409
##TE	7832
몬테	25218
오릭스	26700
##독부	27803
어때요	17695
안드로	11877
##티지	13919
이듬	9866
생산품	29923
에스파냐	28017
서부	7515
뮌	1102
깃털	19915
상생	7106
소득	4429
갖춰야	15953
섭취	7226
##뢰즈	30966
엄지손가락	24366
먹스	7178
##범죄	12315
상수원	28970
이제껏	23415
─	143
작용	4763
##톨릭	8816
대전시	14984
찰	1636
명확	6118
장학금	8437
뭉	1096
장문	20872
##가방	25607
스테이트	15579
##유키	29795
공천	5492
마주	6198
빠져서	21890
시안	17484
분출	17952
여우	12784
##able	14204
카자	17982
##자치부	19808
파일	8186
랭크	28048
쿤	1740
연설문	26425
콜럼버스	27492
누출	19479
가족	3937
##산업	7138
##실현	30490
[unused265]	31765
셔도	15099
##tical	17998
험난	19112
유생	25155
회식	12063
섭외	16984
양로	30641
##⑥	2925
LNG	12517
여하튼	22882
The	5790
조영	13640
잡화	22273
미일	24953
번식	15337
##둘렀	26022
##의학	30857
지방세	14187
기대감	7450
반려	8975
전모	25998
적법	14547
턴	1779
세인트	15505
##볍	3455
인선	12914
윤병	31059
##러드	8521
출사	17295
너지	25953
삼성카드	19564
당일	7494
관청	17518
외무성	20894
호이	30079
당진	14017
급격히	9566
##남동	13703
철없	27972
향해	4985
강팀	23388
어설픈	24627
전해진	27083
풍	1875
##아티아	23244
##흩	3558
##헝	2871
절전	29110
[unused104]	31604
[unused309]	31809
홍종	28937
흘린	19401
저촉	30160
걸려서	25097
MD	14857
맛없	24533
보가	31235
[unused31]	31531
궁금	5333
##━━━━	12988
행방	15959
##키아	12619
##화원	29741
인정받	6157
캐서	25106
##신호	21922
리프트	22078
카스트	18526
동질	17589
라임	22303
거릴	30352
##셉트	9074
직계	20643
수트	21506
박삼	30722
보도	4256
쇠락	27888
무사히	12356
듯이	4490
제명	18756
양형	19439
Thom	24984
댕댕이	31301
시판	20083
거센	14211
##넹	2451
독보	16614
독과	22344
땅값	16861
무시	5509
##어버	6987
무자	14544
김흥	28989
그리스도인	17631
##향	2482
원액	29894
남자	3997
페	1850
박람회	7071
울음	9483
증자	12691
안다	8750
장안	14852
캡슐	17249
##빌	2548
사월	20451
강모	29781
용사	15866
168	16713
문건	9086
아파트	4155
동산	12785
무궁	13093
med	28725
##워하	7038
서울대	5689
##십	2640
녹차	12131
아웅	27688
김용	8536
김성	6576
농경	15577
인도인	25426
노래방	15569
##르크	7702
사임	13563
학식	28532
친척	10862
##프레스	23578
웰	1483
黃	540
##뉴얼	13108
어업	12489
##븐	2862
조강	26235
내려다보	12301
##냅	3412
영국인	17923
440	23387
호전	12193
간청	24720
팩스	20949
4800	27461
기능	4039
어딘	9278
드러냈	8125
격식	25034
語	496
##am	4583
눈치	6523
얼룩	13389
씌	1369
태어나	7041
남방	19119
명랑	20165
그려진	15690
뇌물죄	28859
대명	11546
난소	28071
마주쳤	21923
윗부분	26468
노사정	17800
##주얼	9168
나경원	18554
##it	4412
담가	20985
##보살	22202
##민주당	26007
펴	1855
##플랜	26365
황우	17574
식감	12694
영역	4777
투철	27174
들락	24219
45	4984
분규	30297
생전	12385
개입	5671
밝혀냈	25835
애완	17328
어느새	8939
맹점	27831
동승	27650
그리구	24310
305	30597
망쳐	31363
vol	24956
산사	29606
口	274
능가	15630
제프리	29291
장애물	13302
##카오	6782
다문화가정	16325
넷마블	19337
민의	30593
처음	3790
##손	2390
사망	4950
바뀐	8451
꺼	665
제형	22170
지켜볼	19042
핑크	9470
모셔	13689
규제	4606
아편	22271
막사	26790
공격	4283
제패	24546
환멸	27541
위장전입	28791
양귀	28827
소홀	9089
무용지물	23573
명작	19875
할당	13192
과소	20020
한방	9587
앞선	8401
연초	11508
1890	28172
신기록	19967
농담	9000
##ense	29855
보잘것없	29802
살살	20782
##읽기	30430
1880	30225
조목조목	26238
소풍	18912
수고	9875
여행지	14040
날카롭	15979
##퉈	3566
구실	12294
##서리	10130
##red	22213
라오	24826
인연	6984
연립	18533
입맛	8666
##숲	3262
붕괴	7404
시미	28523
문명	6690
법관	11365
##뜨리	6424
질문	4341
프리랜	24552
모리	13158
음력	21553
비법	12022
초점	6392
##동자	10895
조재	23159
방자	29516
느	791
우습	17270
한데	5529
잡초	18723
##푸드	19122
되돌아가	19730
말끔히	22205
통로	9373
나뉘	9928
아이	3651
한나라당	5145
내란	19743
all	21058
앙증	31368
줘요	13598
파견	6430
도망가	15002
본고	22399
##뭣	3585
피드백	16405
4200	29856
##난로	30211
미술관	7127
감동	5869
불어	13931
배양	15008
홍명보	20912
날까	30125
담배	5840
ㆍ상	25981
직사	26491
블럭	25073
켜	1723
체육회	14067
붓다	27941
It	21501
모던	12981
##▲	3377
통쾌	23628
##무실	12520
비정	6763
무한	6453
자살	6205
넘어선	11750
##될	2651
장이	16505
##시안	24944
부산은행	21438
경영인	20220
의미심장	22142
첫선	26151
개방	5751
페어	11036
잠복	19889
불우	18649
하여간	21939
봐라	13206
주황	26505
압수	14510
선보인	9794
더블유	28591
맥아더	28037
케임브리지	29105
見	487
##바이	8023
펼친	13119
강산	23582
함부	9374
개각	19053
각지	9975
영성	16082
접하	9033
일부	3951
##구니	9188
CG	11969
생태계	18254
실컷	18804
겁나	19175
조원진	31154
신년사	23596
저편	21071
다림	26199
고배	19541
도태	24187
##ra	7229
명창	25860
태워	13920
싱크탱크	21630
농촌	6411
억새	24539
걸린다	12682
인터넷	4254
用	434
##린트	28501
銀	518
보인다는	19118
##뀌	2329
유월	20149
##z	2035
반영	4523
피클	29591
하버드대	17741
주미	29752
토트	18449
##텐도	30508
[unused191]	31691
모셨	19102
원조	9137
상해	10289
홍천	19756
인테리어	8100
누워	8278
지레	28797
헤비	27320
교육비	14609
웨스턴	27370
주요	4132
by	12860
특수	5177
유태	14849
버려야	15958
##낀	3429
FR	20971
함박	21586
번트	26558
통영시	28969
서요	30990
색조	24822
두각	18250
넘어간	21848
야마	15523
산양	23417
냅	736
포상	12568
슈퍼주니어	25519
##챙	3318
속초	12964
장애	4360
담요	20931
깨지	14606
친절	7798
타악	28687
수잔	26393
학부	5135
괘	610
좀	1556
런	966
##컥	3037
이상	3658
떠날	10428
불빛	10700
케리	25212
기막힌	25366
한빛	30161
민노당	21338
[unused312]	31812
영지	16660
##리우스	24425
맹자	17707
메이지	20340
덕	832
우승자	15396
승점	9700
처해	12588
##연수	28614
번가	29826
day	30577
지게	27942
상장	5934
발버둥	25781
즐길	5916
말투	10795
영광	7430
살라	26554
감원	28027
AS	12189
제정	6122
##어가	26271
선덕	23985
백합	28593
어울림	22747
유용	7818
##축구연맹	20212
도깨비	14549
멧돼지	20570
##살이	10893
##→	3131
어긋	10463
##올리	26914
##보리	23401
추락	8494
공관	16885
UE	22856
점장	26084
열량	20665
피부색	28512
137	15727
□	147
##글	2701
##iety	22030
저축	5601
브레	14144
얽히	25747
##쉴	3322
정례회	29604
강국	12023
부축	21569
##а	2493
it	16050
차이점	12882
##녘	3448
##문화회관	24535
수목드라마	26697
끌려	9001
칙칙	22722
상견례	29594
넘기	7867
찮	1635
그랑프리	18054
교향악단	21093
기관사	30268
세세	17606
럿	970
ind	21076
단전	27309
힘차	15249
소사이어티	28530
종지부	31216
차입금	19962
엑스코	29951
휴업	15464
경찰	3858
DNA	11762
서태지	21140
깊이	5746
배반	18145
지식	4354
그네	23512
갈림길	21806
##개	2019
샅	1243
##캡	2941
악단	24465
허드	28414
값비	22181
모사	24621
과거	4222
총	1668
온라인	5004
발전소	7246
정우택	29587
발돋움	16827
한자어	30483
예감	14592
남쪽	7831
구석	8083
인어	27540
타결	11803
야죠	31355
박명수	29811
##비안	28907
대중교통	10905
the	5062
패권	13227
조용	5574
질량	21190
충성심	24489
마땅	7213
##AN	18006
가르칠	20535
겐	579
##소년	12372
지방대	28744
짧	1599
co	7579
##ravel	21442
재가동	22814
일출	19829
##제	2021
거북이	28355
빗방울	26358
코오롱	12724
도보	13798
복합	5200
곤두	12837
쭉	1621
me	13352
쁠	1230
사비	21757
장한	27446
##㎾	3601
정착	6587
세조	21396
께	673
##ME	16678
조끼	23196
벌어들인	24871
노비	16904
會	385
제목	5772
버냉키	29660
수려	23662
브로커	15642
}	96
株	397
씨발	23349
도맡	19670
##르트르	22597
386	23010
62	6677
제도	4010
추기	15410
어부	17017
강관	21356
읍	1501
빌딩	7697
청량리	25823
지형	10216
도립	21600
침투	11724
들여오	26652
사우디아	15663
오리엔	19141
밭	1130
##뭔	3257
내색	25621
에덴	28204
147	16729
겸한	27337
##몸	2895
전환	4561
부엌	10546
공사장	18757
허름	21906
캉	1702
유나	28948
##ow	5936
1904	26506
되	859
트릭	23744
##쳐	2675
ㆍ비	27096
##슐리	26657
고주	24090
바나나	12969
유의미	24973
뮤지	6035
윌리엄	10954
반일	29236
괜한	24252
학	1890
묵묵	11631
1931	23022
경향	5363
제치	10912
유람	17174
인삼	10033
세웠	7068
어린이	4498
安	317
무기	5290
자위권	28086
조연	17053
지지층	13755
지천	23211
인류	5865
##마디	6295
과일	6900
퍼펙트	23802
육안	25912
제시	4277
박지원	11438
샛	1249
관우	23869
분쟁	6933
레미	17752
##려고	10554
들러리	30191
지금껏	14100
시집	7936
니트	14874
지난번	11210
고영	15896
##ink	15737
휴가철	17523
가중치	26229
gre	26292
죄의식	25857
##둘	3056
히말라야	18744
##퓰	3489
##동안	4157
다	809
스즈키	26549
지역	3634
sn	30169
외지	17137
새겨져	19216
저우	25500
조장	12331
와트	31433
미달	12709
등심	21919
소위원회	25658
왼편	28456
##북	2547
한국은행	10039
##워졌	14578
공신	13099
참패	18650
위험	4253
진실로	20575
119	10090
업로드	27762
둥	870
##디다	30009
[unused317]	31817
##eauty	26434
##운용	12818
所	364
##꽃	2516
장항	28464
식은땀	26952
교원	8716
극동	16847
##ER	10646
[unused172]	31672
저장	6965
인데다	29235
슨	1318
##이치	13520
통째	14790
해양수산부	15995
단언	16179
밸	1134
오	1443
서면	10759
도도	19498
I	45
##very	24026
##고생	24311
[unused428]	31928
태백산	24741
필링	28407
비로	7174
대차	20951
우발	20820
선악	24334
퍼거슨	23484
강민	16504
경위	9668
애애	26670
빗대	24343
걸으면서	28192
##왈	2648
응시	8562
DA	27585
손보	20465
떠올렸	14669
박승	17602
답습	26588
##프트	5126
관사	18824
지하	4670
양동	16481
공방	8722
베스트셀러	13437
리거	26158
관내	11668
진나라	18438
동정심	28957
퉁명	27094
자이언츠	20562
조건	4423
굴복	16108
시신	8630
테라스	15573
얗	1404
️	1979
##ove	15176
의연	27264
이채	21238
영결식	25739
Ⅲ	128
마트	6435
사들여	22854
29	4346
길가	17402
급증	6757
튀어나온	21579
서병수	24215
Princ	30698
였	1436
〈	168
임	1510
명사	11715
매끄럽	20857
절대	4807
##son	12057
케이티	18681
리필	22436
콜드	22826
희수	30821
##린	2466
서초동	20001
준칙	30843
조심	5886
준다는	9618
그런데	3866
윌	1487
예정	3834
記	493
##아지	5548
고흥	15361
패럴	21094
GE	14608
80	4684
##팡	2788
드려요	20469
##러운	5464
■	146
오르내리	18282
마주친	27873
극도	12548
핫도그	27952
인류학	23430
떨	912
거사	23364
파스텔	27352
못된	29090
츄	1684
넘어지	16220
집어넣	11897
북적	15301
청국	29145
윌리엄스	21530
송은	30824
JT	14721
금호	7770
정계	13596
놓였	18381
장영	19081
깡패	20972
배움	12905
광명시	20253
가로지르	20681
스펀지	31141
잠겼	21546
빠짐없이	18409
##뺀	3301
왕국	9231
##쉰	3444
줄까	18936
##38	24316
토머스	19590
좌상	31342
동북	7601
KAI	24559
극찬	17452
조합장	15161
수퍼	15025
횟집	20739
##뽀	2407
박원	9855
안성	9393
폴	1865
마크롱	29996
연합회	8261
친하	16933
규탄	13170
##일러	11687
골라	8050
빌라	14309
국장	5575
심판	6377
탕수	22150
디딜	29528
우림	29693
유원지	22740
냄새	5695
CC	7584
[unused2]	31502
상복	30332
연장	5219
[unused1]	31501
##브리	7371
면하	20941
농축	12576
계약서	10456
##다이스	24095
ㆍ안	30017
##축구	13574
샘플	15107
시간표	25325
객사	29807
경질	18659
서툰	26773
상향	10113
아비	13327
1991	8887
사카	21889
사회봉사	23553
##리스트	7574
개인	3907
으니깐	26494
꿈틀	16485
정변	29707
탁구	15171
자연주의	24512
열광	12371
짐짓	25204
합헌	26381
##성기	23233
퇴색	23754
[unused273]	31773
동쪽	9411
최남	29137
겁니다	5047
##대표제	29392
##ise	17953
##낱	3008
김혜	13281
웬일	17576
전기동	25995
그제	10419
애당초	26205
##│	3447
직관	12596
내려졌	19804
##띤	3446
되뇌	28152
다룬다	20254
어플	26672
반고	19260
올	1446
여교사	31294
마일리지	17722
샤워	11273
김충	28629
##━━━━━━━━	20376
프론	25518
완구	23609
까다	9886
사들이	18096
독선	22315
##LO	23235
69	7089
며칠	6318
도망쳐	25331
국무총리실	23070
라가	24397
패소	18517
오정	20830
670	30124
##진다	4067
은밀	13663
프레드	25484
국경	8607
##판	2025
핍	1886
강대	12456
높	772
##렬	2884
걸친	9199
미온	23712
이주영	26308
부수	10823
구조물	13582
초연	16087
묵인	21294
김신	16437
좌장	26918
뒤지	11780
유비쿼터스	26581
擧	366
법제	11553
지출	6466
자사	8233
##용품	18319
이우	18847
전군	29904
##위	2090
베트	5580
밝혀질	28901
[unused252]	31752
사로	6728
##ious	21492
##앗	2767
그냥	4181
유승민	11463
인솔	25085
버스	4942
민주	3772
##헌	2627
별빛	24881
여객기	21160
Per	22936
故	369
메모리	11330
##악산	13658
악순환	14403
도중	7882
오세훈	18240
시외버스	24041
헷갈리	25433
샹	1256
선후배	19227
일어섰	15808
회심	27041
붙인다	28122
##ET	23503
##탈	2217
삽입	13204
전력	5065
연평도	17730
박형	20596
타점	9167
##이크	4581
태경	30228
거래량	12025
속한다	12673
뇌	776
4400	31260
모바일	5221
들여다볼	28166
[unused466]	31966
한라산	19567
위해	3627
패스트	13867
로저	23903
건재	21584
##퀸	3416
텃	1783
comp	20793
능력	4053
교학	24076
점잖	20232
♡	162
##82	24179
정족	30782
도주	13682
게나	22949
이미지	4661
판시	20928
갖추	5330
전열	27310
※	123
갓	551
목걸이	15451
쓰일	18767
황인	26337
孫	315
##at	4493
더워서	31279
일관	7182
##후	2158
행군	23124
으라고	10889
신나	9716
##잖아	9958
##산업개발	21729
##ork	8728
상수도	16028
성당	9693
늘어놓	12775
진다면	22173
중앙선관위	29870
추론	14201
재우	27008
살펴봤	20051
무거워	22978
법무법인	18621
의하	5386
오케	9060
꽃게	24503
제곱	25916
귀금속	25377
통합진보당	11587
[unused241]	31741
##alth	18747
뒤흔	15254
경도	20764
특공	22010
권력	4730
클렌	11509
영동고속도로	30032
토대	6340
아이템	6226
##저러	27351
四	292
메커니즘	15147
접속	8407
아니요	15338
신세	6129
재활	8810
첨가	10607
등록세	28558
홉	1931
상학	21441
각색	23009
편히	15867
봉안	30872
##관계	8812
회의소	11974
##테이너	9986
막중	24119
사보	31424
획기	9879
프로야구	19344
쐐	1360
수묵	31358
뵈	1171
볼넷	11671
맏형	29640
어두	6924
허락	7852
웃돈	21458
살펴봐야	24992
재화	15172
장사	6399
[unused208]	31708
꿀꺽	27232
##둠	2647
장세	16566
아산시	22954
안도감	31390
##츰	2943
##ian	10129
양수	14267
눈보라	30779
혼선	19063
점쳐	18890
보임	21314
##디	2220
[unused247]	31747
열매	9274
천안시	18570
정회	30252
레버리지	24457
선장	11064
설립	4584
노르	10735
투자가	15986
될	861
잠든	18357
혁명	4904
업그레이드	9482
루머	19070
검문	23365
챙긴	14481
이브	13422
방학	7377
##기술센터	25186
층간	25226
상쇄	21427
으라는	17881
여의치	22292
##가분	27746
외파	28339
염전	31359
슬	1319
동백	16019
동맥	16479
마사회	19928
덮여	23276
난해	24098
컸	1718
김경문	28233
##주의자	9183
김재원	31318
빠진다	19588
감가상각	26830
입성	17931
멀티	8433
미친	6925
pp	8123
명함	12645
사지	14983
##ency	23481
특임	24125
떡국	27909
보충	9084
북아	17720
번개	14415
[unused249]	31749
끌어안	13490
안타까운	11491
어야죠	29860
옴	1449
사고력	16203
고참	23574
사악	18553
방점	20794
집사	15638
앙	1387
롬니	28376
재	1528
라파	20356
청해	21359
맞물리	24088
간이	28110
쫄깃	15119
프라이	8764
그렸	11276
싸울	14761
한명숙	21746
비거리	24915
희생자	9686
하자	20651
관념	7227
##장구	14009
카터	20604
고치	9995
##콧	2804
이산	9072
흘러나	9976
웰스	30399
인신	20397
찾아갔	13138
기류	15349
납세자	20321
줘라	29541
##령관	26516
통신사	9806
숨졌	14600
인출	14021
헬멧	22681
명산	29987
두껍	19822
컴	1715
지기	15117
사무엘	28980
진압	10885
NG	14885
##수정	22161
뉴스	4836
부지런히	16319
현재	3738
보르	23643
묶	1090
##and	7034
##하이	13957
Sh	11551
바둑	8829
급사	29261
냉정	10536
테스트	7453
창원시	8914
거시경제	27584
성자	21257
트러	13683
제시카	29025
수출입	13154
레인지	29840
원초	18362
의장단	26749
느라	6078
시뮬레이션	15594
처리장	17900
##췄	3501
能	471
학대	10241
웹	1484
##테르	14311
식욕	15686
##ould	22209
이찬	26836
칼럼니스트	27876
데리다	30758
##려면	19644
신재	10122
전단	14327
BN	17160
고음	27594
표준	5953
곤두세우	21539
이재오	19970
몰라	6168
장난기	30137
윤동	21728
난타	29499
유권	29243
##적	2125
어쩐지	15999
류중일	28029
칸	1699
습니다	3617
몰카	29989
[unused327]	31827
슬라이더	23846
##잭	3507
Poli	23310
급감	12026
##다닌다	27866
테너	26411
빼내	16591
진짜로	22480
면죄	24323
체리	19784
내달	8474
부위	6378
토록	9193
이코	24936
산티아고	30723
[unused468]	31968
우루과이	21515
회고	12153
사무처	22282
##기념	18296
##버린	16199
##마스	6931
혼동	17315
상병	23423
김대	7082
격차	7144
##ex	11524
115	13018
ㆍ외	24417
[unused90]	31590
##스키	7891
화두	10060
뉘앙스	24342
아랫	11007
뛰어넘	8585
##연수원	24171
꿈꾼	25417
##물산	10696
##ody	24974
##이너	5557
Ins	20172
크리스털	28967
타율	9567
여왕	9196
찌꺼기	20587
해외	4075
어도	4579
유니폼	11300
고딕	30260
초간	30021
대우	5438
##HA	27002
황제	6281
朴	393
근데	4224
요직	21626
##가짐	14094
950	24410
탑	1766
청소	4425
시학	30565
블루베리	20722
들이대	20848
전반전	28854
치르	7217
진단서	26531
뚝배기	29165
덧	838
중징계	19625
실감	10014
갤	561
굽	622
걷	571
텃밭	11976
2030	12352
까다롭	17586
짐	1588
떨림	23538
쳐	1661
봉인	23623
…	121
안드로이드	12688
다급	14178
▷	151
점	1540
##MC	11505
##아르	19534
난로	24014
권력자	17672
떨어진다	11370
방사선	12955
포고	21510
빈곤층	21053
순위	5297
[unused224]	31724
테오	27330
##전	2165
##옆	2967
깐	656
노자	15942
##eau	25744
중지	10088
스칼	23924
빨치산	25568
벌써	5442
빠져들	16889
##쏙	3364
싼	1338
사우디	13713
진	1585
버릴	8402
명기	23989
그나	7005
경건	18134
의창	30951
상표	11432
핸드백	19874
대타협	26066
##벼	2662
##필더	13805
가부장	16513
##집행	24025
##벌	2295
전야	27097
유니	6695
관서	28024
박석	20350
방지	5402
저조	12503
몹	1084
선양	21691
불거	8470
깨뜨리	23543
국민체육진흥	28711
##겨울	19237
중증	14345
발주	8232
생소	13517
온화	19429
[unused59]	31559
모스크바	13424
경수	23647
한국야구위원회	29957
##누르	17236
장경	25732
빌려	7004
##차림	13453
STX	11052
유인	9372
특강	10343
공구	11451
기하학	20159
##IE	18577
##듈	3399
[unused395]	31895
##🤣	2791
왕가	26465
아픔	7945
이온	12350
집무실	17485
모라	29901
다면서	9711
생김새	22897
생각	3628
논술	8206
##챔	2868
##도장	29071
팅	1825
노란색	15839
블로	12351
빚어졌	28994
정주	12945
던져	8388
트레이닝	12354
예능	7875
흥얼	29467
##사람	11336
[unused44]	31544
넸	757
음악회	11608
배고픔	24341
야경	17855
택할	25918
[unused28]	31528
n	81
흘러가	12926
셸	1281
성남	6406
Bas	29432
다람쥐	24291
피츠버그	20378
박	1119
버립니다	30915
저격	16768
도가	17307
옥스퍼드	23470
터뜨린	24373
스리랑카	25356
왁	1454
고용	4571
스콜	26530
역모	29605
파일럿	26204
[unused105]	31605
덕분	5522
세계	3665
들려왔	12130
든가	12983
재조명	22369
실	1329
부가세	22284
전용	5119
##im	6828
「	172
뼈	1217
불러도	26948
마시	5012
2020	7330
한영	21134
상의	10346
영사관	29281
서청원	25574
영등포구	21552
수소	9161
곶감	24795
일일	9479
자넨	27395
임박	13916
떨어뜨려	27520
구리시	30474
무제	11885
아끼	7619
라곤	16315
마구잡이	27253
##닫	3354
##없이	4087
알펜	26765
황교안	15597
쓸데없이	27606
3500	14831
##집니다	10116
행할	30396
송영길	23925
ㆍ국	23639
줄기세포	15246
그자	20324
룸	1006
넷플릭스	23026
유무	13133
아주머니	11190
가리킨다	16519
올라서	16595
[unused178]	31678
KBS	5644
형부	26378
##영향평가	19761
##버리지	21103
모공	14431
타구	17757
노동력	13178
곤두박질	26634
김국	30572
건강식	23478
##익	2427
잖아요	4945
유재	13655
기동	14891
구단주	27265
스탠리	21522
페르시아	17198
##교통	10011
##생산	12578
예식장	31449
서사	9935
헬스	9127
암살	12269
##드리히	29521
충돌	6563
체납자	27421
이의	13519
슬로건	12016
견디	9058
야지	12491
주축	11581
노하우	7600
교도소	12381
산전	17370
각질	13928
##나무	4977
성균관	11747
##ans	16654
패전	18576
밝혀야	18883
을사	29857
거늘	24328
수능	5662
한하	25268
pre	27093
##일체	19368
비정규직	6981
[unused305]	31805
회복세	13505
코스타	24908
아요	4059
갤럭시	7275
##설	2068
일류	14800
식용유	29195
선언문	17164
기다릴	14826
연호	25224
건만	14791
고고학	22875
절실	8027
착	1633
항변	18560
이재용	12989
##저기	8759
표지판	18536
앨	1392
##쏠	3404
수용자	13189
어렵	4258
메이트	26010
이겨야	25281
폭파	20958
세기	4604
253	28986
##카	2127
이도	29193
라는데	27267
사용법	20650
##을	2069
비치	8814
단식	10153
법학	12973
또는	4013
성현	24074
##어났	4909
살인죄	31329
○○	10095
한글	7896
냉혹	22799
李	1977
선불	24430
알아들	16880
이슈	6040
1979	11672
푸	1869
귀	630
관리자	9670
잠자리	11972
수부	25976
목격	8846
어린	4030
매달린	22403
비니	29656
St	6552
큼직	22121
유미	27546
날짜	9384
무더운	21972
㎝	206
[unused338]	31838
##랏	2641
##밋	2997
휘말	14496
통계학	30958
##랭	2398
송혜교	27673
움직였	12995
대안	5605
우러	15228
기우	18695
최철	29649
보상	5175
##els	26512
눴	785
원부	31306
155	14696
강의	5432
전등	20640
진땀	27247
원목	27280
##머니	3882
땄	902
##와이	12213
협의	4465
후보지	16142
부두	13745
선천	16349
사법부	13271
아슬	16787
호텔신라	27969
모른다	5322
##콥터	25046
임씨	31346
안무	14920
닫	813
스티	7914
경제성장	15169
강서구	16104
런닝	23018
[unused148]	31648
요시다	25564
##결제	28605
문고리	31170
##러기	13660
##팸	2545
트랙	10066
마리나	19872
206	21732
물러설	27860
오타	17673
한경	21556
##전자	4284
화답	16006
일단	4458
아주	4129
운용	5356
계량	18198
해석학	24521
##새끼	27121
보육	7557
##로지	7683
원대	9781
기획사	15345
세탁소	29101
당직자	18657
여든	28729
##쫙	3383
임차료	30237
커다란	6282
##임금	10245
음악인	27148
절대로	8303
한양	9182
구정	23104
##니어	6713
##GA	12170
탐사	11428
공군	10131
따가운	28803
개년	17473
필라델피아	22080
유급	23900
##스티누스	30981
정유라	23431
##쉽	2961
일탈	15605
고교	5762
반격	12727
인공위성	21577
관광객	5454
출간	8189
일군	23935
만국	29720
그만두	9256
##꽂	2358
##int	14557
운동화	24602
준호	30075
##케	2247
##뷔	3245
박범	28168
하느님	8128
칭다오	27457
시프트	30696
칼리	15884
감	548
아운	27733
절세	19126
##로프	29728
피란	29749
IMF	8682
깨물	18279
코트	8202
로리	24620
배상문	30294
##갱이	14850
얽	1412
애프	19805
멤	1069
독한	22887
서비스업	14084
전유	19050
경이	14459
노렸	20175
내실화	30401
##녹	2912
라거나	23516
역사관	19535
나타난	6897
원치	15671
붉	1177
도적	18400
##아가	4401
균형발전	12656
갠	560
고체	25215
위임	10751
젊	1539
바삐	31218
화가	9562
군비	20412
경상북도	19301
##＜	3017
##춧	3384
플레이스	18312
체육공원	28838
돌고래	19815
히스테	26330
대진	21345
이은	14188
폼	1866
어긋나	14003
정상회의	24051
닦	811
진보당	25081
피안	30154
니즈	15407
3200	24760
구만	13168
화력	11033
면발	28497
##티넨	26077
추장	30594
늄	789
댁	824
어촌	17127
개종	26845
시간대	18374
RP	26490
변화구	29181
㎞	207
하얼빈	29030
괴롭히	13852
노숙	12124
자른	27440
본관	14529
112	11368
##범	2511
동심	23960
없애	6697
비박	14291
김복	30238
아니한다	25661
건축학	30887
성북구	24926
집요	16151
Mor	30376
마운드	10755
신안	14946
뜨거	10635
pol	22878
지향	6114
향방	23890
당구	28323
놓치	8043
차종	12139
박정희	8316
크다	11260
선생	4179
##스코트	29958
테라	15163
산행	11910
장례식장	19489
리서	10447
제사	9234
과반	12196
재결	24762
붓	1179
1907	22755
Korean	25098
뒤흔들	20097
아로	17217
북동	22981
망토	28971
##her	12125
라이프	7768
소견	20897
World	15914
단통	31271
띄웠	29601
티셔츠	10878
들러	12243
개정	4615
선출	6940
##복음	20342
공포감	30802
설탕	10273
들키	25422
태초	29504
동래	15742
2400	20060
이해관계	10493
##율	2534
금발	21459
작사	18120
드려	13244
멍청	14475
학교	3741
태종	14482
더위	11388
정관	12209
선유	30744
자아냈	16532
잔다	25887
##핫	3160
박선	19609
##선언	27203
원년	16817
이낙	22290
구속	4908
팜	1831
피에르	24250
##읍	2058
기분	4754
과도기	25653
해동	26611
열성	28654
벌였	7427
International	17165
뒹굴	21170
아군	19960
Des	23980
##사인	29141
찍혀	20948
당나귀	24049
##돈	2765
정신	4006
##새	2273
평상시	14129
삼성증권	15023
##진구	18237
불멸	20672
떡	910
무신	15749
행세	19911
[unused408]	31908
파묻	17851
와요	21382
평했	21778
뛰어올랐	26182
##즉	2717
탐정	21042
비	1187
##az	19316
다이얼	26593
##넉	3295
HS	20255
장밋빛	24508
삼거리	25688
비행장	21615
##라마	19045
정육	23133
히	1969
원격	13025
감정가	27074
취하	6066
##18	22400
양상	7059
타원	27737
##fic	14633
##oth	25293
##성이	11604
##쌈	2833
흔들렸	18973
마태	23932
클러치	27225
역할	4008
명제	12445
착취	14203
싫어하	17323
##힌다	6865
모임	5383
1983	11699
먹	1059
디디	27299
배심	16295
맞설	25719
DGB	23762
도시바	24737
향응	26763
숨통	20316
Car	16864
면목	29264
승강	14629
##instagram	24913
공산	6167
간단	5324
익스	14054
장수	7304
##ㅋㅋㅋ	15352
대적	26695
전위	20886
경시	20325
중구	7363
연개소문	31215
보건	5308
페리	16248
우정	8993
함정	10997
##넸	3574
체전	13325
ｍ	1991
##인다는	15778
將	327
장모	15536
[unused221]	31721
[unused391]	31891
써서	9654
##좇	3483
박철	21155
①	136
기와	18016
ㆍ경제	26360
222	26853
호치	27828
소유자	9280
##ler	21734
##난방	19430
닫힌	23661
[unused447]	31947
면세	7572
쏟아지	9403
##다닌	19203
문화	3697
식당	5499
##펴	2761
명백	8006
조현	12730
부설	18384
##맺	3525
수사대	20122
1975	12924
연장전	23893
야크	27348
GO	22349
위용	25890
일까요	11357
행한	19377
별로	5429
짖	1592
##팔	2892
내비	9032
##다오	19399
##뤘	3116
인디언	14734
도련	23027
썰렁	24808
##공화국	27771
봐요	7646
민박	22143
[unused145]	31645
se	17219
마음대로	10610
비대위	11565
고마워요	20145
건축사	28147
[unused190]	31690
잘못	4389
외식	10105
캠프	5774
천주교	11606
##47	23296
##궐	2771
이별	11240
심히	25278
[unused276]	31776
카테고리	17748
구자철	21355
공민왕	25643
게스트	13612
벌인	9667
후생	17383
ㆍ청	29907
구걸	24192
##섣	3584
얌	1401
양구	20517
##털	2669
[unused243]	31743
문예	11165
야영	27535
기념식	12286
##우뚱	26368
타도	25482
건배	30034
사이언스	17555
오목	31111
광개토	27478
전교	8425
숙청	21787
서브	12296
##자동	26070
##틈	3266
정량	24994
귀담	29127
잇	1512
식료품	20765
모를	7595
유언	12891
상경	17999
##회사	6166
박병	12625
인사	4004
##apter	31185
##프레소	25420
[unused248]	31748
[unused280]	31780
##대기	12054
참모총장	25178
##아차	30850
파손	14147
##ps	18354
자랑	5229
부차	27332
##르노	22588
비무장	20925
##uck	24869
마켓	7931
손목	10818
빈손	24827
랴	961
이긴	15810
퇴비	29177
주인공	5093
캄보	13592
떨렸	22317
전제	6034
모집	5287
톡톡히	13736
새	1244
주간	6872
나고	26354
안나	24135
닙	806
예배	9829
당국자	12628
##십자	13181
윗	1488
붐비	26576
신수	29294
##와	2522
박물	5786
중산	10048
두뇌	11459
강좌	8811
이요	22195
대판	30202
##메이트	27918
어시스트	19111
귄	631
##af	9292
졌	1551
흙	1962
제재	5900
아저	6805
##몹	2815
쉴	1309
이타	20932
왕위	13269
##날리	18957
릇	1025
현란	22270
안식	16469
흐느	17767
하이퍼	23273
한도	7932
심리학자	18849
제하	20943
부탁	5527
士	303
포드	11691
호떡	30326
그리스	5001
정부	3659
통화	5071
본보기	19199
사설	10196
샐러드	9106
부릅	24280
정상	4073
이창호	27677
체납	12687
비일비	27432
##레라	24888
상기	10652
기르	9769
##매	2077
편리	6589
지나쳤	27842
DVD	22730
라이	4888
不	218
찾아와서	26644
##⑤	2924
팔짱	22054
ㆍ대	19443
178	14432
##an	3947
옥상	12338
타이어	7632
라벨	18745
방불	21233
지랄	26457
현주	17006
알록	26850
미셸	17595
항생	16517
와중	9676
그레	13429
강전	13729
술자리	17255
위기관리	21290
떡볶이	10725
판명	20084
싱	1334
떠맡	23853
선명	9426
사육	14212
순순히	21219
놓여	7656
이색	11408
뉴질랜드	12328
침식	26415
데니스	27110
##위성	19091
##㈜	3331
경주	5586
단호	9011
그래야	8741
자청	22219
##늪	3221
당귀	25821
스폰	13481
[unused61]	31561
[unused450]	31950
##만별	25100
어뢰	21538
영장	7158
##ㅋㅋㅋㅋㅋ	23245
먹히	25681
[unused107]	31607
장마철	23045
김주	10728
풀타임	25348
부동	4403
올레	10766
낄	715
대장군	29343
헬기	11055
결핵	16661
KR	28334
대전	4431
폭침	28659
소폭	11577
터질	16155
##랬	3219
흐를수록	30855
로망	20797
84	6437
십니다	12177
문학관	19310
내고	30524
점거	16107
[unused337]	31837
심연	26074
재정부	8139
밀려오	24614
이룰	9957
진우	20751
수출	4264
먹일	30173
발달	5903
##──	7941
뛰어든	17460
웅크리	24714
독후	28946
으면	3688
System	19497
ㅜㅜ	9922
우리은행	19407
체결	5186
##연료	22791
PO	12662
인터페이스	23731
알뜰	12597
아랍에미리트	19518
파수	26761
유가족	10459
##레타	19476
양치	22045
국채	10288
황태자	23820
나왔었	28949
구출	18087
이탈	5338
우왕	19728
완패	25492
단번에	18617
이어서	10367
혼혈	27251
예선	8295
박지성	10430
당하	5340
췄	1681
세르비아	22618
지질	13282
반면	4305
미뤘	27101
마침내	6451
감귤	21963
지바	24378
당산	27915
##왕산	27649
청동	17036
퉁퉁	30402
##곁	3580
과학관	26710
매수세	19773
진다고	17755
보내	4209
##긁	3394
만	1038
##마켓	13319
정밀	7938
Im	25402
십니까	7109
몸값	16297
유비	10756
소청	31179
청장	6247
휴일	10471
속도	4780
##고속도로	12211
국제공항	14074
빗물	15421
어깨	5463
장터	11586
이야말로	8126
워시	22041
##◆	3096
트윈스	27830
한해서	28900
페니	26778
쑤	1361
육회	20485
[unused435]	31935
리포터	24266
포문	26296
이사	4188
살펴보	5196
증거	5331
강의실	18522
스페인어	25845
고소장	29532
트레일	30984
천천	6847
올라간다	16172
안면	13534
т	110
베네	10920
어린아이	11098
카탈	22554
항산	18172
서원	11360
무궁화	18674
부담없이	27810
데이터	5189
재난	7490
㎜	205
재협	17592
F	42
초교	16032
朝	388
건가요	12039
초년	24239
비집	28861
한겨레	10304
들려준다	22057
선팔	12925
했잖아요	17732
하지원	29346
수리비	26604
##뿜	3332
건드	17325
##거려	25951
[unused277]	31777
기교	21665
침상	29342
에피소드	12321
진아	29284
비하	7710
쪼	1612
올라와	14607
월세	9576
수평선	29490
비잔	29554
간헐	30840
담당	4476
자본	4452
과부	18074
먹여	14130
눕	783
두근	15201
도가니	26037
1992	8442
코스모스	25479
너그	20571
##사랑	15581
실익	27514
ㆍ합	30050
방아	23702
##느니	31053
[unused23]	31523
호스	14444
을지라도	26430
스틱	14973
등지	9134
기고	17073
날아왔	29316
[unused469]	31969
노심	27363
무수히	20579
##학	2218
출력	11232
do	21287
즈	1576
출입	6611
신라면	29167
하버드	12077
내게	5863
유명무실	27817
어	1406
##DS	25165
ㆍ보	20864
기말	20304
##차별	25994
변종	27022
타이완	29670
취해서	30629
갑작스러운	23109
의과	20384
기저	12175
벌판	24516
처단	28081
[unused379]	31879
고약	22383
요렇게	11825
産	433
해진	6046
구상	6685
커뮤니티	9057
울림	16126
콰	1734
古	275
59	6105
앤드	11794
해안선	29031
명목	9624
수포	27176
조목	22868
[unused316]	31816
동전	12204
영천	15019
중고	8454
싸워야	22838
[unused38]	31538
어쩌다가	30992
하락세	11652
보강	9438
한국군	22844
쿠팡	26691
슛	1315
종합	4339
위증	24924
김여정	29801
##충우돌	30749
##축구협회	27642
##내티	30058
##소싱	26803
병세	30420
창의력	13054
성완	23014
So	30985
##미리	22502
에선	4409
분향소	18551
당분	8039
맥아	22726
무턱	22253
파나마	26663
생도	30209
려면	4660
통찰력	17751
먼지	7801
전지	7413
까닭	7347
pr	12061
수렴	8178
##금융	14554
상무	6911
보스	10675
고품	13007
[unused149]	31649
h	75
문성	18269
ㅡ	197
무관	7558
콩나물	15133
##래	2315
승강장	26938
무겁	10804
이끈	12297
##겨	2368
오디	17944
칼빈	27062
게르	18945
도처	21736
##렐라	19265
박석민	27066
청국장	27385
##테스	10814
피시	24641
전공	5911
##혜영	27030
01	8671
파	1826
가져간	29309
동호회	14490
멀쩡	14430
제동	12704
톱	1798
대상지	25432
##작	2333
##홉	2854
갈아	9559
제이슨	26123
살찌	28421
현대	3845
손아섭	28657
무더위	14676
무상	6096
노란	9169
[unused30]	31530
정사	14731
구태	16717
흘리	7549
그곳	5345
스파	7165
계몽	12326
##ik	14031
블랙홀	20417
아까	5663
금요일	9893
윈터	28991
##난	2336
전쟁	4175
25	3912
한심	15120
근거리	26526
##분	2377
이오	17938
##명	2211
국어	7062
선반	22139
여론	4864
조합	4936
저력	17495
핑장	20066
꺼낼	28806
스키니	28919
부풀	10372
##대원	20918
랜딩	30791
이제	3699
컨텐츠	16326
굵직	17454
묵향	30944
화분	15853
고공	16515
##들	2031
물기	16444
##랄	2519
뒷면	17423
휘둘러	23186
나경	16699
오비	21907
솔선수범	24494
쏠렸	26136
[unused378]	31878
주유소	9926
##널	2781
자율	5365
하물며	21330
나온다	4928
가인	23834
##경찰	16584
컬러	6003
르네상스	13606
나뉜다	15196
렌트	24273
볼턴	24556
망치	13187
처벌	5581
시드	12287
레몬	13264
다신	26024
##스토크	27462
숍	1293
옥외	21975
하우	15904
상했	25624
걸음	5932
##블러	24703
당선	5112
단계	4137
경대	22798
##세이	11205
워크	7809
루스벨트	26649
##퍼슨	30571
국소	31361
##제강	21910
대연	25803
대구대	25274
도시락	9451
##레나	13153
##ool	17567
수영장	12174
갇	546
션	1277
루시	16852
재조	20879
한동안	8480
조중동	26877
컵스	31080
##ucation	26233
성실히	20592
엥겔	29513
기관지	16524
이연	18468
속삭	12979
추세	5833
아우디	15138
##x	2296
시점	5184
촉감	27512
연합뉴스	26973
가업	23197
##원식	30425
페이퍼	19631
205	20274
##오래	26739
##rib	29026
유두	31387
가벼워	21750
단일	5661
유로존	14518
동계	8391
쓰러	16571
##rap	19709
##ug	13721
에디슨	25161
의외	8797
바닷가	12156
킬로미터	13087
미술품	19272
자릿수	14690
푸념	23687
염상	23234
희망퇴직	24812
예산	4135
분위	4251
면서	3613
울주군	17507
2500	11317
눅	779
산호	23181
초인	19801
마오쩌둥	24612
##ited	22198
팁	1824
지침	7661
가질	6991
소재	4642
##자실	20428
덮어	30704
불문	14294
파헤	13544
잘라서	26809
열기	8327
인기몰이	24897
꺾	667
常	338
맞벌이	15498
교직	21957
식습관	19206
존슨	13802
여실히	19887
요구르트	24894
나온	4094
삼성	3840
킬러	19073
아홉	9162
초빙	16587
체로	30783
광	609
테레	21090
히말라	18645
최선	5449
흔적	7061
약정	11024
구글	7116
본다	4919
듯	885
##깐	2965
초조	13100
한낮	25330
트렌	6764
빈민	16942
##차곡	23089
애썼	17663
꺼려	19983
＝	1989
Soc	14776
추대	15305
새로운	3824
김한길	19868
신태용	23946
헨	1914
##르바	22744
유진	10248
둘째	5532
여의	6884
수사관	16095
페널티	18316
깨끗이	13235
##ㅠㅠ	4907
1984	11044
153	16002
가물	23465
가창력	26281
데려갔	29626
##푸르트	21046
後	348
마셔야	27864
이윽고	12201
##막이	15063
호스트	24769
마인	25909
##저히	7526
##개발	9800
La	20140
려고요	28824
차분	9795
세계관	12030
인해	4534
민간	4688
상이	13616
유권자	7243
달렸	9974
어수	17908
발아	29336
낙찰가	25166
일절	21660
트렁크	20162
구분	5313
빛나	8215
##ith	10229
대변인	5979
마십시오	18853
흠칫	29188
告	284
와이드	24206
킨	1756
179	13801
듈	877
##룬	2841
견주	23843
수칙	21193
공소시효	25217
[unused311]	31811
광안	19483
러쉬	26035
긴급	6494
##81	24272
국제	3854
1990	6241
수박	13477
정비	5336
걸어오	22038
세출	26655
##셔닝	28676
단의	17151
매번	10345
들어올	9994
개관	9244
페스	23919
프랑스인	23268
드나드	27127
##본주의	31401
신대	17071
[unused482]	31982
사온	29771
뺨	1208
수확	9215
카카오톡	12970
냉면	14543
놓이	16112
떠난다	17990
##ute	20669
수혜	10315
##맞	2608
요거	12029
총파업	17143
지닌다	16954
##막염	24198
국론	29838
드린	11661
팔상	23498
취직	12820
원단	11964
##북도	13191
게으름	23882
콩팥	30904
##껌	3350
소프트웨어	7547
들녘	31256
숭고	18380
성악가	25824
예쁘	7693
성추행	12221
우호	10984
야겠다	26031
2000	4470
##셋	3136
김효주	27790
타르트	26738
쑥쑥	23129
요충지	26423
떠오른다	17465
전해진다	18302
브로	9791
계산서	20840
選	510
피지	12407
솔루션	8463
올려놓	23397
이날	3814
포스팅	13163
상당	4169
용법	31214
엘프	19027
도미노	24857
생동	17364
험악	25421
실세	12826
통할	21673
##벼락	19023
참석	4391
##퍽	3450
덮인	23905
판매자	19646
노부	16396
곡식	16353
아토	13012
쟁탈전	30183
이뤄지	6031
[unused80]	31580
불면	19616
가액	15370
허물	10785
쳐들어	21953
[unused131]	31631
##사이드	26470
소	1282
색상	8817
일축	16189
끝냈	17324
숙성	14180
택시	6032
Ibid	24225
##득	2537
명물	21311
지그	19276
저출산	13248
천진	19628
유임	27466
강창	30874
##저트	10008
가면	18140
치고	22167
을게요	30801
공포증	31072
미술가	27049
일간	10378
해운	6138
내부자	30929
##action	29918
박세	15267
##동	2328
##aw	13139
프롤	17690
얼마간	23487
홀리데이	30963
샌드	11315
##납	2490
뚫	925
덤	836
아낙	20404
책임	3998
바라볼	14824
죄송	7822
##HD	14241
츰	1687
니퍼트	28248
깨	662
귀양	26766
수협	17902
운	1471
화폐	8259
경성	13885
서프라이즈	28412
혹시나	16249
라식	28753
듀엣	30705
구매	4625
우드	12055
맞춤법	30810
벗어난	11682
자처	14556
마누	15101
인터뷰	5111
##스름	24616
##뒤	2980
유산소	24019
상대방	5965
단말	9602
플래너	25579
[unused363]	31863
편찬	13032
개운	19331
푹	1870
김건	27892
각시	31498
태양계	29406
간극	25812
던데요	22005
박동	16213
역도	16554
배웅	23777
그리드	20414
고든	24804
떨려	29813
질수록	18349
[unused73]	31573
꾸러미	25341
누리꾼	11042
헌법	5130
내비게이션	16939
그란	27764
스프레이	23978
엔가	28158
JTBC	15710
플랫폼	17090
해소	5343
조직	4001
괴롭혔	25593
하이힐	28360
[unused455]	31955
가평	12253
신봉	19247
정지	6452
감옥	8917
ㆍ중	11270
넘어오	25316
평상	11809
##버니	28453
국산	8549
협업	9641
아오	19465
##수록	4556
|	95
##균관	11701
지역구	9340
불어나	22766
반대쪽	23408
문지	25647
병합	16021
넨	754
##세지	18004
단군	13922
건넌	31382
여섯	7070
마냥	11308
중앙아시아	21703
푸석	30024
##TA	5816
입대	12119
자책점	15205
##덕션	23198
어조	14116
카자흐스탄	19490
##하르트	31347
조선족	17992
강우	21424
피해	3992
##브라	14561
날개	8339
눈여겨	12595
렌	976
대란	15116
NE	18835
미뤄	11236
이응	31125
울릉도	15720
##쬐	3496
시선	5259
대승	15602
정태	17123
해부학	29219
분포	10339
##마트	4128
다분히	21849
블로그	8958
우주	5211
나프	31240
선가	15248
안착	17172
두리번	22564
##59	27252
알짜	21473
항암	12505
몽고	18422
##RE	27605
Int	23722
no	19665
회한	31184
일요일	8223
우두	15357
바꿔서	26513
공공재	28847
##B	2206
at	16962
Ge	18952
한판	17316
기러기	27403
일주일	28179
장승	22390
차곡	22687
IA	24610
같이	3848
들어와	7107
올바	7030
오호	22152
이통	25148
모택동	28818
선체	15980
온건	23259
소금	7691
피난처	27779
타국	24480
풍성	9290
주간지	21447
Techn	23158
채팅	17131
수뇌부	19902
황금	6983
플러	22097
부실	6307
등기부	26532
225	19863
다른	3656
골목길	14387
##ower	16254
석상	18162
육	1491
수뇌	18167
##로워	20536
야식	17144
어떤	3711
은지	9075
버디	11269
누락	15648
토로	10041
혼자	4638
워드	21343
강등	20204
지	1583
잠수	10222
##난히	10451
김동	7551
##넣	3475
정리	4706
영월	17376
##거래	7315
보여야	18937
시행령	10918
떠받	20679
합성어	24707
대했	28811
자회사	8694
비닐봉	27480
양배추	19015
돈다	29631
알펜시아	27582
동의보감	27609
사령	6766
##발	2311
루마	22956
줄어들	5968
극작가	26704
유머	10384
누님	20814
음악	4152
리비	21114
층위	28691
여가	10956
만연	15134
2015	4912
신라	6423
서태	18418
부러	17262
FO	21122
관점	5535
##베	2472
음료수	17020
껄끄	29555
거든	4250
알렸	11067
면세점	8282
테리	28002
후방	17210
역사	3846
초이스	29366
홈페이지	5299
리버	12202
앤서니	25347
만족도	10209
실루	23384
##늦	3167
의구심	14166
최우	7022
멤버십	18794
문희	20694
자료집	26950
부동산업	30417
##공사	5634
입니까	7523
미약	16242
##슐린	19069
율곡	23618
배제	6337
란다	11243
순자	25885
연대	5309
114	10971
##이션	4632
득표율	19297
부풀리	24878
락	943
대량	7679
야기	10013
甲	437
아폴로	23875
여도	12984
마운	19869
효성	11326
즘	1580
쭈	1620
텔	1788
급하	11122
비방	14762
녹조	20967
##부족	16766
3600	24898
키즈	10442
정자	10941
포즈	14968
탄광	21886
한수	28335
덩달	16180
##obal	19325
트래픽	25554
그만한	30914
##올	2245
경악	17559
김영철	20875
최준	25985
##그머니	17745
效	370
장롱	28817
올라오	9535
파헤치	21970
한잔	10897
매월	8977
설렘	19614
니	801
현행법	17010
염원	13708
스스로	4201
사소	9759
귀걸이	24691
戰	363
환영	7130
폐	1861
끄집	19099
골대	26017
##쿼	3505
##시오	5805
과태	11638
치솟	9884
돌이켜	15654
통곡	19750
##간접	22126
맙	1044
서해안	15237
관광공사	16404
계망	20474
정세	8929
기껏	17455
health	29482
개별	5849
의아	12782
이율	18907
묘비	29873
건네	8916
스냅	21733
신랑	10512
##렌스	19082
맞춘	9368
화원	19812
맞히	21599
레슬링	21801
쇼	1292
고프	22779
##냇	3487
비율	4657
송승	23399
시뮬	13959
컨대	29285
㏊	212
처하	14674
아동학	30333
배격	30799
만리장성	31489
미칠	7729
MR	20606
합격	6050
행정	4099
레이어	23325
경산	12772
달아오르	23592
고용주	25899
태	1770
##릭스	10490
##ri	5660
강습	21138
미루	8985
해치우	29496
목요일	13262
스릴러	19445
축전	19375
진과	28367
공부	4244
##하마	18396
레크리에이션	29240
어쩔	6421
인문학	9917
오래	4517
맵	1054
##무소	14499
수행자	25931
저걸	26335
소식	4880
##co	17664
##듣	3066
소치	15917
멋	1063
##om	4434
백지	10694
노무	6160
[unused494]	31994
우산	11226
닷컴	11745
상공	7542
대교	12116
기약	19076
테르	22168
주선	16272
수출액	17430
##oon	19563
##낌	3040
고산	19389
아반	20124
다니까	18178
능히	23863
손짓	16863
재무제표	17600
가나안	30608
연일	11191
프로듀서	16110
품위	15524
오영	24099
페라리	30920
자영업	9521
net	17640
##챙이	31303
곡	595
아닌	3885
옮겨	5881
채찍	16772
원어민	20513
대한축구협회	27680
난립	23126
##옌	3027
특구	11504
물통	27896
다움	26386
역발	29912
뽀	1218
본격	4562
성리학	17444
호도	22381
출격	19715
입히	15017
금방	7401
염분	27596
호기심	8644
청신호	28823
응접	30452
##먹	2389
##증권	7072
조선어	30858
[unused318]	31818
던	833
선다	19386
소나무	9804
사법	6150
q	84
##정	2287
오현	31047
##덩	3031
반대파	27608
지켜	4580
미지근	29765
필두	19004
##ap	6519
동아리	8394
쿼터	10563
어울려	13486
인사이드	29444
사과	5180
지배층	28299
대법	5734
잠재	6199
드러난다	12624
완만	18026
잔재	22756
어둑	30525
일지	7807
톈진	28419
껄껄	29451
수양	15651
##ne	10933
단순히	6044
뜨거웠	18948
##멧	2910
##리에이션	28941
생겨났	14511
##텔링	18878
신진	13561
정렬	27278
##ao	28541
오라버니	30358
몽롱	31305
텔레콤	6976
좌우	6709
고용부	24884
소크라테스	16514
##꿇	3490
##넬	2829
공연	4187
돌격	24933
워너	17612
휴직	14046
친다	17009
해양	5008
매혹	15933
seoul	30498
북극	14373
43	5594
1995	7394
신탁	9464
통용	17675
으실	15932
뛰어들	8444
지나친	9883
당내	8360
해학	28408
짠	1597
더라	3836
u	88
이해	3923
반도	6069
유학생	17760
문고	19245
216	23440
아수라	24043
생긴다	10012
한국학	26755
중급	30812
##란히	6173
[unused326]	31826
획득	6716
전망대	14822
여럿	13925
디테일	14346
파국	20499
입양	11930
라운	14380
왕릉	29151
IB	8617
날릴	29527
생겨	5923
구기	24422
곰	599
##any	22058
대회	3931
루크	26173
한류	8534
##fl	22287
사이다	22573
돈	850
스타워즈	29786
쿠리	16826
460	23588
시사	6305
거듭	5540
개척	7406
[unused491]	31991
범어	21824
일일이	9629
볼거리	10421
늠	796
장례	8441
외딴	25775
##수수색	9902
군관	28992
고깃	20768
순화	30588
굳건	15696
계약	4123
김광	9184
쿠데	13098
식초	16077
싸인	23373
##티나무	25943
초고	11931
이상민	23680
화주	27808
연수	6243
스팸	23075
물려	9449
화전	20543
평판	15378
띄	937
함의	23078
##록	2351
공감대	10628
견인	10947
리스트	8372
핸디	26718
대축제	28833
겸직	23287
##미술	25619
ㅌ	192
신데렐라	22488
instag	27955
권상	30541
성사	9211
해수부	16417
모자라	11686
꼬	676
다름없	10031
지주회사	13445
##노동	18699
##섹	2594
사상자	21412
##핏	2946
직물	25059
스타디움	14198
선교사	12919
직업인	30052
[unused319]	31819
십	1332
리가	20574
##ago	29042
日	378
치명	9848
효도	19008
감점	28920
정찰	16507
총대	30259
입소문	13675
창업	4827
안드레아	29435
西	485
외쳤	9925
불출마	15662
보여도	31438
서희	21148
분실	16763
스튜어트	25932
황새	27422
이런	3667
보살	10322
##겠	2918
여수시	13480
272	30355
태영	23790
니아	26155
##짙	3524
제반	16271
올라	4088
안타까웠	27632
정장	12564
들어온	8182
1953	17633
찾아간	18334
벼락	19617
메트	31391
정립	10205
고속도로	10568
바닷속	27200
담아	15112
황폐	17758
황재	23619
새만금	17440
음식점	8565
일어난다	14818
해직	22052
웬	1482
굵	620
##진진	20842
대피	11866
끈질긴	22817
아실	23810
고지서	30910
납입	12064
주군	23454
이정	6573
성모	14386
유목	18320
시끄럽	17616
##성어	28926
##크로	27464
##ive	15743
##쓴	2732
낚시	10290
##cle	21840
남향	28073
대왕	9577
끼	712
장원	14244
근원	8740
아름다운	5212
제제	27870
##켰	2983
잇따른	20560
등록금	8675
아찔	16869
서바이벌	24574
회계사	24670
성장기	17356
임영	23114
적십자	16173
##ㅤ	3243
##전입	28727
지정학	22612
약속	4680
버팀	22144
방사능	14466
지그시	28275
##현실	13029
##만두	23524
떠나가	26237
사무실	5841
##놀이	8913
##＞	3543
##LA	21072
나지완	31442
어음	9651
단시간	25232
##피아	8165
義	467
코펜하겐	30344
##규	2504
국정원	6696
전당	7299
로션	15705
총장	5430
吉	280
지칠	24360
##land	21900
귀여움	29227
퇴임	12408
외계	16335
280	15530
is	11376
몽	1086
인도	4543
내세웠	13057
부정부패	19072
침체	6218
##미스	25952
끌어당기	27846
염기	21698
불능	19435
##뽐	3592
##ael	28663
##쿠라	25271
격전지	29147
안시	29187
꾸	689
랩	957
##니아	5559
조승	22520
##eak	31146
각별	11010
탕진	30069
디오	18231
딪	896
[unused484]	31984
##가와	18474
적격	17797
⠀	167
당면	13155
스토어	10300
여인	5981
걷잡	23537
발언	4961
##ost	11963
활	1936
자격	5109
노동부	9163
ㆍ전	20113
쉐보레	21490
스파크	21557
천천히	6864
특별회계	29892
알아본	26677
재추진	27506
솜	1286
손자	10055
예정지	23040
##항공	6955
조합원	7235
양념	8326
투정	28671
통지서	30258
##AA	15875
다구	17620
우르르	24781
공양	21984
##톡스	22098
카프카	30338
감칠맛	23907
제정신	24006
##소득	7625
대제	21689
노숙인	22891
##y	2076
박희	16096
에어	6443
연평	7962
사업장	8606
저널리스트	25465
타이트	30086
이랜드	18658
[unused179]	31679
녀석	6144
나타나	4621
흐릿	21884
상임	6598
으셨	9185
친정	10908
바이오	6324
욕구	6765
감염	6887
낭자	28032
*	14
서유럽	20155
피자	8395
번번이	17935
##ful	24136
정무	9351
세용	24224
約	463
덧붙였	5074
사귄	28336
깐깐	29924
##부패	18785
혜	1925
선관위	11456
못한다면	15110
##꿈치	12467
CPU	30088
셰일가스	30308
중요	3748
행해	12591
##학년	18458
도랑	29515
그랜드	10453
말년	21409
1958	18199
다라	28601
주어진	9321
##옛	3517
민원인	21871
쏟아질	30114
##스카	10734
온실	9874
외계인	21423
렁	972
총동원	18609
겠다고	27940
하인	12265
켓	1722
##폐물	18027
환송	29180
영수	12680
자	1517
##민국	4871
애원	20336
박해	13162
돋보	7829
산도	25693
[unused176]	31676
다각	10928
주전자	25481
비수	28771
오일	8292
헌팅	31168
마른	10853
기관총	31178
요새	9730
쌍방	14982
분자	12069
머지않	17806
전문의	12887
국과	17733
치렀	13566
치중	14133
피터	11358
건	570
차량	4467
##냥	2995
원래	5057
기내	16296
되물	19380
청약	6615
내구	18011
넘쳐나	18992
실험	5270
##정신	25413
낙선	17158
사이비	28634
當	441
하얗	13357
보훈	12559
##뻤	3534
하우스	6634
돼지	6060
##tt	7742
장화	26537
둘레	13083
무색	15757
##나이	7461
희망	4396
김은	14410
##끄러미	20092
미국	3666
오르	4758
관직	14884
밥	1127
허브	9022
경차	22014
비판	4199
낙원	19710
기초자치단체	29129
동화	7373
시인	5362
고달	23265
양보	8745
가지런	22068
복도	11340
##운데이션	19988
빨대	26772
오산시	25795
기	645
한들	20945
좌익	14495
거취	16893
맡긴	17653
여름휴가	20306
##곧	3347
조용히	7868
레인	11626
끈끈	19569
증발	20079
단호박	21595
당부	6927
주고받	8717
😂	2000
벌금	8473
비명	10158
통신업	27590
##대사	17246
멍한	28923
페스트	31273
마티	23540
굴러가	28325
인문	6795
따오	30906
스케줄	12868
집안일	19607
알콜	26945
경외	26334
횡성	30912
집	1589
유전	8653
레이	5395
낫	725
거기	4370
론스타	22671
브러시	29629
광우병	19507
##겉	3205
팔렸	15059
한울	22246
시각	4808
폭	1863
쓴다	9993
작업자	25806
파고들	13681
##즘	2774
좋아하	6992
중순	8820
돌파	5983
기준	3872
어우	7439
##바로	5856
##춘	2363
딛	890
##ment	9025
지능	8813
##황	2334
방바닥	24839
총수	10307
휴	1956
경시대회	30934
##밴	3275
아쉬웠	15234
녀	759
회사원	16501
클래스	10051
무리	5316
풍산	28540
조망권	30019
거란	25587
유교	9594
자명	17768
전우	25002
詩	495
장구	21488
검장	17369
[CLS]	2
박홍	31428
제물	15261
교토	15500
루이스	12236
##ic	4368
협	1922
돌아온	7630
##산면	30952
THAAD	25510
##료	2071
1948	14384
2017	5668
모자	6072
공약	5374
무너질	21410
##버둥	25559
한꺼번에	8307
진솔	17822
독거	16902
장준	28507
sec	29318
검출	11112
##얕	3568
스러	4261
노인	4662
[unused291]	31791
##ruc	19281
히로	11868
김근	25265
육중	30466
##컬	3019
주부	7121
장애인	13944
##비	2151
사뭇	15465
##I	2184
적어도	6591
##거래위	13585
천주	10507
담회	21640
‘	114
푸드	6558
필로	23252
결단	8852
##모어	21268
희비	22781
계명	12622
의료비	14836
보였	4278
모호	10782
Ev	25326
Bl	14571
벌렸	24268
장단	10890
문정	17937
끌어	5484
뒷	874
벼룩	25168
투성이	15051
[unused290]	31790
##P	2325
##촌	2730
스물	10514
핫라인	30590
픽션	27057
75	5951
인질	16730
수법	11277
일교차	28886
상승	4131
채워	7611
명맥	24262
##번에	7560
몰린	15486
최형	18720
##카이	25219
[unused69]	31569
구사	9622
는가	4024
감사	4143
해양경찰	29299
유제품	31134
거친다	31066
리뷰	11622
##볕	3121
퉈	1807
이익	4259
구치	18142
##uality	30527
독재자	18110
코리아	5551
평화	4557
전문점	10615
재의	25235
##hip	29070
##뺑	3502
때마침	19416
지리	6959
신임	7840
##왜란	15278
마스	20699
캠퍼스	7905
경계심	26224
배분	9513
##승차	30370
없	1415
235	23455
흠뻑	18495
건성	21253
정치권력	22886
과도	6822
보수당	28472
중심지	11058
전날	5978
플라	7366
퇴계	17516
소파	11559
기통	31030
김보경	27959
수행원	29329
카레	13914
암컷	18288
##nd	4749
들어설	12741
원성	21425
##tit	14706
인사동	23773
대마도	25409
귀엽	11076
세포	6603
후면	18187
연인	7784
##눌	3158
에베레스트	31238
인프라	6087
산속	23996
젓가락	17547
허허허	30486
정식	6718
고서	5727
##ran	9016
주둔	13212
금은	30664
컷오프	25893
협박	8882
##티콘	30512
눈앞	7239
대일	23453
##ara	30667
해당	4162
유효	8870
##l	2010
부럽	14551
원도	17638
전립선	18072
##어져	5908
229	29416
감리	15288
무턱대고	24462
핸드볼	21583
##ers	6314
어쨌거나	22926
투하	25945
방화	15578
환급금	31268
습니당	24549
##cl	17861
랑	950
기울일	19966
베란다	17996
귀요	29328
##껄	3061
어가	28361
샌디	22932
##공원	13474
꿰	699
나지막	27591
張	345
##드시	4643
프리드리히	30341
폴크스	23968
330	15746
선결	27667
총무	13217
가히	18628
난민	10234
##무원	4473
가해	7610
팔레스타인	13865
##ca	24500
직영	14440
[unused210]	31710
엄청나	9780
##🏻🏻	29210
소설	4393
[unused245]	31745
태권	11324
허정무	27428
##구나	6074
커피	4930
롯데카드	26097
톡	1794
바그	18450
##나비	23600
연정	14862
KLPGA	18816
스웨	8553
##통신	26626
##치	2225
수난	19196
쓰인	14739
파탄	16900
금산	16158
박진영	26788
쓰이	8026
신년	11140
##셔츠	10005
##상승	22196
중첩	24033
##th	7088
종부	26259
번호	5733
##ode	28401
##㎝	3208
##얌	2670
걱정	4419
다녀오	12743
아크	14005
미망	28436
빈대	31106
[unused124]	31624
감기	8864
맡기	8706
맨해튼	22131
운전대	27189
##소연	10392
탑승객	28244
박영수	31337
양재동	29976
매수인	27177
##다란	6016
틀림	7181
쫌	1616
불금	20186
##ograp	24257
무거운	9208
고등학생	11284
##총독부	28707
가솔	15512
##워진	15883
담뱃값	29212
여류	30365
월경	24344
아미노	19467
샘물	21877
##룽지	25380
폐광	26519
흥청	21825
##회전	21805
##캐	2898
스케이팅	13766
외동	29206
변명	10980
솔직	6093
가계	6666
게을리	18798
상응	14263
##무	2132
노벨	9741
[unused417]	31917
촘	1666
Par	16718
[unused22]	31522
속임수	22642
따끔	26564
##다나	13979
전근	23867
##약청	24889
여진	13975
##앞	3297
한결	8869
강병	24605
그날	5719
유치	4415
격려	7701
퓨	1876
파워	7010
양호	12463
참여연대	17303
유어	29174
##ron	17926
총기	13984
취득세	14923
##자지	30122
구수	18760
자수	14221
향한	7154
프리미엄	6319
해시	24998
탄다	25695
근성	28913
##엮	3420
풍요	10236
창업자	10863
##배우	9736
✨	165
EP	15760
파이널	21792
크리스천	27882
친근감	28189
302	31274
싸	1336
에스프레소	27912
지배했	28184
젤	1548
²	98
사업자	5539
무슬림	15503
묻히	21312
당은	21523
83	7890
##핑	2192
지탄	28417
문병	27367
접착	22501
배임	15108
카운트	17843
합니다	3803
무려	6294
마력	13494
일으킬	12379
오지	12065
신전	13556
처지	7398
12	3710
에볼	21662
파르	17218
암세포	20231
##모	2391
다퉈	18224
나가사키	28282
NHN	19864
충만	14642
비안	31183
해병대	14701
됩니까	16116
포옹	20957
정연	14977
걸까요	17260
##면적	13101
신시	18629
안부	19266
##운서	10138
정혜	23392
##갱	3207
후진타오	22603
##ipp	30177
내시	14347
경복	15480
##놀	2867
기대	3869
하고	6159
현빈	19886
접견	19592
캔	1704
어떨까	9012
##우스	4926
1986	10318
붙였	11851
영예	14648
중남	15089
움츠	17750
[unused339]	31839
캔버스	20558
##arm	24298
다승	18430
악인	30583
1926	23164
뮤지엄	27875
타워	8203
홈구장	31381
방치	8095
##형제	26141
드럼	15235
더구나	7674
측정	6124
유명	4455
녹록	22114
##셉	3204
도로	4475
해결	4052
헉	1906
열띤	20512
대각	29549
암스테르담	30307
##웨	2620
하사	14377
캐치	21961
제비	16632
에이스	10371
##게티	19909
안심	7058
손수	11537
내다	10495
들으면서	15944
나체	31244
나빠	9537
오랜만	7449
##트롤	10506
신한	6393
빌미	15734
강타	16486
조서	19528
계주	23554
일문일답	29365
자란다	29301
정용	19898
교황청	26295
별안간	29973
은행나무	23706
##lect	21305
##애미	24916
장량	26886
실사	12207
다나카	30547
좋아한다	17331
폭력	5206
원정	7446
##말라	13454
헤아릴	21017
글루	26347
인터내셔널	13827
확장	5434
부들부들	23701
뤄	1010
##포	2208
한길	26181
[unused114]	31614
##챈	2984
손꼽히	16705
한약	15545
위헌	13835
떠돌	13375
독촉	23260
것	575
달달	12394
빈부	20557
[unused380]	31880
독창	11899
계약금	15779
##캬	3476
시퍼	27116
##끌	3022
펄럭	27316
저렇게	10020
시조	14171
심기	17874
원시	11397
243	28836
품	1873
뒷산	23717
침수	14660
부서장	28059
고유	6870
저층	27430
색감	17467
해왔으며	31326
음식	4182
몸짓	13326
##보이	16555
수원시	10403
##녀	2306
다빈	26356
주연	9529
[unused351]	31851
더불	4900
##ade	16628
##더드	21789
소도시	31377
지켜본	16553
아람	26201
스프링	12327
칠성	30121
뭇	1095
[unused174]	31674
사용	3704
공인	7098
케빈	19920
예탁	20720
진주시	21959
[unused56]	31556
[unused92]	31592
내겐	24471
서방	9500
밑	1117
##ike	12317
불태우	23679
은은	13046
##지어	5806
애호	16491
도리	9108
어두운	8872
임종	13116
내건	16562
위엄	18257
문경	11225
시영	31121
센트	11515
찾아볼	9396
약간	4943
데드	25777
[unused162]	31662
##의자	7672
발생	3888
때우	27235
기억력	17031
필터	12047
Law	25745
추징금	24466
저리	12615
두려운	17803
##천하	29092
빼돌	14770
생필품	18842
김무성	10504
맛보	10723
남아공	12644
보급	6754
관계없이	10902
서식지	21902
기금	6898
##r	2008
변형	9172
근저당	25335
##d	2039
회견	5549
거머쥐	18905
Bo	25841
[unused205]	31705
잠자코	24017
##ry	10659
방망이	17889
떨치	18619
차세대	8475
정중히	31411
간호학	29891
##인	2179
출연	4734
##곡절	16403
##자리	4189
표시	5354
##세데스	18743
방영	10206
질의	13109
선거일	25340
곁들이	30546
모형	9322
##레트	25866
출몰	27820
석회	22707
##반대	12158
##ery	21637
과감	7437
[unused12]	31512
어치	11108
##꼿	3371
앞선다	25497
##ess	6104
돌풍	13137
도루	15132
유목민	26472
리바운드	14906
##띠	2972
##왠	3172
집게	27656
비아냥	30671
반점	23904
##ort	9044
으므로	5622
라이너	31464
##검사	30224
##핵	2878
##이동	22728
억울	8338
그지	14124
##고양이	30611
[unused374]	31874
채취	11454
솔솔	26073
##ility	19477
##메리카	25617
##이어티	18800
비꼬	24702
##라도	5121
갇힌	18483
조각상	27016
이이	15225
으셨어요	28897
##rip	26343
먹이	8002
통일	4702
컨벤션	11830
기병	22293
미국인	8824
새겨진	15424
발진	24716
연제	23914
로버	24446
완료	6190
절하	21261
포스트모더니즘	27256
以	232
경륜	16478
##꼬박	23123
AI	7212
사업비	7518
신생아	15181
핏줄	24100
모레	24231
의병	14679
서독	18440
추신	11135
매경	13648
렛츠	31413
우수	4639
단숨에	14127
카다피	22448
##신라	27279
엄하	29298
폭풍우	28906
박재	12848
차근	15567
내팽	30234
김우	14320
청구인	21718
영양소	15269
파랗	30353
피워	16621
천부	28761
주행	6816
KDI	18741
난방	12449
현안	6498
요미	18249
보답	12460
마더	29143
묵살	24600
cafe	21358
별일	25616
결과	3731
콜린	23355
미군	6014
멋지	11980
et	16971
Har	17015
이조	25227
빈정	28226
##u	2005
그러다	14176
발명품	25718
##눈썹	20235
심했	15972
걸어야	22238
오찬	15445
미움	18932
짜여	18939
##34	24148
비기	26058
애널리스트	15286
뻥	1216
영위	14909
차후	25371
육아	6027
세입	10748
까맣	20154
당도	15036
추운	11385
개탄	24020
된다는	4894
준공	7716
대혁명	27495
김소	17200
하찮	18375
끊이	10382
합치	11939
꿈꿨	29120
담벼락	28216
##테르부르크	28958
##irl	30276
_	66
서거	15333
권	627
움직일	11192
반부	22786
밖에	4044
쩜	1609
그리스어	29663
통념	20625
영	1437
빠른	5562
##댕이	22643
대거	7312
메이드	15684
엮	1430
딴	899
유망	8822
##택	2467
자원	4512
글램	29418
##ro	5613
정액	15525
고령자	16200
봉산	25589
유모차	20109
세븐일레븐	23413
동그라	27188
>	34
숙	1296
##섬	2656
당기	9395
##으면	6076
컨테이너	10252
거칠	9843
라니까	16905
흘려	13395
치는	30037
담	818
신분당선	28493
넘긴	12478
금성	18366
노역	26030
유식	27749
록펠러	30835
해역	13171
이한	15208
스톱	13637
초	1663
몰수	25503
웨스트	15165
##enc	15698
폐기	6544
##콘서트	27560
헬레	31335
[unused136]	31636
자존심	8408
오가	7696
척수	30558
김밥	12747
안쪽	9266
아들	4200
승천	31457
만수	26088
과태료	11656
:	30
자니	13202
포괄	8674
오존	23926
픔	1881
결집	12428
모시	8081
아일랜드	10517
여보세요	20472
##르	2131
틀리	13535
채점	22818
창의	6346
이를테면	12697
대운하	31456
정례	12758
부드러움	24845
질린	23419
우연	9082
감독	3871
몸뚱	22155
둠	868
지요	4282
자투리	27536
끌려갔	28324
미적	30131
가까워졌	30451
##가슴	20268
##징계	17639
65	5684
어젯밤	16352
식용	17577
의상	8597
입주	5226
조짐	10684
비벼	16121
＜	1988
운전석	20375
닐	804
파티	7291
태블릿	11125
##매기	17782
소추	25368
나쁠	26312
##쫄	3190
수수	5381
무분	14233
흡연	9753
목격자	19340
육즙	26847
아이슬	27999
토론	4793
나올지	24327
##amb	19345
옹진군	25170
수천	7773
고마운	15279
황혼	22823
##턴	2322
기탁	17511
산맥	15353
넘	749
다듬	11412
책정	9833
##ames	22352
천황	14853
테크윈	30407
라운지	17980
쿄	1737
장단점	21280
야드	12560
165	14949
듬뿍	13314
##찹	3024
##ll	10211
##총리	6384
강아지	8522
연세대	8880
벤치	9262
델리	28928
결재	18547
##읽	3149
치우	9586
산하	7360
Intern	14933
흔쾌	19095
이화	10687
[unused167]	31667
피난	12609
혹여	27502
##딜	3169
가맹	7737
으리라고	18080
증시	6395
보시	24807
지킨다	28828
욜	1466
##셔	2415
움직임	5504
덕목	16498
##41	23577
##평생	28231
익힌	19012
[unused397]	31897
보살피	24608
##시고	24563
호국	20565
극명	18709
노총	9015
커뮤니	5823
##아내	8857
아파	4093
이광재	30028
##지막	27709
베버	29215
히딩크	19147
스킨케어	20169
완제품	22091
귀결	17478
흐흐	24137
국외	11782
##외	2420
◇	154
막혀	11864
면밀	20038
명백히	16160
기특	26306
##노당	21302
기증	9598
걸세	19173
오행	26758
##없	2899
위기	4098
벌레	12642
자못	27390
[unused88]	31588
위암	18166
야곱	30659
정원	5798
##도전	16457
살아남	7783
언론인	11129
피사	25390
성형수술	29954
[unused384]	31884
비서	6770
양주	10469
수장	10357
닉네임	31451
문안	26444
204	18270
관리	3759
재정	4426
##누리	19870
아래	4402
##mun	14243
##체어	14671
이왕	16431
허벅지	13476
##안간	29949
##동생	9639
맹수	28921
날카로운	11153
사죄	14087
##70	9871
상무부	26753
상록	21784
##석희	21363
로군	18924
교향곡	19282
래	952
둑	865
윗선	27408
m	80
##장사	30437
해외여행	15241
교내	14473
[unused437]	31937
[unused285]	31785
매각	5564
官	319
뜻밖	11167
그쳤	7028
벌집	29113
파나	15566
우라늄	18567
책봉	26483
대니	20910
명망	31351
성매매	12070
계약직	15900
MBA	14945
사연	7871
싹싹	30517
장기간	10151
명나라	15918
관찰자	26771
곱	600
##가리	10809
특히	3727
기자재	16670
##랍	2745
크로스	10875
면밀히	15967
cc	22316
일정	4362
[unused473]	31973
깔리	29700
압둘	27471
대역	13355
④	139
청구	5300
거듭날	21839
척추	9956
논	768
터키	8506
불변	21086
상념	27052
징용	21795
유실	21159
224	28528
필승	20982
홍콩	6616
도사	16042
제작자	15998
원안	13111
팔달	26685
##с	2462
소나	17213
JP	19857
임종석	30251
장거리	11585
유별	26959
동기	5329
[unused479]	31979
냐면은	25973
관동	21942
허점	18263
II	14238
다국적	13623
##ㅋㅋㅋㅋㅋㅋ	27783
예천	21055
1998	6813
그제서야	21775
##ace	11711
36	5002
Cambridge	27195
진상	7734
예지	27475
##댁	2739
도모	8840
외국	4042
소방방	31370
##눠	3299
가닥	14307
불감	23969
부사장	7573
올림피아	27204
메트로	15775
##폴	3030
피싱	17300
밝혀진	17746
감흥	28918
최경	10556
태평	7973
대해선	8308
강점기	13548
시초	22442
기른	26767
가속도	26510
어른	5789
암각화	25090
피케	29938
book	28480
760	28916
리우	13411
아지	17839
작	1518
도덕	5657
위시	22185
마카	15409
심부름	17810
자연스레	14456
색소	14255
수사학	25030
염려	8461
자국	7183
원자재	11279
목포	9312
됐으니	27145
친서	29087
##참	2494
##룻	3095
논설위원	29593
늘린다	28039
##비아	6428
끄덕이	14371
##러미	13144
Dr	26863
가까	4269
##교	2120
구운	15885
최문순	26514
착시	30273
무능	12815
럭	965
선크림	22869
펜실베이니아	28661
껏	671
발전기	16686
##뵈	3294
퍼팅	18711
사회관	19726
묘소	23850
사범	12822
##시아	3837
할까	5475
오솔길	25457
##전히	4058
[unused21]	31521
장어	15649
##더스	11017
타협	9672
미련	13990
불쾌	10835
문종	31189
앓	1382
56	6086
덫	840
무상급식	9048
섹션	19622
조광래	28389
[unused151]	31651
##er	3762
지부	7854
순환도로	28080
총생산	13094
들썩	16616
군무	30054
[unused166]	31666
콩	1733
첨가물	23608
케네	16837
디즈	13926
인한	5198
내줬	15154
##약자	26422
##멘스	27374
손승	29398
화단	19881
개통	7308
다원주의	29983
소피아	25439
벌일	13804
크루	8448
##ien	26706
이벤트	5028
##atch	21670
따져	8723
面	532
충남	5544
올해	3753
공정성	21487
마지못해	26818
보다	3632
다지	10642
사인회	27694
응원단	24451
이중	6807
김옥	20085
##ener	20488
##케인	16162
1977	13528
##튿	3493
고르	7709
퍼트	16346
조건부	19221
##드기	22734
대수	10616
쨌	1604
잡아	7726
기조	7898
경직	14704
바르	5957
##e	2007
따로	5542
New	8909
흉내	12961
체하	16394
뚤	924
노여움	30633
계열사	6329
최대	3980
부시	9799
승자	12438
##중	2284
##쿠버	15260
잉크	18955
관리인	20981
나날이	21169
곤경	23145
태우	11371
[unused376]	31876
09	12426
손발	15842
브리티시	26115
##cal	25140
남동생	20070
지상파	9450
사안	6463
코앞	17850
케익	20150
마그네슘	25412
##난다	5545
터뜨리	12939
##첼	3341
왕정	26046
장국	30141
어색	9977
거두	6387
청했	21790
##걱	3229
##못	2495
나눴	12186
방범	20279
##았	2886
음악가	16409
힐튼	26194
원료	8228
음음	15454
겸허	21188
극	637
68	6737
[unused17]	31517
수많	5312
##랑	2379
입항	25539
독립군	26800
##마크	9112
착공	8484
승용차	8960
참담	16976
##꿈	2916
라이트	9932
##쉬	2893
유일	5027
##입니다	12190
해군기지	18244
어처구니	17234
배치	5132
꽂혀	22900
달려왔	19172
무비	20148
봉황	25290
육군	9105
화성시	15227
자리	3798
장바구니	29869
표현	4074
휘두르	14174
이어폰	18370
찜	1629
237	30826
지선	22241
근무	4886
##iet	10321
미워하	18322
세원	29413
##풋	3408
고충	15362
출판사	8563
아날로그	16834
감세	15143
까칠	27044
미션	11960
안대	23776
슬슬	17779
commun	28312
즐	1579
##93	25214
수채	27696
휩쓸려	26045
토속	31296
진술	6283
일부분	16400
박창	24940
가야금	22053
바이올리니스트	27098
직경	27450
결의안	14235
개그콘서트	30450
자력	22234
넘겼	11391
가래	20381
[unused342]	31842
종업	9406
바젤	29010
망설	9599
들어섰	10847
시범	6796
승객	8271
둔화	10080
자본금	14508
캐머런	30785
복용	9671
마지막	4178
더라고	5626
즉위	16066
충청	7265
정작	7261
##뉴스	17171
루프	19283
조선	3957
사행	22775
무기력	19976
official	23017
##ject	22266
제격	16997
##쭉	2828
추리	12872
어묵	17962
벌여	9915
바꿔야	13845
동국제강	22240
하체	19302
점점	5224
Her	22590
흥분	8054
옮겨졌	24096
##짤	3387
탄산수	31006
피카	18029
곰돌이	28077
산재	12389
최성	17152
140	9589
HP	21165
송아지	23035
##겹살	11151
썼	1351
##씌	2579
재즈	11095
테일	16003
##촘	3457
소도	20394
##nal	16833
현종	25864
황	1937
권단	13425
부문	4457
불발	19900
약국	12234
##훼손	23021
신용카드	11776
에이	6154
뱀파이어	25793
철책	31282
난처	19313
십일월	30467
뜯	933
뭄	1094
스윙	11625
노랫	18983
##노미	24625
▲	148
일반	3935
마이애미	24961
헛소리	26613
의정	7096
센트럴	15674
속여	18463
웨슬리	31194
동대문	12012
정답	8801
순사	31429
정령	19154
유물론	31472
갈리	19772
아씨	27489
준영	22308
##보험공사	29757
무공	13211
액정	19470
골수	22278
##폰	2357
그래	3672
##돕	2851
부각	7214
조그마	18239
공기업	8390
깡통	22410
푸코	26304
##산부	10302
##부터	3797
자양	24421
크리스토퍼	27763
##연시	29238
성전	14323
협연	22913
NC	8298
폈	1859
소프트	5819
버지니아	20927
裁	484
기타	5867
후예	18951
##ies	12073
1930	11717
##건조	28193
[unused29]	31529
만들	3679
황진	25474
##펜하	29581
배기량	30485
판서	22907
수익금	14079
251	30971
##통화기	19365
##앤젤레스	17350
헤아리	20086
주머니	8972
근접	11937
스펙	10511
범벅	27579
랜	954
해안	7960
이코노미	31237
토마토	10763
하정	22996
벗어날	11824
조바심	26186
나주시	31032
학년도	9116
도청	7900
종족	13014
장편	12590
드러	4077
설비	5956
불분명	19394
비트코인	20281
군사	4721
실에	24416
##방아	26481
핍박	26375
부감	26942
[unused130]	31630
등한	31078
좁혀	15178
타임	5940
싱그	24505
중학	24700
섭씨	24398
궁금증	11525
어마	12245
스마트폰	5009
샤이니	29085
시골	7535
만주	9655
풍겨	27593
추스	21593
반항	13890
##헌영	27091
해준	26499
이중섭	29548
스폰서	13995
모닝	14159
##희정	13554
209	22860
리우데자네이루	27071
##ane	27497
##운	2297
間	523
명회	8246
차가운	10215
해온	11464
패배	7292
##ide	14811
세단	12879
평지	21798
순이	8066
##anian	24247
마법	7221
중견	8547
곤욕	27255
교통안전	17186
드러난	9582
그루	10125
장혁	30562
##사전	16936
낱낱	21828
동작	7331
기다려	8935
예금	6945
동영상	7017
야외	8296
카피	16973
계실	18019
즐거움	7571
덮개	24121
후보	3733
Rel	19850
협회	4760
##코프	26043
편의점	8187
스무	10791
튀니지	30610
구두	8638
아줌마	9531
저지를	30600
집착	9003
빨래	12412
출사표	19832
전단지	23561
갈등	4664
확성기	26545
나열	15346
하림	31307
과로	31270
서천	21927
트위터	7040
때론	16084
##레이	3930
싣	1328
단백질	8942
동강	22431
촉구	5711
##피스	5917
이강	14635
을	1498
동문	11124
변증법	17885
교섭단체	20258
드디어	7310
마케팅	4852
각급	20343
물어본	29887
퍼시	12594
마니	19655
##ID	15907
해도	3978
떠올라	18865
렉스	24579
상담원	24886
클라이	20103
남학생	16306
다녔	8649
위아	19480
아사	11158
기질	12842
식수	17685
조선일보	8515
끝내	6145
자크	24281
고로	13237
그이	23030
石	449
운전	5390
속박	25842
지극히	10949
求	412
133	15381
기웃	23163
측정기	27404
플롯	26599
1896	28392
인내	10462
백미	19930
##플레이션	11959
기암	27666
바티	21699
SO	15855
cont	23591
웅덩이	28637
세금	5387
##볶	2738
정갈	24502
신경증	24904
브리	6664
높임	31208
음모	10796
##눴	3556
관련	3700
분담	9546
LTE	9708
성희롱	14991
von	27796
국적	9303
의료법	31283
보청	24628
패션쇼	20519
기생충	22961
복부	16508
았었	13003
대용	13059
브라질	6621
맘	1043
관건	10434
연고	11995
시트콤	25385
입수	11774
파라다이스	24337
유민	20458
슬프	13079
청사진	17846
현장	4081
강태	25600
##폴트	26002
리처드	14407
AFP	24495
창백	18055
놀랍	10543
성장률	14105
침입	10423
특별히	7761
플루	17446
대타	15679
인덱스	18661
극성	24613
서예	17434
겠다는	19271
방면	12239
홀딩스	13762
지냈	8340
##기야	11163
가해자	10975
남원	18788
조속히	14583
##earch	19711
캐디	24253
면도	15886
해고	7208
압수수색	9908
거린다	27564
아깝	15021
마르셀	28755
화근	29698
말소	23184
##위원회	10355
리치	15253
랠리	23587
박한	20605
무의미	20514
겨누	23634
본심	30542
골프클럽	30703
일어날	8735
##에도	6509
복음서	29929
겨드	24110
치	1689
[unused286]	31786
동포	10244
백발	25000
공정	4646
흐려	19982
비석	20031
황산	20319
안전교육	28079
개경	31421
##밴드	18616
정희	19789
군위	22994
쌓이	11900
바다	4822
ne	17304
불태	20017
公	251
유니버시아드	26623
[unused234]	31734
남친	24031
뼈저리	30649
레이저	11792
송나라	26072
훔쳤	25984
조금	4027
방북	12441
이호	14328
은서	21016
1588	29414
가재	29964
의	1503
찬바람	19496
河	415
절묘	17377
[unused186]	31686
재수생	30149
재청	27160
재생	6951
전년도	24388
##꺼기	20556
귀향	21107
[unused161]	31661
##잖	2513
아직	3919
깜짝	6600
꺼낸	21161
有	387
낮추	7976
커브	18461
내놔	19319
동시대	18894
관망	21143
대하	5081
CT	17558
과밀	27458
구약	16259
다룰	14500
거북	10845
자물쇠	23992
##장어	27558
겟	581
과시	8832
라든가	11325
시달렸	18782
블라인	22933
Net	25499
간통	24650
양계	31095
배려	6465
미들	26413
##우리	11327
##져야	7353
공학	6745
##옵니다	9909
태안	13560
체험	4303
애국가	26605
[unused132]	31632
숱	1304
##칠성	24365
[unused4]	31504
강릉	7825
연상	7764
드워프	28821
덧붙이	21571
##줌	3196
슬퍼하	21226
심포지엄	15712
충신	27971
눈치채	27081
外	304
를	1022
지킬	11471
와의	14646
제막	31352
가할	19701
심문	15894
공급량	22332
진면	31233
스트라이프	28578
못한다는	14091
한국어	9187
젯	1549
이뤄낸	25872
Pr	8164
김현수	16788
타개	18193
직감	18779
약효	28128
##밌	2671
1916	30313
그쳐	15558
코란	30873
수갑	26805
##엄	2269
행복감	26600
자유자재	23396
1950	9746
사위	12429
개신	16484
페르난	29279
저스틴	29759
챙기	7853
전산망	23983
중심축	25771
##형	2444
[unused250]	31750
힘줄	29768
나이키	19511
하리	20578
귀순	25460
끼우	27761
비쳤	28826
포켓	14927
##벙	2539
분석가	23324
##생	2065
권익	11826
수모	21206
컬럼비아	27357
본업	26698
이미	3768
v	89
선대	11476
##ㅋㅋㅋㅋㅋㅋㅋㅋ	14502
플렉스	26332
##ach	13329
에밀리	22264
당나라	14076
클리	9504
본국	17275
김춘	21074
##막	2395
다그	21136
누군지	16427
서귀포	13795
내연	29713
참치	12893
,	16
복지	4275
##진우	24725
우편물	24580
홀	1929
##작물	16558
시켰으며	26639
##맵	3481
샤를	26747
감지	8749
랠	955
##캣	3298
남겼	8392
감사원	9271
##어요	10283
파괴	5802
대경	25076
조달	6808
액션	8765
시켜	4212
##파리	13727
동아시아	9461
청문회	7400
실린	11381
평론가	10212
일족	29058
퓰	1877
영유	18209
참관	18965
편안히	25900
##90	11445
이회	17790
가만	6836
ㆍ여	19859
잔소리	15645
입소	23301
틸러	30925
호통	21529
##장이	27345
동시	4213
차린	22004
기단	26797
동양인	23156
국제기구	16374
찾아냈	18397
느냐	4134
##메드	25689
##스테이	26813
트레일러	30879
시진핑	12461
##⠀	2860
원내대표	5980
이양	14315
네모	19694
뒤틀	20043
신현	21052
##▷	2846
##콕	3012
##덱스	15022
##26	22024
오롯	22866
##큼	2508
미디어	5127
##르타	16139
정부군	23120
##소설	26502
상징물	26662
만화	6827
줄줄	10780
자유투	30833
##햄	3041
준하	19849
RF	26048
돌아볼	26446
223	28747
골칫거리	29732
사적	18777
어지럼	29377
##앵	2402
##ㅠ	2095
재판부	7443
을까요	7000
잡혔	15114
SDI	17276
나물	15003
정약	18406
적나라	20318
컴퓨팅	22371
원세훈	24237
갈라져	28269
##퉁불퉁	27500
쉽	1311
외	1462
##그램	3948
##버렸	15763
내성	16025
체온	13581
브릭스	27443
아쉽	7985
혈세	19598
생생	7965
시킨다	7346
[unused497]	31997
껌	669
편집	6112
묘사	6885
대표단	12711
파트너십	18108
그걸로	18830
니즘	28784
3	23
합류	7468
학원	5266
교향	12911
안동	8239
##바탕	13493
야단	15335
소변	14215
광주은행	25323
떴	914
부자연	29246
신드롬	23447
연말연시	29323
데려	7064
징역형	23334
재팬	26735
낙담	29597
한결같이	15731
자켓	30747
##헨티나	11184
실크	13859
스톡	18540
통해서	5154
사나	15513
##저리	9350
군중	13730
긴밀	11694
##통령	3695
you	13089
점하	21901
[unused39]	31539
생산자	12940
선거구	8269
외주	18337
뜻대로	17094
구설	23330
돌아다니	10081
學	316
외환은행	14715
부적합	20595
양궁	16569
##공격	24367
국인	28616
박혀	15926
존경심	29684
##렁이	12546
[PAD]	0
ES	12453
앵	1395
당뇨병	11424
미상	30819
##ank	15175
테이블	6889
세비	24746
일궈	18696
━	144
합동	7484
반찬	9056
고품격	23697
sm	25191
산다는	15657
조만간	8311
뱃길	26314
채용	5142
[unused74]	31574
과학	4038
생산량	9189
털	1780
앞머리	24819
예비역	28520
퍼레이드	18922
제때	16031
의학	6407
경신	13498
세르	13078
얼큰	25701
##ㄴ	2755
종업원	9481
느슨	17195
##줘야	26812
％	1981
##계산서	30776
노원	14501
누워서	18901
##45	20898
특허청	26065
클럽	5993
무효	8991
배영	29184
동학	14802
밴쿠버	18032
장가	19530
낌	716
출연금	27362
달려가	10207
내다봤	11997
대합	28287
Sch	12941
널찍	29492
##rain	22601
다시마	23667
국무부	14662
오세	12450
노점	17105
회당	27510
우울증	10218
자부심	9881
룻	1008
거리	4142
매트리스	20852
위반	5233
옹	1452
몸살	16883
모티프	29169
나	717
일당	12745
1000	4951
멀티미디어	16585
##PS	10144
340	19634
표결	12176
##ein	23958
Cont	24708
##L	2237
히든	24190
해라	8982
뛰어	5603
186	11310
이랑	5864
재개	7355
어워드	18085
강수량	21474
실현	5202
고기압	27406
286	31323
부임	11485
명량	28876
DJ	12031
##예술	12566
PR	11172
##십니다	16291
빠짐	16258
##거림	19560
Er	23774
재래식	29183
##주니어	25451
##악	2376
데스	14361
휴식	6903
칠	1692
##모직	16474
영남	7188
꿈꾼다	28766
못하	3818
무섭	8707
쓸쓸	12532
문희상	31164
라면서	7884
진원지	27315
##샐	2795
##혐	3342
논거	25307
##itt	15160
##쩡	3479
##IP	10393
허심	30204
중심부	20372
카	1697
조석	28400
히스	22604
##메이드	29945
와이파이	15274
##ly	10567
가져올	12108
320	16184
관현	22835
샌디에이고	30762
여기저기	8773
라스	11840
통제	5348
61	6586
간병	19273
양쪽	8108
괴물	10163
마침표	27701
##acy	23753
계집애	29133
번뜩	27437
출가	18484
##16	21768
##H	2109
가톨릭	9423
전자책	17965
로구나	25386
대들	24275
거치	6880
리라고	14175
이곳	4441
바이저	27080
연이	9913
간만	25024
군더더기	30947
터	1777
관할	9318
드론	11621
기준치	16207
##뮤	2816
가요	7390
나간다	11314
후퇴	10877
부지사	18079
##가내	18590
컨소시엄	11895
분산	8058
나만	30862
온데	30245
싸웠	15222
차차	20433
과오	22260
인피니티	26247
포장지	29868
##텃	3463
##ib	11392
갈증	16791
뻘	1213
여기	3776
침구	19782
##메이	15714
샅샅이	24062
핀테크	15591
활기차	27169
청와대	4449
펑크	25207
날아온	29899
녘	765
아가씨	9019
적임자	18535
대자보	30972
등산객	24937
부총재	28398
통운	19948
게임기	27897
스피커	13615
넋	745
요통	31285
누적	7955
follow	14399
에비	24211
씻겨	30881
곶	603
근심	13888
장르	7100
##실험	10376
AR	13122
밑반찬	20778
##23	21455
자유민주주의	21255
##폐	2616
빅뱅	15393
폐렴	19231
지새	29799
모텔	17556
호기	6564
정몽준	17743
어찌하	28652
WBC	18191
차우찬	29738
법조	9813
뉜	787
수송	9997
ㅇㅇ	16178
##갓	2575
철도망	29531
정근우	28774
郞	511
POP	25269
기다	4317
##김치	15622
칩	1694
위대	6592
빼앗	6838
부주석	27210
공짜	12113
수술	4775
신용장	20518
정제	13550
07	12368
##리케이션	10143
솥	1289
초등학생	9707
상봉	13358
는군요	14445
##벨	2403
우와	13739
우동	13875
대내	14768
청계	12714
둘러싸인	20016
블랑	27131
해맑	28224
적대감	30392
공황	15472
501	31316
카지노	12126
어두워	18268
물들	16552
##블릿	10972
고엽	31109
항공사	9369
##컨대	7314
비스트	27534
경쾌	16499
웅	1475
못할	5964
고단	16825
어처구니없	28236
우레	27445
전과	17951
뒤처지	28373
줄	1567
설령	14810
영어	4612
에어부산	26547
관군	31364
다채	9924
타자	6030
끼니	18579
남구	9067
그놈	13055
나오	3853
간략	16522
##노소	17353
변호	4737
PL	26267
족쇄	28425
##믿	2560
##────────	19137
덮밥	23155
##볶이	10515
카를	17802
북스	21041
포구	18899
지쳤	28182
막강	11775
콕	1727
약점	9465
이승만	10848
이계	15552
게시판	10891
독특	6332
영리	9391
이근호	24013
조미료	24085
예치	20160
조직력	17842
##습니까	28006
사업소	20786
사이먼	28074
연성	31252
NP	18931
산문	16342
기차	8268
해진다	7723
##지대	11196
##다수	7804
김응	27453
점차	5992
무등	19062
이듬해	9944
주검	24263
러블	16056
[unused399]	31899
릉	1026
거라	12370
지배자	19684
89	7948
##레스	4443
김승	10553
영유권	21935
신념	8729
삼국사기	22003
계셔	24938
항해	11415
경의선	27382
찌푸	12991
Paris	27417
무모	15835
상실감	26905
보통주	26666
구천	31058
안내서	28131
IP	8256
시카	10884
##대성	20538
부총장	22385
컥	1711
Bus	20723
바뀌	5042
다방	13370
공석	19637
걸어가	10370
[unused357]	31857
화물	7381
남긴다	28646
172	17306
어젯	16345
파운데이션	19994
cons	29280
##베이거스	21631
기온	8185
응징	20310
경무	30818
##yn	17635
경영난	22302
權	401
##밖	2772
잔혹	16430
제일	4920
일본어	12806
중남미	16072
오뎅	29937
숙녀	28343
태어난	7607
교황	8656
샀	1241
이체	19026
텍	1786
집니다	15988
옷가지	28506
5	25
왕족	22498
연내	11083
##경기	10470
베어	15024
중성	17284
줍	1569
휙	1953
그러므로	5812
과	604
하청	11859
전술	8928
본선	9080
무한리필	30003
지자체	5518
한국전력	13058
지주사	17764
잠기	21269
##데자네이	26889
기폭	28460
소란	14163
##카쿠	24330
Min	25886
우성	27765
對	328
쇼트	12254
道	509
시음	30231
##궁	2653
드레싱	27834
났	726
##ern	14591
산세	29724
영웅	7073
##now	19187
주어졌	20743
53	5997
포항시	15790
잡아당	17154
re	12569
벽화	13114
왜냐	5400
비늘	29051
자연사	29773
크레이	24145
위조	11549
첩	1655
칭기	22265
##좌석	22471
통했	22154
##나간	23570
즉시	6832
##벤처	30298
카트	15252
시너지	8987
송정	18493
폐수	16815
임신부	27296
부상자	16685
낚	719
굴절	24414
강물	11455
##치산	21948
개국	5620
순천시	17943
##의회	19084
라면	4002
사돈	24428
은평구	25250
왜관	29726
나니	21067
가뭄	11053
미워	20921
평평	22048
뛰어다니	21596
안전	4040
열강	22631
정운	16646
##II	25856
코끝	28790
옥중	29833
유전체	31426
추격	9432
주름	8608
틀어	16814
교통비	24685
사춘기	15308
큰손	26231
평온	15769
박준	15777
중공업	6663
발명	8883
시청	4479
공백	9718
170	10833
암튼	18427
어버이날	24905
루타	13496
자포	28510
유	1490
어머니	4226
##erson	17660
귀족	8171
논산	19060
수류	30018
숭실대	30771
습지	12499
226	23742
탁자	13274
대명사	15627
려다	12291
가속기	27129
깨달	6491
안전사고	15556
볼게요	17002
스틸	10587
보아	21671
그럴수록	27023
돌려받	16004
제창	22633
당선인	9571
실업자	14248
장흥	17777
##и	2497
##타인	8250
막연히	26313
마이너스	10767
자르	11542
Pl	13696
근린	16671
英	478
대청	17182
쪼개	13321
북한산	22211
##덜란드	8420
탈출	7597
벌려	21419
이뤄져야	14351
허망	21185
연주자	13449
스탠퍼드	24778
매기	16899
yum	29462
아이고	14455
사정	5183
일광	27813
가공	6972
지피	25630
공금	28046
넥센	8368
덤벼	21152
반군	18292
포획	21111
성찬	27368
메디	11268
eds	30484
숙지	18886
타로	21191
수다	10843
베네치아	22306
전격	10235
임대	5010
변인	17294
철분	24114
수없이	12816
1909	25816
비바람	24287
여파	9508
##탑	2953
미신	19149
Wil	28416
효종	30522
생육	27196
홈플러스	11288
점퍼	16703
마이크	7294
범람	22183
끼여	23005
담겼	16102
##TS	14070
비키	19649
##uty	24170
자리매김	9973
##TR	30787
##쾅	3480
내릴	9276
실학	24788
간밤	29017
업계	4382
약물	9023
서강대	15992
##지겁	26992
리서치	10555
백마	24950
임차인	13471
안성맞춤	20182
감사관	23940
수산물	12256
##텀	3189
좌측	19589
준공식	24493
OE	9442
굴착	24774
둘러앉	27058
##각층	27653
[unused460]	31960
244	28934
드립	24445
한시	14396
아사히	17829
유행어	29192
##중근	28383
유행	6882
뤼	1012
걸려	6639
면제	8667
는다면	6583
토해	17514
면적	5579
전북	6275
유력	7271
##브르	21110
맘껏	23299
[unused144]	31644
나날	12968
영조	15837
달랑	23575
의왕	11950
##낭	2718
의해	4249
##다닥	24537
목적물	30702
연습	5505
아름다움	8020
주성	21449
기선	20770
유병언	20884
솔선	21986
콘셉트	9912
징후	13716
have	25009
개	558
굴비	23065
유엔	6125
[unused360]	31860
루트	14192
반경	14769
리디아	25734
장벽	9609
격변	29106
빨라졌	29526
투기	8527
전임자	18038
발목	8286
타이틀	8754
##홍철	21653
ㆍ장	25264
일제	5645
선거관리위원회	17116
본론	27349
함석	30615
밀크티	30359
##비치	14088
결실	11772
교감	10480
##돼지	18061
##투어	26936
그릴	12222
꿍	696
개학	27379
모터	8247
사만	28772
##타페	27634
FOMC	27194
대단히	8476
캡틴	23309
상관없	10712
출입구	18455
[unused348]	31848
알아듣	15575
정준	15350
공표	13889
광양	9295
삼계탕	21203
경총	26479
KE	14786
갈비	9428
다가서	18358
집중	4154
##뜩	2977
닷새	19839
진달래	21448
시늉	21709
정치	3713
전교조	10280
도널드	11908
심부	14216
휘감	22921
추어	28169
코드	7711
파문	10717
겉보기	28531
정범	29825
인기척	30495
충혈	30960
투여	16336
버려	8248
마나	15287
SL	25431
##차기	18888
어째서	12531
외치	8455
익산	18310
불평	12008
당권	15113
cit	25004
듭	884
##프레	13649
1966	16038
모릅니다	13396
Gl	16762
##ration	27707
목청	21683
외삼촌	21754
여행자	13753
수원	4873
박지	6930
AC	16047
잼	1530
##의지	22623
누군	5280
화성	6835
##시스	8791
공법	13455
UFC	29972
사진	4035
급속도	17564
##박자	26551
가루	9827
증후	11430
금수	21869
링컨	17358
##중국	17886
박제	23107
##료품	19332
##한	2470
펴낸	17554
시	1325
리빙	22261
##uch	24442
[unused6]	31506
영정	20002
실형	18267
양심	8542
일몰	19723
가람	22149
반성	7309
남성	4576
##반도	5315
공명	13904
##꾸미	20013
일회용	25147
여자	3883
##반짝	23929
위함	15316
복싱	18206
패러	8025
175	15048
신당	22483
최적화	31465
구별	7423
[unused282]	31782
[unused173]	31673
보냈	5755
Richard	29230
[unused493]	31993
헌혈	17921
뽀뽀	24249
애요	9782
사사건건	30162
온스	30980
强	346
경향신문	12996
뱀	1135
의결	7495
아이러	14331
소문	6327
##ington	26941
온다고	20309
##깜	3015
병리	25531
해이	21124
우대	9761
수학여행	22235
땠	907
배터리	7847
##킴	3077
강재	26285
배척	18347
콘크리트	12875
그리곤	25401
비웠	27968
키운	13653
천막	15592
나눠서	23381
얻	1410
눈길	5578
이항	27164
##치우	27610
103	13250
잘	1521
통증	6595
롤	994
성원	12329
자산	4463
갈대	17362
##agement	20444
넥	753
##몰래	31343
[unused139]	31639
마린	18062
감안	5584
터트	18192
수행	4636
91	7907
파병	16849
방풍	26872
오너	13841
집행정지	30023
김제동	25666
망	1046
[unused492]	31992
되짚	22548
ETF	12292
좌익수	28751
사체	19405
[	63
롯데마트	11239
그린다	21545
끽	713
놔	774
이인	10415
##지엄	15697
장윤	21061
더라고요	6376
마교	29880
##사스	11538
신동빈	20583
##사이	12421
자자	19524
증언	8105
선풍기	18516
[unused371]	31871
성진	29075
и	105
수지	7011
고쳐	9516
기울	5197
봐	1169
숨겨	8524
회신	27943
닫혀	22803
쿠데타	13228
그린벨트	21609
등부	24787
파면	25154
완벽	5537
##혈	2023
무조건	6512
숭배	13280
씁니다	29667
폐하	11555
##베리아	15829
캡	1707
수익	4158
비춰	11591
재정난	27402
뚫어지	29437
##옹	2831
출판물	28513
대입	10606
CV	31373
줄어드	12376
師	337
아마도	6871
##러워	8405
선우	17608
여서	6901
아폴	18494
지뢰	19790
이성계	20026
오미	18330
웨	1481
쳐들	15056
흐	1958
수학	5193
폭풍	11298
아나	8496
##J	2303
틈새	12915
직후	5831
림	1032
기독	5640
융자	14535
터트렸	24408
만든다	17011
##홈	2338
뱉	1138
믹스	11823
⊙	135
임성	24460
아울	5737
단연	12072
치가	15364
주먹밥	24674
사미	26150
지시	5317
고속도	10982
살며시	26217
응용	9581
고위급	14376
결선	13848
글라스	20177
초저	20600
형용사	23837
드러났	6613
정할	17808
바이크	25836
##꼬	2571
신해	26802
아랍	9337
선량	19177
생명체	12323
비타민	7378
비위	15510
바쁘	9094
실종	8080
박빙	21452
오미자	23504
게리	25222
베이스	9763
치켜들	29699
쉐	1306
##좋	2716
##펀	3039
##끽	3164
무턱대	24293
기습	13076
##사기	20807
##sych	22717
분	1175
아트홀	21337
한반도	5409
ㄴ	183
돌변	23779
증식	15603
똑똑히	24128
남북한	11943
아버님	10958
##갈이	16943
찾아와	11983
##sy	19917
루이	11706
금광	29498
##많	2442
잉여금	27111
국제축구연맹	22566
피	1882
##우먼	30105
자면	5717
##침	2540
붙여서	27409
장유	27154
배타	15798
지날	14858
등교	17393
그림책	18388
흥미진진	21032
버거	11439
경제난	30757
휴가	6493
봉기	18235
렛	980
훤	1949
##낡	3567
인하	5426
덮쳐	31151
당대	10282
불협	28223
최나연	27898
재회	22980
현실	4017
지루	9734
##니티	21318
은사	19191
망가지	25195
비결	8459
소방관	15776
이드	17379
고심	11796
종로구	13209
쟁쟁	23200
유휴	23708
파스타	11050
맞잡	27850
커뮤니케이션	7042
정한	8867
3000	5592
여호와	21106
치마	13296
##ple	31439
다투	10822
응집	23629
##써	2525
광명	9020
원금	10025
[unused165]	31665
셨으니	29308
수수께끼	17196
제국	6113
foodp	20777
악어	23076
고압	21319
##결연	22331
##hys	27389
공동체	5516
역력	17235
서포터	18855
##추	2159
세모	29122
려	981
##엥	3007
지수	5043
16	3879
교역	9696
[unused385]	31885
출근	7008
이세돌	19124
##③	3437
##지긋	26175
샷	1255
낯선	8661
로렌스	29566
##학교	4622
支	367
오케스트라	10411
케이크	10101
노랗	28318
가입자	7409
조양호	28331
철조	28345
정병국	30654
갑갑	30937
##상정	21540
방사	7531
아닙니다	6525
시당	11898
14	3909
도이치	29009
키워	5972
인구	4723
움켜쥐	19176
지만	3612
서구	5905
집회	6126
##면	2460
흉기	14972
[unused48]	31548
키움	20593
번성	22320
차마	14150
정당	4451
##몇	3325
연전	14599
청소기	16054
Technology	29960
율	1493
낙서	21867
위	1485
재빠	22450
심리학	10142
TP	14253
주어진다	14799
진리	6960
이주노	24717
##E	2105
육체	7411
얻어	19326
됐으며	8097
깔끔	7436
##ant	10484
찬반	12303
줬	1572
곽	605
##68	26219
갑자기	4766
##스터	4741
공판	11530
놀라운	8198
사업주	18242
영영	22672
낙하	12805
탄력	7359
트레	10479
번역	6500
병행	8371
Id	26541
강과	26958
함평	21623
교통망	18428
기꺼	11766
자태	18991
켄	1720
김연	8363
부침	21738
조양	21781
##옳	3302
이영	8357
화물차	19036
포만감	30846
##ystem	14720
매실	18572
교류	5459
마르크스주의	19757
##igh	20452
엽	1434
에볼라	27665
쓰러진	18041
훈련	4484
##ics	17865
자두	28619
비틀즈	29830
아리스토텔레스	16909
했어도	21008
부적격	23033
뷰티	7202
아우	6164
질까	23653
벅찬	24586
52	5842
병살	30680
이	1504
##네시아	8193
9	29
혈전	24591
##뮌	2726
씻	1374
살아가	5933
스포	16465
선례	23348
히브리	26357
세심	12541
맞출	16958
불리	5039
저술	12504
##쌓	2786
어려움	5117
대감	18622
어리석	9790
삼계	19248
##색	2485
기울인다	29885
나잇	31116
연계	5190
FTA	6334
범죄자	14103
진부	19682
으셔	17644
성호	23288
##런스	8851
폴라	22732
숙고	27328
##이센	31487
아악	24479
백두산	16407
스	1316
문턱	13700
가디	17718
##네이터	24364
네이트	22049
##로리	9557
박찬	10656
빙자	29803
틈	1817
176	16449
소중히	18371
##oup	21334
진시	21931
##네마	13991
1917	24030
하승진	29356
따른	4340
하향	11521
정면	7980
세안	15676
어법	17060
관리원	27271
[unused449]	31949
##포트	11483
헌데	24222
전형	4995
스키장	19561
김석	15609
영남일보	20073
하수관	31419
던졌	8951
닌	803
서대	21998
##슭	3106
인성	9041
증거인	27931
구한	15212
##승환	13771
##of	14867
살려	7263
여수	6165
직위	14270
성욕	21618
##oh	10827
##ied	25801
진행	3750
중견수	27739
##산성	14908
##닭	2836
저변	16822
2600	23508
바베	30279
이승철	30482
추정	5521
갑상선	18486
##학파	26933
쌀국수	21964
콜라보	19891
하남	12440
산정	9779
알람	27444
##랴	2737
Med	18703
혼수	19666
##서	2112
주저앉	11584
가한	24990
깨졌	26049
##ley	19724
베이징	7605
##생긴	16999
느릿	25917
##초프	31071
에버	12446
소장	5366
벌금형	19980
손맛	25663
대종	23886
둔	866
찜질	20359
##eth	18424
광동	24930
늘려야	21466
##통일	14894
불륜	22607
오직	6873
못한	4095
원가	7498
든다고	29372
베르	8702
👍🏻	21985
[unused85]	31585
소공	20448
##감각	27559
모습	3781
이안	24018
기라	22896
눈시울	21872
임무	7564
국감	11948
종자	13611
맞장구	26635
##ye	25501
지렁이	28208
뒤섞	15189
##닐라	17776
##일치	18103
울진군	30950
칭	1696
분만	23095
적기	25697
연보	30907
파고드	26601
##밸리	17226
힐링	9009
[unused183]	31683
협동	8030
##디어	4234
머지	16759
결국	3983
똘똘	21098
삼천리	30488
실망	7334
##드래	25072
깡	660
에워싸	26178
독재	7700
틈타	26329
각인	14165
불합격	26585
무적	26456
옌	1440
##꼬리	16623
러스	20014
전개	5445
따님	26995
부쩍	15485
교통수단	21102
달째	28690
구동	15929
버무	22423
##통행	28566
부들	21921
취미	9008
한샘	24147
인즉	29790
곳	601
두	864
전전	14550
이호준	29852
기술력	8068
사와	22568
거트	17075
수강	9325
전쟁터	16631
절경	24526
경은	23775
노출	6208
라즈	25530
##코스터	30361
부심	28034
학자금	16965
거행	19758
참작	26438
간수	26016
선사	6662
발렌	17575
에다가	10225
##그룹	6941
석양	25548
긍	644
녁	760
[unused266]	31766
A	37
이용자	6910
##야구	12942
처박	22857
##😭	2676
돌린다	26734
##딥	3443
추앙	28482
국판	26165
각계	12679
째	1603
더라구요	6267
다졌	17097
##질서	20300
희한	22957
간염	17568
둥둥	25700
중얼거렸	13629
킨텍스	19504
##저지	25598
오스트레일리아	25913
##바꿈	12917
##IT	12005
도쿄	7095
##만장	21329
Die	26742
해바라기	21456
동감	28082
+	15
##스크림	10389
##도로	6896
BNK	23279
##덥	3053
노동	3927
NSC	26288
도량	27551
이동식	24358
##대표	5718
심신	15282
다가와	16058
의제	10175
보완	6374
##인트	4485
출산율	22729
더러워	30461
피부염	24487
내력	24214
[unused160]	31660
띤	941
사격장	24861
교회	4633
대담	11838
밀실	25374
이나	3642
왕	1459
설화	11016
호박	12396
불렸	13553
대수롭	22694
기어이	24258
유전자	7699
영락	21283
##쟁	2729
아수	21077
LCC	26624
##신문	10000
##세라	22661
편하	6978
버젓	23599
##쉐	3174
푸틴	15042
가수	5443
##톰	2204
124	15590
넘쳤	24653
실종자	15122
인형극	29239
래리	29733
불출석	31139
포격	15985
시립	9242
폄	1858
##뿐	2782
군인	7031
렀다	10285
편향	14408
역전	7462
선원	10634
생수	16426
운문	29327
김포시	19888
##옵	2796
##EST	21511
관중	8862
변할	17030
[unused197]	31697
[unused209]	31709
놔두	16423
약진	20241
창출	5022
##ible	27865
##트리	7778
꼴찌	14813
성추	12155
하임	28610
행각	20630
방사성	17263
거꾸로	10709
##원장	10293
느린	17135
뿍	1224
연속	4788
노화	10894
튀기	24844
플래닛	23784
245	23526
Ber	23185
추징	23257
무방	14594
챈	1645
집계	6602
연휴	7671
하늘	4573
최영	14065
투신	15685
배경	5118
Smart	30775
완주	16039
이건희	14158
##휙	3498
소행	17492
심청	24399
238	28576
원양	28741
보금자리	11487
늦출	29537
봉	1168
한테서	17427
숨겼	28068
신학기	28583
수신	9201
발톱	20996
메릴	22379
튀겨	25668
까지	3610
한스	21215
##사항	22640
##일랜드	9784
나머지	5064
스승	7910
TEST	26967
123	13487
극복	5254
기형	17657
다저스	11751
어제	5538
CBS	13234
##운드	4792
서랍	17026
준용	25115
문대	30475
299	28964
근처	6328
번창	25828
토크	9157
세워야	16786
예절	16757
망언	28966
불러일으킨	30853
##다니	6047
시애틀	20019
규율	14719
##래프트	20909
##소년단	20854
후원	5758
뿌	1223
프로덕션	27698
소방차	24322
엘리	7137
분신	19328
뉴저지	26563
엎	1420
典	255
위안부	8866
##욕	2613
질서	5744
215	22813
칸트	15614
빼먹	26978
환전	17293
장신구	28851
윤상	16167
들려	5555
정치가	16980
도핑	29630
##삽	2756
파괴력	24785
##깔	2715
지망	17500
참배	15788
효모	28962
하락	4720
누렸	15245
휘두	25021
대로	4003
알려졌	4757
푸짐	12252
도우미	14080
로이드	31000
##뭇	3139
신선도	31012
[unused55]	31555
개장	8886
내포	11160
수줍	17519
사조	19241
##께	2678
바랐	15215
교복	12384
재산	4876
고정	6052
##께끼	17190
큰소리	27772
전시	4322
##푸스	17166
시리얼	30331
넘어서	8692
첫발	20618
확률	7628
초계	30393
##삶	3150
예외	7493
발급	8224
절실히	20327
광택	26000
조윤	18724
대학	3723
通	506
자는	5105
대치동	19190
라디	29081
카디	19679
노랫말	27517
女	311
알찬	22486
캄	1701
신의	16989
흐린	27202
갈까	16897
김사	30387
들이마	24015
CO	12776
목구멍	23285
부호	17725
리드	11616
요지	15130
축산	9339
공감	5487
예산안	9239
궁합	19269
목공	26420
개선	4076
돌아갔	9592
시카고	12528
기울여야	16727
##시코	7781
##전쟁	23249
자이언	16192
실랑이	27192
foodstagram	19189
Bu	28005
##q	2032
러시아인	29950
벌리	13665
채굴	27350
의대	11927
교통사고	8687
했으나	5245
치열	5837
##orth	24180
버섯	10807
성조	28252
옷깃	29952
정은	17915
쑥	1362
객관	6359
Che	26305
##선지	25631
##쿠니	24182
살상	21180
式	344
관저	21956
보세	31153
서귀	13659
유선	12090
##데자	26881
시설물	11589
맞먹	20090
납작	21561
주상	11987
모신	21962
##계선	27936
안경	8479
##넨	2707
김호	18584
WSJ	21850
전화벨	30200
원	1478
스튜어	19044
움직여야	26132
##틱	2960
바쁜	9064
교신	26899
행시	30424
ㅋ	191
모험	9597
탐라	22429
합산	13628
정정	13157
영국	4353
김기현	31056
[unused398]	31898
슈퍼스타	17250
교부세	24022
다고	3623
개발제한구역	25117
##횡	2714
냉방	18947
테크닉	20709
유류	14160
과천시	22192
카누	24320
엄지	12509
신다	11323
학자	5705
꿀	692
##릭	2870
부처	5410
합의서	26145
남한	8574
산나물	30130
막	1037
##oney	29324
##엽	2486
일제히	9710
##역	2331
##겠다	18395
악행	29928
##아내리	30334
##94	25447
표명	8313
공식	4548
##우회	25570
성난	22890
답	819
엘레	30356
##센티브	10668
여지없이	27112
제의	9419
而	469
차례	4356
걸러	17023
지나갈	21799
218	27548
방문자	20817
워크아웃	16305
등대	20567
##★★	23263
깝	659
##뭄	3285
생식	16419
지붕	9043
##ph	15672
##깎	3510
그르	16283
몰아치	19623
앞바다	15859
지휘부	30598
요가	14657
경부고속도로	21643
상술	28950
최소	4764
표고버섯	28752
갱년기	22135
애경	25044
##든가	7889
제왕	13760
##보증기금	24286
학창	15898
박계	11293
##기록	27899
위력	10627
래퍼	20195
China	28116
녹두	29701
##초리	16651
조찬	25349
통근	29863
다비	27799
추모	8212
혐의	4456
어려서	14478
특혜	9365
액체	14306
팩토리	22236
은유	15416
##시험	17057
낮출	19136
까스	15811
社	451
느냐고	9302
색	1245
은데요	10623
귀중	12791
쌀밥	29575
플라스틱	10221
튿	1815
생산력	24108
안전망	18392
③	138
1919	18548
비장	14615
냠	741
연개	25948
잠깐	6304
[unused34]	31534
##바퀴	16850
장석	27621
어기	15158
걸로	7823
##몄	3596
체인지	18076
instaf	15438
받아들이	6131
뭡	1100
늘려	8691
별도	5614
가상현실	18635
알제리	21187
대통	28276
아산	9418
##토토	18716
조선총독부	28779
##느	2922
혁신안	28308
##처리	20111
##omer	19335
서명	7056
강민호	24191
왜냐면	11675
월화	18549
모인다	29353
발원	27323
영하	13105
침팬지	28557
｢	1994
속상	15405
寺	326
##맥	2176
좌표	23740
팟	1833
##구멍	13634
[unused333]	31833
유연	7668
조상	8900
코프	23178
수백만	14423
거둔	9443
컬링	19052
레이디	19449
할래	25541
실탄	26602
이치로	30194
영화	3771
원리	5730
쿡스	28529
콜	1729
or	8537
반한	30174
밀치	31280
밖	1120
여리	31025
꼈	675
##톈	3209
1400	14838
총성	27567
다자	15311
##니다	3606
사슴	15387
질	1586
쾌감	17581
열대야	29098
##87	25493
된다	3622
계신	8700
pomeranian	24594
두만	24947
학사	12763
강정호	16197
2007	5125
깃발	12683
Hist	20388
짓눌	25121
##식간	9247
지참	28054
북쪽	8367
커쇼	30886
바야흐로	22454
마롱	24918
마닐라	29023
기생	11077
##톤	2634
도식	18869
앨런	20362
종목	5260
풀려	12229
별칭	24011
스태프	12976
조언	6169
##떤	3407
한복	11641
##처	2294
경비	6388
단골	11316
흥정	23988
역류	25246
스페	8304
이행	6162
몰려들	13868
카마	22995
편집장	20410
대조표	25904
광구	25937
매도	7754
난데	22772
그치	6625
상한가	24142
율동	28284
희곡	17967
미팅	11909
약자	9383
##뜨린	11295
자결	25838
##빽	3549
##노프	27871
도령	30574
티몬	31005
포르투갈	12549
곱창	14979
이동해	21117
강박	15400
저작권법	30339
백작	12777
##c	2046
합숙	24434
뒤집	6762
나그네	21694
어슬	27625
독백	26348
연결	4440
로이	16540
당첨	8906
##찌감치	10792
노려보	13902
##일	2210
아이리스	28698
순순	20662
약혼	16930
번져	21624
따라갔	25834
가만히	7740
신데	15383
##방위	24896
[unused467]	31967
##돌이	11116
산성	22313
원한다	10844
속보	18094
두꺼비	27190
파스칼	29800
시네마	17831
잘사	30055
원형	10001
기틀	18895
hom	26911
##케이션	5926
스러웠	9456
공안	13164
원기	24069
평일	10449
만사	23346
##bid	20161
택했	13456
김유정	23795
백조	20933
기도회	30619
일본군	11479
울창	22141
우두머리	20734
엉터리	19939
철강업	23719
다크	12393
부전	26101
출현	9526
신다면	16475
누군가	5524
쌓인	12115
땜	906
조형물	17227
스카프	22251
혼신	21376
思	353
살포	16137
받아들였	12044
##부절	26972
현인	30765
멀리	5765
견인차	26318
밀어	18306
컬	1714
쎄	1353
청담동	20345
벌컥	27651
그나마	7480
팬	1839
승승장구	18754
청도	14890
soc	21974
82	7569
수제	10650
만드	4577
물리쳤	31144
##닛	3045
진공	16582
And	20783
註	494
가로	5525
송파구	14120
시발	13176
막판	9901
승수	24340
독립	4751
##오리	12608
1968	14000
격파	20896
양현종	20184
예리	16428
간첩	13782
하긴	15029
아마존	12388
이광	11309
1928	23637
코칭	13779
[unused217]	31717
걸릴	10145
모른다는	10670
하루빨리	18233
드러낸	12273
객석	17181
부평	11372
##긋	2450
오아	22337
레인보	28922
북촌	30440
사원	6200
[unused352]	31852
##뚤	3260
엄청난	5873
기다린	23464
수전	24116
신예	19444
현진	28185
세부	7350
불순	18705
제보자	23275
캘리포니아주	25008
보상비	30677
도수	20438
플란트	20189
참새	24633
블룸버그	19576
數	372
[unused229]	31729
나뉜	13551
금품	9814
천	1652
##니당	17203
골반	19860
최병	23558
##ul	6228
트레이드	13338
금세	11516
참혹	19559
공업	8513
화면	5995
회화	10299
각종	4424
당위	14763
99	6515
한지	6863
스커트	18188
환불	15045
병자	20284
권위주의	16887
동아일보	9580
초콜릿	10524
부러워	17792
스릴	15314
불똥	26429
SC	12836
무식	18863
단순	4488
##조선	11836
하룻	13662
고루	15242
뒷문	24692
가솔린	16115
물산	27003
물색	19127
한동	30329
삼	1238
장자연	30678
의심	5292
채무	7128
고이	18975
인건	9911
떠올리	8636
친화	10455
평택항	29295
인민	6650
싸구려	24130
나영	26286
착용감	27948
꼭지	21276
내게는	18729
알릴	15559
##등기	27660
할게	25043
mod	23269
단위	5385
##플릿	22922
캐피	17368
엘리자	15087
산입	30487
나스	16709
접경	18348
Inter	21650
왠	1461
177	15413
복구	9511
닐슨	24570
##살렘	15111
나태	28888
맹	1056
자세	4558
십시오	6513
흑자	8924
공매도	20364
108	12309
냐면	8640
정하	6402
족보	26359
잎사귀	28304
##모리	25897
코너	7849
##틴	3113
새삼	9970
정가	14483
성비	24659
피보험	22244
경감	11636
방송국	11846
흡연자	25313
됩니다	4844
뭣	1101
der	16859
매우	4230
상승세	7502
베를	10084
차단제	23386
봄철	18401
여러	3789
더해	15957
이력	10114
희박	19068
요란	13080
처방전	29978
민우	22239
소설가	10173
##nt	30062
전원주택	30080
1923	24345
로서	3975
[unused383]	31883
정력	20298
기록물	16948
성벽	15538
inter	20157
막론	15876
사립	8362
함안	19194
도성	18221
여전히	4594
수만	14234
##총	2859
웰빙	13393
두터	15625
화	1933
제국주의	12617
아태	26824
이와	29162
##손가락	21012
오른손	13817
출하량	28176
##던트	23450
64	6350
레트	24836
無	423
승산	23344
로빈	18512
악령	29300
크루즈	10184
!	5
##ann	15728
안기	22187
수백	6843
응답자	9440
##잣집	21348
들여다	12513
에스파	26240
끼워	13646
줄기차	25639
그저	5702
불통	20805
김의	28873
유통	4743
분란	27736
##흔	2853
가지	3663
##호흡	17448
증거물	30006
압	1384
조심스레	21645
분립	26990
[unused112]	31612
뱃살	24301
격앙	28988
가능	3662
기간제	19579
上	216
##메인	25863
꽃	684
민노총	23551
##려서	7485
##콰도르	30596
주년	5710
저당권	28364
암묵	24156
힘껏	16607
##이트	4106
중문	26213
나눈	9722
고농	25173
역설	8688
발랄	16303
EG	29572
福	454
##R	2107
##헥	3402
출자	8654
꼿	681
윤리	5807
만을	26661
지성	8575
매립지	18960
[unused267]	31767
톨	1796
폰	1864
##층	2624
##농	2630
구급차	22484
더라는	23342
위태	13894
배불러	31397
##궂	3277
범한	26630
##토피아	19447
마님	24997
절임	29123
안병	20208
LP	20346
판결문	18891
동방신기	28317
보입니다	13974
관심	3867
톱스타	23800
##끗	2845
봉수	27893
난동	24404
##퇴직	15150
##TN	17238
마스카	29112
##갠	3200
김홍	15623
줄거리	15735
극본	18632
괴로	13028
쇼핑	4887
폭탄	8582
게임즈	19974
교수진	28743
산둥	27957
함장	29139
떨어뜨린	30536
##깻	3523
팽배	20067
##깁니다	19721
함락	20547
교육자	20652
라인업	11870
권순	30778
빈자리	19361
균	634
적도	25181
달려갔	15028
##춰	2780
식량	8651
다가갔	16603
선보여	13521
매몰	14108
갑작스런	16878
즉	1577
팔뚝	22391
밑돌	20946
팎	1828
아유	13097
##▼	2276
Asia	28600
同	281
외양	22993
지평선	28267
모금	9216
침해	6557
추도	21578
컨트리	25144
편한	10701
예민	11028
이점	14514
뒤진	16994
해지지	29497
못했	4047
증명서	15730
가신	22830
원유	8218
치러질	28210
포근	18814
헌신	9268
전향	14623
향해서	18519
클러스터	11779
메이플	29782
태어났	9499
해결책	9487
콜레스테롤	14902
토기	21322
형법	15229
혈연	22851
벤	1150
더더욱	14236
##는	2259
놀랐	8179
중소기업	4722
열전	18655
##혈압	22165
전입	17550
패한	21591
느꼈	6227
후손	10965
버	1139
환승	11738
##재판	21634
##스티	6800
의석수	30469
천착	31002
##g	2064
절충	17170
금남	28742
##코니	19185
달러	3976
서클	21189
소구	29207
볼멘	29767
##춤	2572
연유	17132
내홍	28983
가로질러	19642
수액	25786
원인	4511
실상	11069
불법	4849
식빵	21288
친수	24623
2014	4845
집필	11145
농사	7527
구겨	23331
집집	25029
특색	12580
내보내	13006
성직자	15658
롯데케미칼	28404
[unused228]	31728
문주	30012
##pr	25462
어루	18477
혈압	8997
느껴	4975
아녀	25094
4500	17428
식	1326
롯데호텔	18942
Life	22427
드리	4905
투싼	29702
[unused184]	31684
된장	10911
제과	18289
차렸	19852
운반선	30060
파이터	18524
참여	3844
대면	14956
책	1644
중력	16153
from	18421
구할	11375
마곡	21144
자퇴	30112
믿	1110
남양	9115
무패	23028
##urt	29368
읍내	20611
시큰둥	30303
고흐	22153
알아주	18665
세일	8336
나아질	24932
두근두근	27543
용호	30219
모닥	30699
부	1173
Red	29778
찬	1634
임정	22361
구비	13092
송출	24475
뒷바라지	26550
손쉬운	27017
##우드	7262
##캠프	28697
바이스	30457
하드웨어	14651
결정짓	21271
기괴	25735
천수	29948
아카	7899
뚜껑	11410
시동	12262
매수	5954
조경	12792
지원	3691
허무	12466
##ile	18213
인적	18986
은	1497
이효	15262
토트넘	20482
피리	20601
야전	27447
##벗	3293
비전	5941
천만	5489
57	6254
##르기	11799
내보	8430
고함	13241
떠오를	22582
부풀려	22679
세팅	19159
방	1129
##팁	3435
몹시	8875
##에트	24966
방패	16275
Dec	29491
건의	8323
[unused83]	31583
천상	16758
고부	11991
##내기	13749
정명	20399
택	1771
반듯	19895
##어낸	16260
늘어진	26858
발레단	21469
코끼리	13839
화천	20396
카네기	25820
센터	3950
노폐물	18333
##구장	18518
수동	11996
책자	16241
종식	17014
갓난	25129
앉혀	26991
부드러운	8146
상세	8944
##천군	12288
암호	13149
차익	10548
기막	20470
즈음	12187
무서워	14861
화환	28486
복역	25511
모듬	26047
꺼진	28677
CS	12035
숨겨진	13417
공존	9719
삐	1232
영양제	20153
청나라	16716
신생	10035
벤츠	11629
몸통	16362
지폐	17410
[unused50]	31550
단체전	16473
항거	24865
망라	20248
드려야	18308
아랍어	31497
쫓아내	24140
안타	4970
청바지	15838
KOTRA	22107
##귄	2821
심리전	26376
최저	5416
1894	26891
동창	11882
양식장	25014
차갑	14428
##맘	2800
##외선	9328
갖은	26801
카펫	23982
자분	24587
화이트	7482
성인병	26398
현역	8633
쇠	1291
㎾	211
엔	1423
##더기	15977
센	1271
재밌	7478
가뜩	17866
안간	18245
구례	21129
군주	10374
##액	2432
아	1376
허리	5803
다닐	10046
우상	12032
잠재우	26027
사춘	14998
콤	1730
Ad	14219
Robert	23049
청구서	26874
서	1258
＋	1983
대산	24029
뒤돌	17327
[unused412]	31912
숙종	18801
##IB	29582
업소	10460
소이다	17710
피웠	21156
모어	26668
##48	23281
장미꽃	28333
권투	28292
토의	16992
전통문화	15600
내추럴	22663
보수	4687
##뒷	2915
들어갈	7567
그래프	16411
AG	21015
달아난	25988
이바지	15554
예고	6262
푸르	10057
교육학	21251
눈	780
도대	6619
쪄	1611
샐러리	23231
전국	3952
Em	28485
##빈	2626
쏟아	7159
아셨	30587
채소	8093
##삼성	13963
다가갈	21770
따라붙	20500
매매	6002
무더기	14783
34	5191
김진태	27158
개강	25722
멜론	19632
썰물	31010
소주	8554
연차	15669
가든	14333
바라본	18515
##셜	2704
한다든지	20585
셀프	12240
쩐	1607
사건	3863
세무사	28597
##간	2366
거제시	26507
차일	27793
돌발	17248
포지셔닝	28695
사우디아라비아	15880
##잎	2235
한식	11320
큐브	16373
공예	11919
악명	23292
예약	6297
으로선	18326
들어가	4160
회가	22705
체	1658
꿈	694
복귀	6236
오디션	11820
캐논	24740
##oT	11206
막창	27521
재가	18780
메워	21632
##금니	29920
낯	729
##식	2096
다문화	15692
기이	15384
저러	16855
열쇠	9480
만큼	3847
##evelop	20143
##너	2445
돌리	6477
명명	14122
살폈	16379
##만금	17176
##안	2283
강추	18073
라트	29980
KCC	11781
시술	8519
개인전	13231
##사슬	30008
다문	30877
프라이드	29211
산자	29430
한다고	4034
멈추	6856
##뻣	3453
패러다임	9772
인방	15571
줘서	10794
146	16657
겹쳐	13151
빅	1188
널려	20063
품안	18123
개념	4453
지법	8677
허준	27138
가볍	6758
간주	8175
부랴부랴	24468
반주	21807
홍석	24637
배회	26504
##out	16618
체면	14832
꼼꼼	7511
분석	3903
정병	18726
피해액	24638
정년	11123
대조	8782
동그랗	22805
똑같이	8631
랴오	30620
유틸리티	22802
렀	971
길들이	26524
올바로	27970
원생	24411
다짜고짜	28435
샤오	19298
고맙	6659
##눈	2253
필지	15436
찾	1642
식약청	24954
정수기	16111
더냐	20915
믹	1108
해산	10395
##표	2316
인턴	9049
산화물	31004
절호	21353
23	4136
대리인	13573
ag	21402
향교	28853
었	1417
##12	19613
심	1331
인텔	13492
얇	1400
오리	6121
슬며시	26841
구장	9896
방안	4287
출세	16227
##워스	26964
百	444
계파	12251
알려준다	19509
토미	29905
월간	12994
텐데	5843
부관	31033
##ther	23193
채운	16981
댄다	23024
쉬	1307
요청	4698
##러울	25370
나무	4506
##럽	2319
華	479
스캔	12014
올레드	27180
한숨	7470
야당	5178
바로잡	11022
CGV	16995
브로드웨이	29262
찰칵	31014
수연	20504
비즈	5682
##자매	30713
대등	19205
안전성	18309
##꽝	3329
쏠린다	24256
어머나	27601
광고주	18113
##급	2478
말씀	4241
요것	26489
모퉁이	21007
과실	11104
엇갈	9399
길목	17109
##력	2526
##alys	29895
가량	4992
픽업	27962
나타났으며	29194
모빌리티	30397
##삭	2812
회전	8168
노르웨이	13706
맛	1045
##런치	16721
피어	19324
지난날	23782
차창	25443
스케치	18082
##멤	3333
루니	26586
강수	12068
부랴	23691
칼칼	31135
##뤄	3248
요번	21299
종전	8885
병우	17860
숙주	22575
프랑스어	19182
련관	31423
실비	28891
390	24626
청렴	11519
##워프	27503
엄격	7233
줄어든	7949
實	325
##데	2147
상급	13295
탄산	14666
작동	7538
힘	1972
NIE	27753
자문	6842
다면서요	23604
##ret	30563
열릴	10227
##상스	13432
화공	31051
미	1107
##됩	3598
견지	14020
왕건	21023
곡선	10944
까치	18256
설득력	11097
##라면	19669
탈레반	23766
##외과	12267
건수	8319
[unused443]	31943
으나	4433
팀원	15104
미우	30388
부끄러운	15386
영토	8683
일종	6171
광안리	25158
시름	21212
##G	2341
고려	4146
익혀	14239
##벌리	21678
포장마차	24447
신종	9310
편법	16119
비교	4320
누런	26956
##rav	18429
트	1812
사무장	23448
아티	10583
적시	10483
분원	27815
무협	25308
욕실	14470
롱	998
##마다	10598
[unused27]	31527
뿔	1226
작년	4842
캘리포니아	10771
창간	13997
은어	26458
매듭	16141
함께	3655
##나드	13543
혼인	10276
후진	11536
에미	19674
민사	12046
비아	14710
아무	3795
스텔	19733
##꾼	2528
보여요	21263
기만	16246
[SEP]	3
자매	9646
묵시	24624
간절히	15086
병사	7009
오감	19570
신일	28036
정문	11322
장병	11492
스무디	29345
침실	14050
연명	20012
##예프	29020
불러오	22847
녔	763
북미	8061
벌거	22494
매립	10518
##린다	4127
개수	17101
낸시	30811
유대	6811
틴	1821
유리	4882
드로잉	24124
##샀	3575
일기	7231
달랬	29006
##uc	8142
조련	28975
小	329
##iel	18457
풍년	24385
복원	6922
##못해	22697
용문	27075
##op	6535
잡힐	23019
3800	25468
불고기	14564
##펑	3195
건너갔	28108
꽂	683
사령부	11875
애리	19001
배달	7301
능통	28298
아닙	5531
##ild	16831
소홀히	13515
자금	4248
말끔	15975
의사소통	11051
엘	1424
외교관	14805
도면	20781
머그	30199
거울	7943
추월	16925
치사	16549
##멸	2820
주기	7267
기판	24648
Development	26427
##AT	13068
##영향	10925
지키	4918
그나저나	19267
묘역	21049
AA	28458
들어왔	6867
##amp	17856
샤이	21109
컷	1717
막힘	30869
평면	13438
울부짖	18216
로렌	28206
뚝뚝	23105
중독자	20203
행안	17398
DMZ	14754
크리에이티브	24106
수정안	14038
오렌	11040
면사무소	29168
따른다	15441
##올로기	9031
슬러	27844
판도	14617
주어지	11958
멋대로	22262
소방본부	27938
교훈	9407
마이너	9491
##거진	17084
이만저만	26528
플라자	16597
계셨	12896
오스트리아	12132
냐	740
##88	13167
##화기	11211
##짊	3573
광주시	7388
붐	1178
##집트	8552
##my	21996
1941	22130
전세가	27919
뒤따랐	30227
과자	9496
##이드	5102
드라이	9821
##덩이	7211
##누스	14880
초음파	17628
닛산	17083
메르세데스	18755
영양	5701
곤란	8104
후속	8830
껑충	22599
love	27415
날아갔	21393
하녀	20170
얻어맞	20292
신뢰	4901
해프닝	21541
센스	11600
경영	3939
[unused63]	31563
재위	24058
Q	53
태음	28229
유영	16747
##스럽	19661
##ath	16012
당근	13469
경찰대	27434
축조	24282
재벌	7161
추진력	17899
##ations	14073
후쿠오카	19214
내비쳤	14895
여건	6015
주정차	27852
가전	7599
갈색	14008
공화국	8932
취업률	16008
대학교	5461
변한	13307
요구사항	26163
열망	11886
유기	5967
들인	18631
##그제	25045
안위	25807
분권	14344
##ur	4704
면허	9362
카리	22670
고스란히	8838
아이러니	15508
토성	24820
Love	26998
혼돈	14967
저기	7069
촉촉	8974
전기료	21573
으로서	4220
이장	12972
에서	3604
걸치	16136
입국	10549
망설였	27208
Fr	19668
나와도	29164
##⠀⠀	5854
[unused97]	31597
체형	18363
차려입	26260
크리스	5679
발해	18765
경부	12079
생과	30847
성폭력	10251
수증	23818
상암동	27530
후발	23868
대백	29574
##아리움	31418
법조인	23931
각국	7120
주차장	7086
라캉	30246
응시자	23518
상업시설	20698
SM	9555
kg	8628
##67	26162
신학교	26467
씨씨	23405
물린	30752
스타킹	23317
주치	19457
##베이스	14200
험한	19145
[unused495]	31995
##ㅌ	2400
디엠	26464
전지현	25176
[unused49]	31549
내재	10903
159	13883
방수	15388
동이	17723
세종	6362
##사진	19877
지배력	19071
Mac	30102
자료	4208
내밀	8071
전원	6468
낀	714
핵	1898
380	18321
##ay	6365
확연	22329
전해져	21505
구박	30281
이적	10093
가방	6840
실외	24056
기나긴	26265
에이전트	19776
여길	18462
나을	30679
골키퍼	13038
성기	15394
힘없이	21999
신한은행	10274
운동량	29586
코믹	14398
여주	8804
지원자	10502
##넛	3414
상장지수	28149
넓혀	11654
세리	18345
##슬레이	29897
원주민	13140
정대	15295
Cap	27488
제멋	20146
수표	13559
의외로	20068
최근	3744
diet	13917
생체	14939
호르몬	9653
논평	11904
##립니다	7316
재치	21657
칼	1700
지만은	15027
최강	9448
##준	2456
줄줄이	12355
추방	12786
무산	8277
투구	12164
필요	3677
97	7815
가져온다	26500
ㅎㅎㅎ	9297
鄭	514
op	17630
보이콧	20494
청혼	28315
자본가	18858
발코니	20812
매운맛	21987
##득점	21387
##n	2012
바오로	30537
##ship	26316
어려워진다	29985
##돼	2811
중심주의	22011
多	305
LPGA	13022
초월	8486
[unused102]	31602
요식	29449
##마차	18492
숨겨져	21978
종착	24534
아웃렛	26910
##지부지	30770
##황후	25295
혈안	28329
한눈	9721
##드레	12674
문득	8831
타령	23202
불거졌	20052
쫓아	12846
##지가	20257
이유	3782
소서	10713
으응	27392
통	1799
##쏘	3363
단체	3971
연안	11189
정해야	30098
호흡	6161
끝없이	14250
기원	6256
##멈	3317
유스	21003
동장	24921
개헌	7269
퇴진	11054
대응책	18850
대비	4112
지반	21924
##enn	19550
드나들	15887
ㆍ유	21327
실력자	26902
서상	24290
18	3801
유업	23267
##ㄹ	2317
##짓	2920
ㆍ구	27410
극진	28589
고혈압	25656
섭리	21457
월	1479
매달	6018
저거	12181
카이사르	24158
현정	25588
##페이	13907
네이비	29545
탄원	22447
오프닝	22451
자장	25997
돌려보냈	29916
Gre	16572
스파이더맨	29493
리모컨	25999
별개	11417
208	22422
단조	17385
##icy	24914
방석	28117
表	483
이병헌	19774
짜장	27945
광기	18225
월남	17919
##좌	2584
테러	6593
미끼	19905
도치	26518
경장	28137
태운	20385
신용도	30311
군것	31157
소지	7750
dog	15238
부산항	17003
[unused432]	31932
리그	4469
재심	13950
협소	22323
분야	3993
흥겨운	25797
언니	5674
나리	13811
도전	4726
칵테일	18981
앞쪽	14531
비싼	7837
##낮	3264
할수록	10059
로켓	11186
멈췄	16147
개표	17613
##넓	3307
처치	20110
##머니즘	22028
##컴	2996
공터	22863
혼례	23809
안양시	16551
HA	25550
##ative	17717
캐럴	25950
도래	11517
##포도	27241
그어	28215
정모	20935
싱겁	30753
아이스	9683
기자단	18718
계정	9389
리커	31499
브라	5252
##핀	2858
돌린	17390
app	23356
##미	2044
벽돌	14034
자연	3941
제철소	16253
의석	13627
돼요	6961
응응	30288
섣	1262
지식인	9803
토탈	21437
친일파	19503
담당자	8122
system	27032
일으키	6572
DD	22562
기자	4055
흩	1966
시리	5328
##헐	2896
##같이	10597
그칠	14887
연구실	15541
비옥	30609
싸이월드	31485
슬쩍	14709
피운	26591
분업	20893
슬픈	10645
매표	26419
기차역	30909
예단	25041
에	1421
침	1693
은퇴자	30384
화사	13379
태생	18539
##굽	3083
미남	22647
분홍	16143
소용돌이	16358
##9	2236
William	23142
처가	27998
꼬리	8358
##붓	2913
리퍼	26287
끊임없	12652
감정평가	27125
증기	17424
리더	5053
챙겨	7029
배운	8174
카카오	7270
통일부	11134
사생활	12443
##나타	12855
돌아섰	13956
그분	7244
디렉	18834
##누이	22619
부어	25672
어정	26167
모범	8699
휘파람	25929
헤치	21100
의료관광	20442
금치	24723
완수	17787
[unused411]	31911
닌텐도	30578
행하	10106
홍대	10416
갈지	19129
라이선스	25025
##임즈	31136
정봉주	31062
##젤레스	16790
그림자	8210
영감	8612
상품	3959
##고	2088
##철도	13784
카시	24375
○	156
##숫	3186
##비드	9980
새콤	19833
아버지	4096
이황	24101
##re	5164
##제철	11113
T	56
진정	4739
##od	5052
강	553
##들인	13147
나노	9939
글자	8034
본토	15039
28	4232
뭔가	5079
독립영화	21769
##카운	28043
由	436
타미	29478
##맹이	19876
성	1268
##컫	3526
inst	9632
관료	7517
브루	11653
항우	19811
아웃	6826
우여	16316
자가	17296
노선	5799
띈다	12685
털썩	26103
장동건	27039
H	44
원샷	30890
##es	4080
비싸	8092
독	849
떨어	3928
산악	11252
##13	20914
미포	27380
##쿄	3058
기뻐	9221
내세운	12430
James	26041
##몫	3432
지원서	22711
복사	11918
렌탈	20393
세난	26854
노정	27644
승부	5639
벗어났	17462
##은혜	29871
한문	17153
스와	16624
머무르	13402
직급	16600
분홍색	25084
##버시	22941
프로그래밍	23739
유학	6723
리버풀	19775
1895	26759
테러리스트	23108
럭키	28009
##39	24834
파스	12951
퍼뜨리	29507
김정일	8657
##렙	2985
##괌	3197
박물관	5899
다우	15293
흩어지	21870
카인	21938
고의로	25979
##혀서	25955
급박	22846
집행	5171
에드워드	17372
##IN	15800
남편	4507
##꼼	2697
무슨	4177
다인	26840
죄책감	16289
##M	2110
스코틀랜드	16641
동작구	26861
핑	1888
서스펜	29466
퍼	1844
가까워	9421
디젤	10992
단락	21708
총출	23461
신문사	11613
지칭	11770
호황	14303
비주얼	14055
언제나	5641
역량	5494
쳐서	17419
##브리지	27837
편	1856
원한	14313
므	1105
피노	27245
보호구역	20280
판매점	21582
##느릿	29777
하워드	28346
벤처	6522
명복	29379
뽑혔	18451
딸린	26283
다각도	25710
Ox	26893
Or	17521
[unused47]	31547
항	1896
and	5433
월가	20168
영종	14796
엄숙	18476
미니	6934
스타트	8431
힙	1973
몰	1082
몸뚱이	25187
도시	3763
주인	4268
116	15085
패딩	16221
접점	17773
다이노스	28395
우에	29332
송재	29337
##꿔	3165
태풍	8664
카이	10640
수업	4851
지인	7707
함부로	10334
##oph	25049
생활고	27863
쁘띠	31034
떠올려	20209
늬	800
경마	13513
보일	6441
게	578
챌린지	15612
이여	17464
짜내	28889
[unused499]	31999
##ell	8143
미세	6489
경의	17895
마자	23640
LI	12907
들어줄	28869
백정	30065
##meric	15615
##ory	10377
일고	31453
##쫓	3369
영향력	6640
홍수	10396
박병호	16565
꿰뚫	15520
분통	21064
도통	27658
급선무	23683
걸어서	12378
##도어	11369
상륙	12987
##래기	26965
감당	8703
나사	18056
지지율	7469
국공	15489
##자루	20591
##결	2489
마	1036
아예	5848
예술제	31084
승선	19651
##곱	2797
날치기	24120
도화	17319
온기	19349
차입	12557
안희정	15797
知	448
명세	21368
증권가	22426
해장국	24996
연매	27028
이름난	25629
[UNK]	1
а	103
행	1903
펀	1846
기미	11872
총국	27987
연주가	27009
타계	25804
내민	19028
런던	6648
범죄	4941
집권당	26270
자제	8449
광고비	25595
베토	16974
이화여대	13983
텍사스	11813
볼리	23871
보컬	14030
붙여진	21604
넘버	18021
정류장	14602
공민	19379
레바	19419
##슈타인	13744
연비	10310
펑펑	22667
도마	11924
그라	8492
##칠	2233
달라붙	15204
해독	14089
달라	4676
산수유	28599
재경	22714
##티아고	30660
고려인	23258
통과	4963
밀려	6943
브라운관	28815
[unused264]	31764
##기수	29002
홍준표	9687
불이	20249
다오	31130
오락	9882
렙	979
자연재해	22418
1912	26033
미정	29274
난치	22341
은총	19146
##다녀	26575
레드	7555
김구라	24432
##닷	2674
발자국	12812
##자기	4569
심취	28171
선인	16285
시연	14104
목마	28608
지금	3660
당당	7412
##근	2169
색다른	11332
상호	5230
테두리	17766
느껴져	24472
유사시	24288
꿈꿔	30656
잡스	15373
청동기	26732
다큐	9113
얹	1409
릴레이	15978
##멘트	10468
뜬	932
사재	20934
질감	20991
노스페이스	29268
어지럽	15725
##NA	9269
떠났	7528
주시	12000
이래저래	27723
밥상	10762
Vol	20402
은가	8280
해금	26168
사이즈	9471
공생	19143
사나운	25343
야근	18688
무인	9173
데요	23216
제주	4364
현관문	21225
윤지	24864
창작자	30197
만행	22593
황우여	21878
해운대구	27668
org	17936
일부러	8835
구명	18541
였으므로	21748
급	642
##루엔자	15758
제빵	21696
해야	3645
헤게	24934
프랭	14287
황홀	16914
넓힐	28620
껴	674
오대	22825
돌려주	13522
##elf	12514
원비	24782
경쟁	3855
잣	1524
##v	2045
부동층	31227
##반기	4578
아메리카	9583
도배	22908
전권	23289
김두	12993
我	362
활기찬	23438
최재	14702
##보라	19582
한국식	26416
항시	28829
른	1021
##벤션	11752
부린	29121
총괄	7276
극히	10461
2	22
##장치	19169
재직	9472
세터	23239
ㆍ자	29208
배울	9402
각자	6347
AF	18959
장식	6902
식단	7539
친필	30569
필	1885
내전	14640
##워드	9332
탄수	17682
##제비	28625
帝	336
일컬	16455
위안	5921
네온	27624
향하	7553
##캐피탈	15989
진영	7092
짚	1594
자판	18582
마운틴	31446
멤버	5960
블록	7190
##98	24232
역효과	26631
독도	8499
무언	7337
이례	10156
더해져	20335
찍	1626
땅콩	17646
##샤	2598
##정보	19861
대출금	16708
통치	7383
이질	14938
章	460
아이언맨	28484
##제표	17572
비축	17988
일변도	28102
적성	10533
발열	19392
퇴거	30014
가까스로	16938
風	534
우르	26447
엇갈린다	31304
간파	20163
바캉스	22635
##만큼	22883
껍	670
총명	24874
체스	26621
위주	6115
진화	6747
IS	8374
김광현	17059
##그레	13183
두들	16390
뀔	702
##줬	3269
농어촌	11029
』	175
국방위	29743
one	23828
##죽순	29259
##으면서	19292
교문	22518
용돈	13667
칼날	16337
미소	5658
액수	10270
벚	1147
거대	5685
가세	11708
컬렉	11956
남미	11719
차등	15032
교란	18854
서머	25910
녹십자	27339
ㆍ무	28628
##으나	4381
빤	1198
이어진다	10231
박희태	27805
노동조합	8603
##부대	24972
##챌	3415
햇볕	12160
사채	13674
어젠	29469
기반	4568
[unused287]	31787
가교	25944
박쥐	25077
임진강	27858
들릴	17941
복식	16754
지도	4126
활동비	18933
곤충	11953
매너	16689
백남준	26762
민낯	26130
##럴드	22115
끌	706
남서	20628
칼로리	12901
1899	28462
엄한	30389
저질렀	14010
##스톤	24690
기름	6565
식품	4693
샐러리맨	27122
싸운	20745
알린다	30686
##됐	2367
까마	14757
[unused207]	31707
##부리	18442
날아오	20408
오재	25938
크리스티	21958
나부	26119
평	1860
봐야	5236
텍스트	8509
육사	28764
##ome	13617
질렀	11468
독일	4407
##ability	29399
1924	23489
매끈	19094
도제	31339
놓친	18599
원청	22587
방역	12133
##음	2053
헤헤	20473
온	1445
풍자	12729
플러스	6646
##협회	11261
설사	10029
[unused359]	31859
들판	13609
III	30116
훌륭	5825
##orean	19264
자형	20965
악물	21937
but	30103
떨쳐	16832
형사	5804
##ings	19236
##훼	2480
마호	28789
프레스	12028
##바오	26929
##걔	2889
사제	10705
##더니	17598
용광	30511
△	149
동맹국	20753
연락	5721
축하	7007
헤엄	18153
마쓰	20196
선두	6658
세탁	7842
숟가락	15852
192	7039
밑바탕	27314
입회	28285
[unused314]	31814
맞은편	14458
인분	13951
계발	13240
외교	4770
요동	12333
전사	8601
이라도	9732
##겹	3319
가릴	20424
Ass	19014
산신	22595
이메	9615
멜로디	17386
더운	13733
장로	12206
##졌	2951
스크	7142
월평균	15534
수두룩	27143
세력	4815
평소	5076
달할	17056
with	13412
토론토	23336
##갖	3417
비록	5771
별거	19827
단죄	30735
##베스	12612
일개	26944
주제	4551
전학	20434
종속	12829
기린	21554
다운로드	14071
##ㄱ	2422
쓸모	13125
무형	12171
≪	133
치른	11563
##85	21411
전라남도	22272
무역	4902
라지만	23102
##결승	17976
공포	5892
1955	18130
濟	421
뒤이	27219
갈피	30196
딜러	16288
표면	7997
익히	9754
##밭	3214
정몽	11143
출전	5419
누드	19461
응할	30897
테이프	12238
퓨전	18490
##97	24784
대처	6438
[unused215]	31715
는다며	27980
선언	4838
임자	24794
뽑히	26327
스펀	29231
미친다는	28655
걸쳐서	21503
으음	18909
십이월	28565
기관차	29286
광화문	9474
설악	26834
2003	5994
은상	29808
[unused108]	31608
게요	31383
후각	27258
BIFF	29296
고철	31447
용량	9366
##수범	24278
##베르	11842
##앱	2901
돌아보	7706
전류	22193
여름	4565
##꽤	3570
되살리	20695
마티스	27549
복잡	5629
감염병	22989
갈망	14941
최초	4418
휩쓸	10938
급변	13423
충분히	5050
##교동	21172
촌락	30305
State	30605
[unused346]	31846
##연금	29542
開	522
짱	1602
조류	10910
기피	11748
되돌아보	19299
##화음	28483
프린터	16609
##보증	17470
가창	19513
팔자	18101
##ays	21954
처칠	24506
##짚	3352
민병	19106
일용	20331
예멘	25384
귀촌	22809
캘	1705
##웠	2385
흘러나오	15544
무인기	25736
떨어졌	6207
1922	24798
지겹	26671
##뚜기	18046
이걸	7027
저울	18379
올라탔	31090
대관	14808
##큰	2855
[unused400]	31900
개점	16655
연다	8963
Cor	21930
그다지	9250
##내	2369
평행	19935
장보	14480
정종	18360
mm	11245
운동	3815
##저곳	20435
삼월	22445
유격	13988
바로크	27243
##례문	30773
국빈	25329
손수건	18977
다방면	27414
해석	4650
볼리비아	30411
감정	4554
##정책	22210
##쳤	2954
양팔	29465
도급	20827
수육	29558
판문점	13756
독서	6133
##ox	18050
격투기	26191
미완성	30132
##곡동	13506
##심판	25871
망국	31494
Re	11664
기념일	15781
마포	10777
자산가	21774
##ger	20049
솟아	15969
##66	21200
##ope	20425
인품	25405
돋보이	10691
오키	13152
분당	8145
타이탄	29618
의존	6075
청년	4563
닭고기	17378
천차	24361
몽둥이	24786
[unused298]	31798
걸어온	22485
당해	8379
수입액	30607
PT	29445
딕	888
국방위원회	26272
견고	13529
덩치	14015
##님	2098
司	278
돼지고기	11833
##ction	23312
맘대로	23737
북대	23483
벗	1145
담화	12894
불출	13403
발족	13285
합당	12827
반복	5205
##덧	2932
지하철	6312
준다면	16324
오리지널	16627
여러분	4988
변모	13897
동북아시아	26274
오갔	21104
버핏	17267
미자	26179
고문	6689
눈꺼풀	23704
##클린	17678
유가	5704
개도국	18432
사망자	10400
디어	30864
##정사실	22769
쌓았	17037
자평	25203
##ion	7622
쉬우	27689
최시	28246
노예	8121
비누	13450
기민	27950
##만	2154
판촉	16190
달갑	30573
안락	14227
[unused0]	31500
무주	23482
##캉	3379
##채권	28250
포천	14240
都	513
지검	8621
마리아	11692
과잉	8647
임태희	31350
[unused14]	31514
가늠	11303
인먼	23117
##ㅌㅌ	24850
뜩	931
성찰	10558
업데이트	13197
자매결연	22355
불꽃놀이	31331
회	1938
괴로움	17515
통칭	29415
오프라인	9783
##왕	2305
상법	15081
간호	7578
수의사	28718
1943	25039
소동	14148
데스크	16928
정일	24217
요게	25895
##가루	8337
##특별	20000
가금	29463
고소득	16165
##ember	28831
##봐	2998
##㎜	3569
헛	1910
카타르	13516
##더위	30665
說	497
걀	565
부의	12369
나뭇잎	18155
검정고시	28254
륨	1017
특	1813
자생	13452
##구치	23376
작곡	8067
##땄	3593
당시	3817
출입국	19753
완강	19996
대웅	20007
였으니	17849
보좌관	10832
세이브	13015
차비	31195
##딤	3413
기강	17251
금전	11993
각	544
금회	20621
살림살이	23000
상황실	16327
고준	31277
발포	23598
주석	7370
##란	2241
우리나라	7339
개울	19901
신춘	23240
내려오	9005
플리	24631
경사	9892
Mc	20174
정몽구	21065
논제	26884
꼬이	26725
손녀	17662
##쁜	3231
관악	15840
GS	6860
##개토	27469
ISO	25141
벌떡	14135
위탁	8190
기장	10653
Part	23660
거닐	21000
야쿠르트	20888
빗발	22696
어설	17799
쩡	1610
취재진	12853
거창	12340
맥심	31180
##짜고	28430
넘어져	30635
진군	27397
이튿날	13693
##제리	16903
두려	5337
1987	9175
빌린	17321
##뜯	3540
스즈	23965
가느	22762
박이	30007
사용자	15259
##삿	3238
접수	5821
스크랩	23122
질주	11307
##EZ	28091
##EP	30229
雲	529
나선다는	28517
치맥	29275
현저히	17035
징검다리	26124
foodie	28075
영등포	11861
중종	22821
더군다나	15069
##꺾	3528
사도	10119
하회	21307
힌	1970
꾸리	16398
곧바로	6675
가죽	9363
관계자	3810
허영	19307
[unused490]	31990
일자	6846
시험대	27568
용기	6153
무늬	11291
트럭	8893
소방서	13416
칭송	19351
무난	13823
여겨진다	19096
##as	5199
[unused307]	31807
부러움	23718
노론	24584
231	28645
증축	16604
항쟁	11494
##베르크	21857
삼국유사	22075
첼	1660
##늬	2956
어지	8954
포수	12111
송중기	26013
사직서	30382
유산	7111
돌아선	22969
아야지	17983
제우스	21205
모는	31328
솔직히	7946
수탁	18938
발광	16792
백만	8317
비비	11749
열사	19526
##샵	3284
##뗄	3111
近	505
보약	22864
최고가	26408
엠마	26855
커넥	28159
[unused278]	31778
목표	4071
촛불	7393
이병철	26226
이슬람교	26383
네네네	15433
무서운	8558
##65	25562
최하	17408
터미	8258
##oung	26078
단정	9611
명실	14521
몬스터	13692
명예	5587
철기	31349
기부자	26436
시킬	5044
Don	28309
740	31160
GPS	20989
카지	11816
##러움	9858
알라딘	28945
IPA	30198
들으며	14228
##비전	7150
Commun	19949
일면	20053
드러내	6038
회의장	16952
신중히	22685
밸류	20530
거침없	22788
心	351
응급처치	29224
##덟	3542
최고위	21841
손	1284
오후	4082
유감	9663
의장	5133
해로운	25783
상단	13870
미역	15200
뚝딱	21714
쏘아	27818
위기감	16282
두텁	26665
편지	5318
제어	9430
거쳤	14942
박성현	25448
과학자	8446
중금속	22359
억지	8821
이베이	28481
[unused137]	31637
몸집	15938
조타	30560
##어	2051
맥	1051
오로지	8746
어민	15096
고증	24935
증후군	11760
잠정	10808
##마침	19393
종류	5285
##사자	5638
매스컴	24118
기가	29396
아니야	16733
복병	26100
##라이즈	26266
에도	12971
노조원	17209
나토	23827
카운	10309
랜드마크	15297
케이스	8726
##로운	6408
발송	11786
보호	4216
찻잔	24392
망하	15318
바람직	6501
지나가	7129
##레오	22691
하영	23694
이분법	20252
연화	22973
##썹	3128
1914	23648
비행기	7046
해져야	29615
웨일	28327
베스	21710
칭하	20123
관계	3654
##거리	4015
청천	27215
##ford	22094
극심	10045
##폄	3499
목숨	6132
베르크	29403
재판	4503
능률	17475
실력파	30516
홈	1930
작인	26200
상차림	29186
인위	12623
준비	3864
가마	11084
아니하	10983
영접	27213
무례	18852
호미	26780
##갈	2577
징역	7300
양승태	26057
리프	17162
치료제	10842
남궁	18971
##에어	20446
매끄러운	30089
##분자	25354
다녀	5706
##덜	2813
안중	14746
갈기	27274
##부분	12547
헤매	12600
##켄	3303
관상	15846
##pt	21760
법전	27211
프랑스	4510
통속	28090
호반	19803
SN	25817
리스크	8397
정산	11923
에르	13746
르노삼성	14631
비합	27508
친한	13268
극우	15233
232	25338
##어먹	11951
業	399
돌아와	8200
빛내	26326
현금	5797
주춤	12120
How	25567
초심	19800
초토	28353
분대	22731
##떨	3016
이기	5576
CH	23747
서영	17223
살렸	19437
자부	8299
잖아	4351
셔틀버스	23918
##나리	13330
란	944
부잣집	24184
##별	2439
##한다	4538
시달리	8994
상류층	24791
可	276
중전	19403
##져서	7787
니코	24645
이유식	20521
현영	27286
##텨	3104
##컷	3343
평원	21983
신협	22069
버버리	31482
실천	4980
높인다	20275
문헌	10788
모욕	11742
##ult	12577
심플	14195
리바	13005
기종	16015
할머니	5256
##덩어리	21332
떠서	21481
스테로이드	30725
비대칭	21742
뻣뻣	23606
탄수화물	17959
임대인	27301
스미스	14570
감사원장	30408
간부	6601
급작	27821
빈티지	22962
죽이	6810
올바른	7732
단층	19783
기본기	27809
수록	7851
장난	6529
인플	13829
엄중	13120
모면	23612
설경	28087
우체국	14532
피부과	18610
인건비	9961
트라	12270
미역국	25741
[unused268]	31768
송곳	26321
돋우	24371
[unused101]	31601
계곡	8858
간장	10110
카운티	25358
##99	19748
매개체	24876
##아산	27895
객원	29998
내려놓	9572
반가운	14960
##렇게	7633
끊임없이	6542
CNS	30433
##갓집	28574
독점	7839
쓰러질	29560
써도	19048
휘날리	27487
천적	29637
드립니다	9334
환경부	8265
신상품	18402
##어도	6186
난다고	23695
두고두고	24455
장비	5424
이승우	28692
사리	11955
효율	4955
·	100
은메달	14576
통기	23693
직업훈련	28575
개회	18232
으리라	8778
##식당	28487
등등	9681
퍼졌	15963
혁신	4428
알선	15570
급히	10815
무의식	17942
##냠	3370
군량	29176
손목시계	31039
히트	9327
밤낮	16601
##익스피어	18078
1933	20998
사이렌	31054
162	16535
갈치	19123
284	31287
Fed	23428
아부지	26218
소운	31334
취한	10783
지지자	11006
고파	19585
문란	22853
초롱	30852
홍길동	23581
##말	2231
옮기	7590
콜라	8525
판독	24050
술	1299
우빈	22600
네트	5237
제주항공	21389
배석	23549
DMB	22411
850	20467
단념	26969
##즌	3179
눈가	17161
대강	6669
사르	18880
##영	2122
이봐	18266
부디	16321
곧장	12720
실재	11209
모노	17005
##묵	2692
설정	5247
향수	9776
송시	25865
온정	25829
집행부	13414
##덫	3546
향서	26794
소린	28596
터뜨려	29562
##자락	14525
##ig	6037
##듬	2908
방공	26361
기꺼이	11985
부족	4245
##발력	24796
루카	30129
남겨	6962
어우러져	15198
중개사	19971
소자	19284
##24	21608
막무가내	23286
예우	19830
##종합	27854
##궈	3098
퇴직자	22257
리니지	25305
맥도	15180
세상	3991
라	942
판매	3899
깔려	11495
공여	24066
구인	13117
데카	18612
달라졌	10174
피력	13173
서류	6033
교육장	17927
다는	3615
연애	7738
성적	4610
국	616
##댄	3103
차근차근	16276
소탕	28161
수공	23601
김효	14921
그림	4238
개편	5780
不	1975
교통부	9868
대흥	28394
일억	28463
##어음	26701
유키	23118
##꼭지	24572
최대한	5939
##린다는	13599
##마른	20104
##ook	10069
독감	15973
[unused445]	31945
습니까	4444
믿음	6970
모니터	7438
주니어	14577
여라	21043
##ick	13966
기울여	9983
압구	15369
블	1186
출연료	25093
일련	10219
##로그	7155
ab	19086
거침	12634
の	180
##인구	22138
못난	20622
원칙	4767
미처	11200
중국식	30953
흔치	21687
김치찌개	23358
포천시	28440
##□	3155
##월드	12655
스케일	20247
##동맥	28726
낼	734
화웨이	21157
추수	22076
무척	7065
해악	31299
[unused223]	31723
읽	1508
결정	3794
레벨	12217
빠지	5893
진심	7254
##유리	22910
한편	3995
##사업	9841
사신	12080
단일팀	24303
총애	28666
레버	22177
##est	8119
##가드	23736
관람객	8369
##취	2586
벗기	20178
전자파	22283
##텍스	15221
##에이징	29035
경남	4528
과소평가	29455
한마음	29559
연해주	30470
희극	19813
놓아주	30509
사업	3639
위하	5418
신약	10292
중소형	10857
어금니	30159
부당	6475
보사	25261
##마	2057
칵	1698
##BI	18009
아이구	21681
적대	10580
엑	1422
독자	5086
##U	2309
담담	14684
성공회	24945
##oman	29940
파이브	30557
1980	6643
로워	12798
리딩	20908
Society	27944
콜럼	24497
{	94
특별법	9063
올라섰	15167
##집	2027
##퀄	3395
별명	10348
발맞	18680
[unused16]	31516
파운드	11139
나빠졌	27317
[unused157]	31657
시진	11732
부드러워	21853
##렌토	31081
폭등	25164
특별시	24922
언론계	26011
밤새	11850
비주	16819
공전	23949
가리켰	19702
[unused3]	31503
방음	30222
스트리	21560
앵무새	28572
눈물	4998
놨	775
급여	7014
속성	9142
Bar	19170
숙인	23916
내렸	5740
##워크	5344
바겐	21036
al	13532
##싸움	10957
##왓	2969
우승	4564
동부	6369
김준	11195
절도	16927
을수록	10179
사역	15006
벅	1140
움직이	5375
멸치	15715
박사	5155
유치장	30624
시찰	21285
올려야	21929
퀘스트	29780
서연	25993
꼼	679
코코넛	22746
채	1643
산업재	28708
대야	27883
끗	709
네	752
찰스	14340
형벌	15755
지팡이	18534
업	1414
텅	1784
스카	7311
계획	3716
IBM	15738
운영	3792
섰	1267
꾸며진	28693
##릅니다	9260
나설	7153
##엇	2330
##봐야	9766
필연	10210
아르바이트	10674
양복	13930
불로	17971
일침	27671
어린이날	29939
동자	17610
만족	4671
##러브	21804
현명	9283
만세	12415
기세	9945
실존	11514
사납	24853
정진	11426
this	25419
[unused89]	31589
이상득	26535
등불	21606
that	16845
##if	9066
마는	17225
승부조작	22294
눈여겨보	28026
예방법	29806
얀	1398
손상	7465
둘러싸여	19482
##탐	2735
희석	20994
찌푸렸	26028
한다거나	20183
상견	29055
되찾	8038
집들이	19132
구한다	28613
##30	7556
코리안	19016
회복	4585
PK	17546
접대	12761
맺힌	27439
아십니까	27470
[unused25]	31525
킷	1759
체험학습	22848
→	130
AT	13219
카메라	5677
센텀	19061
##워	2667
##빙	2604
FT	19505
Journal	18141
At	31229
운임	13800
모서리	22482
petstagram	31231
어지러운	30447
상처	5456
Up	30274
행인	20339
##듀	3076
잃어버	8980
OCI	26091
580	26083
그리스도교	16292
찍히	27485
장교	10620
국정	4567
물	1093
스스	23956
##러진다	22215
원리금	19450
북상	25848
연구개발	30908
##퍼	2712
황선	28209
웨딩	11925
브뤼셀	30094
##사상	14569
##세기	14223
##촛	3338
홀대	26110
이리하여	23113
우대금리	27010
캐머	29814
M	49
베어스	26198
붙들	13840
##노총	13938
톤	1795
교대	10738
사각	9762
잇몸	18342
강해	9400
##미르	19064
잿빛	25818
접근성	10704
타이밍	12316
반드시	4645
뒤엎	24313
뒤편	16244
강연	6866
문호	23635
은연	29829
어학	12223
고창	19472
##픈	2649
청문	6824
경축	24573
##al	4065
손바닥	10578
텍스	11301
節	462
탈핵	30135
여린	29383
따낸	21543
진에어	23995
원망	10995
##들레	18491
음주운전	14961
교두	21453
에로	18202
따끈	24617
심장	6036
##토록	8332
##짓기	28454
누가	4869
트레이너	22511
한다면	4560
가까이	5323
산화	17778
조인성	25086
블레이드	23467
구워	10564
엣지	21204
##적으로	11187
수명	9038
명	1076
상하	6610
안타까	7648
행복	4202
실습	10256
도매	11978
##라지	14406
연면적	14533
싼타페	28200
Peter	31113
누진	21432
##깨	2844
SS	11513
정서	6520
일으킨	9140
분지	30081
룩	1003
한구석	23192
임관	30306
근사	17063
지방채	26044
컬렉션	12633
냇	737
로운	5048
손쉽	10562
유공자	14335
ㆍ재	23787
창녀	24048
차돌	27024
인력	4862
잇따	6313
성종	21186
동의	5187
최종	4679
일화	12835
##놔	3359
운전기사	18127
은데	4712
유학자	27266
배고	10474
리얼리즘	17579
소급	20358
##불퉁	27499
담대	31013
전폭	16735
[unused163]	31663
법률가	30481
堂	300
이민자	15585
Rec	26428
오성	20955
한미	7608
크리	10869
도난	19032
대여	10394
##쯤	3353
골치	19031
빨아들	22252
그것	3724
신형	15920
서약	19615
와이번스	30663
kW	24350
안타깝	8863
중반	7319
해졌	5568
##나와	13199
스트라	16625
의지	4659
엉덩이	10194
부끄럽	12930
포털	8279
원희룡	27855
제갈	14730
전망	4016
범행	8196
강점	7201
음원	11594
가용	24181
혼전	26452
##잘것	27750
납세	21977
커져	14705
##운동	7796
블라우스	21300
귀띔	16784
몰라서	16030
관광	4066
시몬	21831
최창	30120
당신	3994
탁	1762
ㅣ	198
드린다	9890
##티모어	26617
대체로	7663
위상	7686
서글	19955
가파른	15941
##데오	28330
틸	1822
경로	8069
당혹감	29745
##떳	3521
부리	7876
##터카	17476
평촌	23437
##메스	23633
군정	17898
울부	18161
죽일	15270
유역	15521
UAE	14966
아물	29429
명쾌	18749
거인	16907
유네스코	13004
##gram	18173
몰릴	23806
RC	26769
바위	7076
성령	10643
고등	5003
##탄	2554
기대치	20198
띈	938
참기름	18325
미안	6148
즐거운	7924
돌멩이	21737
유입	7445
##크리트	12794
겼	590
종주	21019
심의	6285
탄성	16674
##프리	11845
##ues	31322
1974	13298
는다는	5278
[unused498]	31998
Park	31040
랐	949
매니	7532
머무	9181
##쫀	2566
속수무책	22614
김재철	23215
능선	16333
##진보당	11564
꼬마	12088
툼	1805
합병증	17634
명태	22828
재료	5600
動	265
운운	16496
Management	24749
##박사	27797
[unused372]	31872
천마	20135
##ism	10769
##25	19364
##ffee	25240
패치	21680
바란다	6006
산천	20423
##챘	3509
짐승	10778
가천	23964
노바	31212
덤핑	29171
애타	24205
마찬	4593
살까	31398
수정	5413
투자	3703
로비	8637
365	14713
으려고	7205
##페인	5041
곁들여	16645
##체인	18255
티스	21594
혼잣말	22761
You	20545
뇌혈관	27501
훈제	28867
##리그	17665
##ym	21429
##로로	26019
오스	15331
택배	9678
배서	28925
으뜸	16466
로봇	6442
기원전	11561
굽히	17870
[unused121]	31621
##매매	11305
則	262
성수기	16181
메이커	13899
=	33
##체육	16356
재계	9533
달라요	23845
다락	22035
임할	29335
백두	11566
대	823
기소	5927
지저분	18234
쓸모없	23672
광범	9347
##레미	28562
[unused288]	31788
배우	4165
##동산	20277
오징어	12009
맴돌	17079
지역주의	20226
##훔	3345
흥원	10034
회사	3769
흡입	13978
b	69
프리미어	12416
노량	22509
체중	9232
##저럭	23256
나갈	5181
대북	6308
사이드	12490
##괄	2962
졸업	4934
동화책	24045
막힐	25114
이원	10094
연지	24949
시종일관	21988
선구	16150
고층	18093
고난도	26619
下	217
딥	893
시급히	26756
구해	9933
대변	5249
용서	7624
발끈	24241
하교	31042
일환	8596
델타	26403
무허가	26128
De	13954
산소	9126
목적	4300
잔금	20553
들으	12684
누설	23527
승상	28377
##a	2011
통학	16010
말다툼	26009
2016	5217
다큐멘터리	11194
맡겼	15772
갈비찜	30230
가을	5272
당했	6220
##여겨	12522
환갑	27283
도입	4334
스니커	30585
밧	1128
par	19604
제작비	15608
대손	25035
옷	1451
거느	21713
물려받	15115
물체	11014
안산	8609
증여	9751
평택	7812
요긴	30240
췌장	21254
미인	12621
공탁	20924
아로마	24117
고강	18640
호실	24952
종로	8854
과장	5353
집중력	10742
괴테	21310
로드맵	14747
확연히	16843
불미	29375
정석	17904
장내	17796
##타오	21755
##tics	17910
넷째	10608
김구	14230
드물	8992
출연진	19000
석가	18791
예예예	20911
아역	25849
마이어	26768
나트륨	19673
할지라도	11568
##뿔	3306
㎢	209
니당	22710
투표율	26104
엽서	21139
번뇌	28342
웃긴	27303
화백	15501
부화	26536
호평	11312
초속	29977
MVP	13539
맛있	4550
경상도	16251
한림	17711
비염	20445
리허	22983
미혼	13527
신분증	17832
##림	2323
시켜야	8701
획정	16363
충원	17142
##apan	25296
꽤	687
시야	10489
풀코스	31409
챙	1649
급행	26606
##X	2312
신화	6089
에베	24970
기업	3646
자가용	21834
소영	26678
010	25520
성토	19620
광역시	12056
열리	4834
##쇄	2518
통감	21960
증권사	7685
데이비스	23238
인권	5188
[unused72]	31572
광해군	20240
##직	2084
어울린다	21364
시우	30110
촉각	15329
구타	19584
존재감	13340
청량	13743
앞부분	25082
공청	12672
반가워	28542
색깔	7177
선적	19171
圖	294
획단	23380
##픔	2914
료	1000
1965	15140
##녕	2926
겨자	22226
[unused389]	31889
공복	21994
##렁크	20121
어려워질	26060
한국개발	25237
전세	6127
민간단체	21096
눈뜨	27801
부담감	15004
담아냈	27939
쓴	1365
81	7561
혁	1918
##틀	2362
보이	3783
대구경북	11400
비오	20580
양반	9527
류현진	8659
응방	30746
##조합	6398
물리학	13687
원전	5731
내려지	23772
건다	28465
##찢	3537
페인	22790
##링크	23291
중장	15093
자석	20095
잡아가	22888
미끄러져	26280
##란트	14359
수분	7349
투숙	22778
##젠	2146
한성	16024
백자	27557
차릴	29292
석사	11427
OO	27326
[unused369]	31869
원천	7848
UCC	27236
두꺼	11121
차라리	7990
정겨운	30236
복리	16347
소매점	28518
포토	11255
##휴가	19605
##res	24757
치러진	16602
회담	4823
##깡	3127
탄핵	7224
황후	17382
등급	5000
벅차	26712
가비	27573
보여	3897
식이	13049
분열	7724
유성구	24057
의약품	9642
콧	1732
상급자	31003
이래	5625
숙박	8134
끊	705
업자	8927
##묶	3559
둘러봤	29260
傳	242
소기업	29927
##암	2562
##스틱	12510
세워진	15550
폐단	23333
탁월	8040
인허가	16805
방출	13542
##쇠	2143
신인	7585
##봉	2126
제조사	13333
이뤄지면	26654
아늑	21309
북항	23889
분간	24929
서스	28170
위쪽	14926
친숙	13184
넣	751
유랑	24810
아첨	29853
외교통	18042
미스트	14573
샤브샤브	26594
숙취	24245
체증	20347
##스포츠	30000
조화	6450
非	531
무거웠	29621
거액	11957
버렸	5049
삭제	9214
궁녀	23429
사용료	16440
담수	22156
적자	6371
NGO	16698
##렇	2974
결의문	26350
문화전	31300
◈	155
쩔	1608
최다	8587
패널	9264
공부방	21895
방침	4691
포스코건설	16761
지닐	30176
[unused386]	31886
들여놓	20074
남정	30721
志	352
##줄	2776
속하	8770
##슷	3130
놀림	27036
##ese	21173
조모	29053
##도리	16658
태아	14864
##에이티브	24052
21	4041
준설	19769
따스	16073
슈팅	12650
용맹	20620
[unused231]	31731
앞당	10825
몇몇	7396
자격증	9150
동그	15563
박기	15703
소강	29089
##닥	2646
##ce	6259
로맨스	12752
##어마	13677
영원히	8868
##h	2054
봉하	19878
저온	24590
##세요	5971
쓰러져	14077
고원	19826
편집자	15966
진찰	21555
194	5642
숨져	29835
늉	790
쌀값	26885
계장	18587
구라	26616
行	482
석탑	24756
추신수	11329
부모	4267
##ence	9963
장마	11477
##ere	16387
서서	8028
탄	1763
귀신	9979
레슨	20920
앞둔	7447
탄소	7618
301	24910
325	29691
잡힌	12277
발걸음	10103
물동	17614
##카스	19105
물밑	30443
##징금	10867
야성	29533
벌어들이	30201
끌어들	9636
##ating	24047
백색	21971
피식	21120
##시위	28301
박영선	19845
틀어박	29411
태그	16044
##뻐	3140
약사	14901
부경	25654
바자회	29535
영문학	29872
##천시	7416
반바지	26374
메이크업	8016
민영화	12002
주희	20062
불면증	22439
낙엽	16622
코피	27270
실시	4130
읍성	26021
##정원	22125
눈부신	15694
선방	19516
닭	815
##57	26580
##컬레이터	30741
싱어	20151
긍정	5128
유채	20803
[unused292]	31792
두드려	20976
##viron	29579
[unused33]	31533
복음	9409
##팩트	15449
강압	17804
들으면	9931
압구정	18985
일러스트	22368
SW	12604
자산관리	15598
##ruct	27000
흡	1964
만족감	17343
500	4667
명도	31234
유격수	18132
헌재	10316
외벽	20132
대학원생	24354
㎡	208
마쳐	30896
퇴각	28765
마르코	28423
미켈란	31175
어벤	23228
으리라는	18150
화신	21373
##문	2346
##sh	12876
분수령	25131
쿵	1742
뭘	1099
자동차	4102
##ｔ	3400
솜씨	10820
##시즘	14589
주량	29511
호	1926
풍속	12900
뱃	1136
가져오	9460
껑	672
중학교	6222
이마트	7779
동두천시	29397
충칭	24550
절반	5335
사문	26399
조던	29124
정미	20100
케	1719
사거리	12850
가망	27908
달리	4214
재산세	21013
院	526
##동강	8328
금강산	11120
망원경	16916
공실	24885
전기금	22720
우렁	23227
죽	1565
소지품	29908
유년	16636
와이프	24271
박경	13540
예요	4302
끝날	12638
##대왕	26909
##니시	26269
임시회	17549
어려울	7426
리스	10021
불합	24560
상용차	31474
재검	15090
작업	4180
비노	25815
세울	13391
질려	22092
##틸	3043
KTX	9905
소련	7659
축적	8460
법치	17468
우루	16868
진지	7060
선한	18623
신승	26485
라돈	28268
이전	4176
관장	8645
[unused275]	31775
비껴	30919
##방송	12821
##같	2246
소명	12224
영덕	15399
다이오드	20616
딱딱	10579
##팔트	22513
얘길	13524
혹평	26253
##섞	3213
##yl	26342
천억	7991
방심	19818
성취감	22495
반세기	20629
퇴	1800
게이머	30040
##멩	3281
원내	5325
미끄러지	21371
어서다	16681
아디	22340
티브이	24143
날아갈	26979
기운	6909
청과	28961
대주교	30272
시경	20631
씬	1372
예컨대	8283
진료비	18372
##고사	10689
재임	12658
오상	30126
맞붙	12949
번쩍	11640
판문	13451
섭	1265
중거리	24561
Camb	26261
가시	6571
##ana	31222
트친	27468
##н	2452
안정	4262
석방	12353
시럽	24004
뒤로하	31100
전자레인지	25318
덕담	26492
관능	25791
실용주의	30366
##학습	21468
접근	4872
흐른	16793
디	887
##쪄	3036
넥슨	14859
##마드	25583
뜻밖에	19184
식사	5067
##쪽	3020
드라마틱	26897
이스	6209
영농	15668
##☞	3406
비해	4357
주거지	17954
축물	19973
따질	24023
릭	1029
세요	4164
마음씨	28644
발제	20379
피조물	23247
압박	5952
평안	14066
틀린	13107
특사	12536
보합	23502
고가	9720
##머리	6536
조성	4196
명성	7749
공모	5637
경락	26751
타수	11229
處	481
신다고	19799
프로세스	11142
더디	20907
가져야	10538
수월	12322
##스레	8243
박탈감	30053
##갸	2989
사회학	13062
[unused347]	31847
여력	12770
가속	7717
노보	29910
㎥	210
##댐	2342
김중	21711
중국어	11757
통찰	11526
가꿔	22975
원주	7216
가리	5246
경실	21113
##끼	2274
사고방식	14395
ℓ	125
밀도	13864
영양사	27958
배고픈	26061
줄리아	26828
무화	23844
##퀴	2644
횟수	9665
마블	17786
정유	9530
작목	28603
##en	3988
연암	24903
노동청	25971
디스플레이	7474
냉소	17486
오른다	12075
그라운드	12332
맞춘다	25787
론가	19693
초입	25675
##디션	7332
##맛	2733
##yle	22543
지령	24859
예식	19253
##RT	19662
전성시대	28555
am	21401
헤엄치	30350
##eg	8230
고립	11072
황정	18857
진두지휘	25339
이석기	22127
다양	3757
##스피어	18068
쾌적	10208
[unused323]	31823
言	492
##느리	8285
송시열	29273
하물	21047
남대문	20675
엄연	24744
어벤져	25069
[unused471]	31971
낙후	14394
##조사	12933
불편	5153
아키	15244
묘미	23556
협조	6585
선보인다	8007
##레이크	10418
기관	3860
돌출	17136
비철	19597
바느질	24406
고아원	26230
크레	12774
Fran	17661
참고	6108
발매	9630
산업	3751
겸비	16329
혼내	28253
로움	11434
선율	16760
급락	10540
제네	11728
쥬얼	22793
내려	4105
농기계	24086
[unused180]	31680
노라	11089
변변	23576
사생	23831
##삐	2982
##경	2382
만장일치	19512
##음사	27816
운영비	13976
단단	8129
##돋	3151
가까운	5376
천연가스	17905
알리바바	23379
나라	3779
먹거리	9542
입구	7036
심정	7878
무림	15812
순종	16105
억눌	25216
절친	17785
報	301
발신	21612
서울특별시	30500
##팠	3411
서당	24034
취수	20666
필리	7820
FIFA	13027
서비스	3838
그레이	11048
아아	9702
물든	25489
프로모	10806
於	376
어딘지	19837
불자	30646
안티에이징	29039
셔	1276
시의	25312
당분간	8349
봉제	26453
윙	1489
We	18156
태양열	26932
세무	8845
主	221
경인	11405
185	12360
실험실	16841
유골	19843
낚싯	24296
오심	30214
##포로	26161
적	1536
##뿌	2687
치닫	16100
힘드	18941
파벌	25794
눌려	28393
##으	2279
윤곽	13061
살인	6255
98	7456
멸망	12112
레포츠	23519
동력	6784
나들이	16578
올라가	5624
물길	21207
##금	2157
##un	5830
어렴풋이	25717
한국	3629
가진다	12676
지민	26315
##붉	3392
김범	16468
엄연히	22510
수술실	30911
짓	1590
##쥬	3094
선동	11662
러서	23359
정순	25690
獨	428
##RS	19926
출신	4327
심야	14767
거미줄	24083
북측	10023
##75	19918
예술품	29135
상속	8548
주당	12881
헤르	15631
비례대표제	30092
##FA	9294
초라	13857
##매장	22414
홈즈	18180
사찰	8220
옐로우	29221
집권	6952
전셋값	20272
##폐합	17281
군기	27467
##놨	3018
최하위	22059
##쐐	3344
그러면은	15298
Sp	11480
옮긴다	30991
시간	3641
##투	2310
##퍼니	13775
역임	10335
박시	22186
스테인리스	21590
빨	1199
사회주의	7486
242	29166
사포	27774
서해	8132
교권	24750
##튕	3518
무수	11704
[unused115]	31615
확립	8462
[unused182]	31682
V	58
살림	9045
기록부	21197
연준	15628
구직자	14732
예년	12982
전구	21292
七	214
공통점	10414
더욱이	8147
커튼	15098
네오	17155
통통	17670
네놈	19240
이뤘	10531
차림	10111
##농사	25220
모나코	26431
거래처	16724
방방	28293
일깨워	18236
활발히	13821
헬리	22849
금하	26636
##꺼	2679
강소	17021
외무	14774
넓히	11673
##f	2009
하도	9055
찬찬히	22348
심사숙고	29376
김보	17264
비만	13398
운송인	30602
##서야	15469
추웠	29584
단합	18846
어렴풋	21638
결전	27757
본드	21888
빈	1189
화염	19751
정수	7508
오만	10404
##스트럭처	26955
토양	11804
출발점	12824
정복	9898
레이팅	29314
인수위	16888
빗	1192
말린	18025
15	3749
결사	16884
정성껏	22827
호명	27105
너도	27166
생방송	28814
추악	27295
선별	11168
##렉스	8965
수군	15560
판교	11413
성곽	22364
150	6082
경기장	6829
양육비	28217
도움	4144
천연	6707
회의	4011
용납	12518
##누	2416
TPP	23080
머물렀	10836
송전	13831
걸렸	7591
사옥	12458
깔	657
밀림	27287
끝	711
아리랑	12197
날아다니	24317
달린	9285
남아프리카	18057
##잊	3491
국립	5327
경종	25109
##낄	3146
##운데	3832
드루	16854
##지먼트	18898
천장	9988
민첩	21692
1970	7500
대미	16694
런닝맨	28190
밸브	22843
##어난	4195
1969	14879
대위	13278
아몬드	21616
[unused442]	31942
##ko	27411
사용량	13987
유예	11422
리사	30559
구슬땀	28473
모은	8076
문화예술	17318
달팽이	22286
슈틸	20286
박정	6580
피아노	8834
디바이스	23032
##ission	23046
영상물	21758
혜진	28720
놀	769
둘러본	26488
구리	9822
광야	29156
잇따랐	25350
병기	19731
##수리	13020
근황	26437
최적	7592
고위	5925
뺀	1204
변해	10557
걱정거리	29665
##러져	8135
君	283
경포	26388
무거	12746
##OC	8952
수경	25664
대물림	29770
##염	2278
##튜	2794
비쳐	20407
또한	3819
긴축	15702
영구	10296
불화	15230
백수	19277
파크	6534
국민체육진흥공단	30415
달려와	24877
투덜	18444
증정	8896
##mann	25068
목판	29480
해제	7598
##니	2209
해답	11932
교만	23720
##땐	2355
리먼	28139
[unused392]	31892
간암	21741
##달콤	31484
요미우리	20289
VOD	25070
최단	28855
197	4626
주자학	29450
다쳤	16898
오랑	20546
##fer	19612
門	521
외지인	28119
밝힐	13594
석학	16590
##수도	22757
國	293
요셉	24209
맞췄	14115
강남구	9549
레오	11890
전문직	16870
##샤오	23157
Science	26548
생계	8471
일단락	27230
수탈	24149
바삭	15218
과반수	17641
실무	6488
불운	20725
##림픽	22669
골	598
읽히	23303
한적	19243
거시	13410
##각각	25304
Je	22958
이청	14289
줘	1571
力	264
멸	1074
놀이터	12692
사수	17111
유찰	27997
브라우저	29045
순수	6077
덩어리	11328
몰려드	30044
##병대	11228
괴산	25859
든	880
##꾸러기	27829
##방	2239
직구	12241
위촉	14781
[unused62]	31562
##극	2216
마취	15736
케이프	26108
##네임	29270
와서	5241
bl	16470
타사	24174
무사	7260
브레이	26094
뱅킹	16132
뇌출혈	29131
##슈	2601
문제점	6178
나주	11666
무작	11869
##병	2394
걸요	20181
삼위	25418
경매	6890
베타	19139
660	24964
하차	15921
착잡	27767
그걸	5406
전광	15868
수요일	12888
##ver	7521
지난주	8794
헝	1911
##해서	6396
말미	11152
금고	12705
순탄	20476
응찰	31230
##공항	10654
줄였	12800
1972	13618
태자	14366
개회식	25190
원제	29172
카프	18717
조식	19525
들깨	29915
비친	17913
설	1263
145	14383
팝업	23064
기사단	23328
황희	25400
예문	24144
근소	27465
로스앤젤레스	17361
[unused52]	31552
거름	26154
유니온	26324
설파	26705
극소	19246
교실	6581
벌어질	13671
가련	29662
方	375
스쳐	13993
일차	14083
아재	26567
폭로	10445
리베이트	20904
일본식	20355
표하	27691
관악구	27325
꿨	698
리카	21677
수도권	20134
750	15453
결론	5431
반덤핑	23377
想	357
##퇴근	11712
마모	25723
첸	1659
주한	8686
벌거벗	25375
터진	13441
##딕	3004
유부	19927
강령	15997
귀한	11893
원본	15548
간질	23670
##저가	23499
돼서	7690
##ubl	27297
특별상	29304
아냐	8457
겁먹	27494
##찾	2688
##빴	3473
북부	7641
기둥	9856
공신력	29975
Z	62
내던지	31264
실용	8127
난감	14350
물품	7953
외제	23593
##존	2869
챘	1648
역주	19354
카메	22087
트래	13605
남발	19894
국세	7979
##은이	6176
##리시	14996
뜰	934
##▶	3086
박원순	11278
워킹	11791
##ollow	13290
넘겨	7651
이러	3839
[unused293]	31793
##댈	3115
했으며	4800
서도	21245
아쉬	5835
##썬	3495
##동원	12248
##스토	6806
유람선	20880
아하	9493
구부	14368
뒤통수	19228
해져서	16568
##for	10595
현판	21811
美	466
깎	655
≫	134
##즐	3002
마하	21357
왕세자	22001
경쟁자	11263
미분	10747
연타	31018
黨	541
물러	5724
장례식	11758
아저씨	6839
당선자	9540
싸여	27509
성빈	28351
볶음	10498
시사점	24496
보신	29452
[unused313]	31813
전지훈련	17525
불가피	6678
스콧	19884
##os	6351
##불이	20152
##카와	22676
가이	18608
길드	19633
##낫	2458
출생	9119
##ical	12227
부양	8823
닛	807
모차	17140
보드	11569
##퉁이	14251
##음료	20731
이럴	7788
셔요	26743
오를	8850
##ong	9971
감탄	10053
탤런트	17627
마칠	19255
별미	21621
온난화	29627
이리	7026
심포니	29015
광채	21125
입혀	18601
제외	4656
인제	4430
合	279
무실점	16262
내신	9845
대포	12423
메드	22660
놀란	9920
말기	12524
라오스	18389
박주영	13580
질소	19200
신원	12728
방제	20166
편협	24528
강판	14990
재협상	18022
어스	13788
인명	11107
스카우트	18500
##코트	23152
감촉	25814
그만둬	31395
##팬	2999
##강	2280
면모	10986
트렌드	7454
신경전	16425
물고기	8747
플라스	9815
##펫	3222
비씨	18219
몰랐	5885
요원	7951
##맷	3187
전분	30489
##테리아	19606
활로	21887
컨디션	10793
노린	17753
발탁	10603
증액	13127
타일	19499
통계청	11637
갖춰진	28016
임용	11401
스타일링	10940
적군	19831
교착	27843
선하	21603
##엣	3464
맹목	18919
양키스	21475
오간	27889
PH	29573
92	8049
걸림	11219
판결	5253
An	10028
중생	16702
식도	21544
안녕	5891
피크	13467
##드라마	16460
교과	4923
끈다	10038
순두부	29302
자민	14804
만일	6412
죽였	13644
미화	19842
물량	5760
프란치	21866
잉어	29427
##et	4714
입출금	27811
무선	8000
여타	14965
려고	4086
오명	24509
2013	4910
동맹	7240
구도심	22724
솟아오르	29251
워런	26460
댈	826
기성	9036
풀려나	31166
밸런스	15713
왕립	28490
나미	17417
면죄부	25206
##니까	3707
234	28643
##━	3541
##켓	2928
끌어올린	27185
일찍이	12168
확	1934
##나다	6844
소리	3856
학당	27561
걸어왔	22466
억제	7546
##망	2087
갑니다	13222
지긋지긋	26184
극치	25992
답변	6272
셔츠	10727
궂	625
Cre	28794
새빨	28863
##지원	17138
따돌림	25813
경량	16017
보수주의	25880
거제	10561
##짬	3451
전주	6868
여비	27781
##떻	2888
193	6026
건의안	29988
호구	28259
든다면	30764
믿기	20218
써니	24200
exp	30049
청탁	10100
응원	6504
산간	24028
추상	9348
다정	12346
브런치	18766
망상	19580
##정동	13595
실마리	15993
리브	25622
엄청	4794
기를	26055
점검	5304
출퇴근	12138
미러	18906
서평	25311
한인	11063
##쇼핑	27748
##gl	19848
잊어버	10829
유병	13725
연맹	6990
틱	1820
내기	13911
Ⅱ	127
하승	24806
웍	1477
장대	15183
정벌	20028
미진	21730
임신	7452
초록	10467
방카	28860
올라갈	12521
팽팽	11350
살펴본	14330
헌터	29613
삼성생명	18513
마련	3905
##위원	8956
떠다니	26109
롬	995
##슬러	9758
##ect	11062
미생	12059
파나소닉	29032
소요	7372
親	489
후송	30066
##oun	12165
任	233
긁	640
##ct	11453
폄하	23195
##orts	30798
##든	2778
지점	5530
가벼	7180
화이팅	21121
공평	12542
제자	6906
연석	18783
상조	25361
야구단	26687
2008	4898
연거푸	27273
##랑드	29202
코인	23463
금오	23236
수식	13622
윤재	26250
미모	14491
가점	23389
놀라움	17709
문사	22712
섯	1266
인지라	19538
중추	14290
찬송	22987
강풍	21078
진가	22243
초딩	28883
평화통일	19687
매서운	24230
끌려가	15925
Economic	30720
짙	1593
##LL	13275
##팰	3418
이메일	9729
이뤄지기	26609
論	498
Communication	30803
##빗	2978
섬진	19883
##무늬	16531
만든	4260
##j	2308
양도	8931
다루	5778
##목	2612
사활	20484
##화점	5101
앱	1394
래미안	18588
목전	29245
니콜라	30152
아시안	8241
마주치	14568
##년기	21826
밉	1112
부려	21130
들어선다	14222
열	1432
전매	17763
특징	4816
재배치	27973
사선	26716
모아	5302
##수아	15766
실로	11894
국무총리	8605
경보	11379
청소년	4857
디스크	10946
항만	8796
처형	13115
평창동	13873
불행히	28113
[unused483]	31983
아플	19051
나로호	25270
팻말	26622
된답니다	28153
GP	26574
자손	14889
아치	19491
OS	11506
타고	11532
마이스터	21026
고고	10281
е	104
지원금	9359
벨기에	13214
##치미	24267
송편	28358
세탁기	12257
클리닉	14653
##O	2185
얼핏	16710
들르	22345
남매	11669
챔피언	6818
얼굴	3977
##담회	6250
충전	7481
##흙	2876
달랐	8580
대졸	14974
다니엘	15046
신랄	25387
장재	23987
사무	4266
뒷걸음	22446
희생	5541
##기사	14036
빼돌린	24890
스토리	6354
지킴	15843
마녀	13881
스프	8498
훌쩍	10513
MMOR	26906
구미	6821
그리	3636
흘러내리	20120
##어보	15882
수감	12762
근저	20811
당장	5261
약재	21199
권태	20039
[unused361]	31861
현상	4375
넥타이	16990
SG	30146
열심히	5021
병든	22148
아휴	25575
##테이	25724
빙하	20688
권역	10753
Rep	18196
GW	24331
##련	2580
##꿨	3492
어딘가	11115
인파	16537
안전벨트	31196
수호	10333
하기야	28173
金	1974
##뛰	3194
사인	8377
크라운	23222
남조선	23891
젖	1544
들어간	6510
툴	1804
é	102
미동	27442
똑같	5218
행장	11087
##감사	27065
지날수록	22124
사투리	16804
세네	26785
광복절	20296
설움	23896
임하	12147
털어	13886
하의	19975
군요	5582
##른다	4280
따내	16461
터빈	29460
書	384
비행	5465
550	17458
##플릭스	23007
신부	6988
빨간색	16364
##키스탄	10744
##mt	30630
교	614
법안	5698
오바	6353
김치냉장고	28450
기말고사	28256
##낸	2754
힙합	13892
웃돌	16494
명암	26482
점유	6184
군침	31119
부서진	29675
self	15367
웃도	18803
수욕장	31367
##PGA	9588
##장	2121
하태	25977
2001	6367
방콕	16774
특약	17605
제원	26311
##als	30670
아쿠아	17771
약했	29424
시향	21656
[unused271]	31771
제법	9717
##뿍	3514
##깥	3105
파고	9197
너희	6928
롭	996
동점	12134
흑흑	20295
둘러싸	7981
산청	18171
신지	11888
박종	10486
Good	25882
보상금	13972
그니	27906
사우스	18815
찢어진	28524
소이	12306
진전	9345
##리포	9899
입시	6792
병역	10239
줘도	21982
너라	27045
따온	28305
박대	22968
##프리카	11544
이세	13511
들어맞	20657
도출	9836
옥죄	29237
관절염	14202
브람	30825
큐	1748
검증	5814
내던	18614
안드레	22748
저래	30621
##츠	2128
카라	11633
으면서	4618
세로	12409
장기	4376
순정	24887
호가	14028
##북면	25486
카톨릭	26371
[unused355]	31855
##금속	14060
의자	6881
평정	15135
학장	18917
생각나	10408
노회찬	21756
체고	25925
##시네마	27717
[unused390]	31890
품격	12661
시민	3857
겨를	22581
제철	10183
김세	14809
집적	22806
##노	2406
국방	5227
나마	10644
집어	18736
명인	19212
##데이	8665
메시아	25143
움푹	29787
고국	17229
인	1506
시흥시	21669
[unused86]	31586
제갈량	22725
콘테스트	25033
##닙	3170
해질	7287
1700	17072
##예	2194
오인	21087
아프가	16740
황교	15192
[unused118]	31618
박주	9941
벌어지	6699
취약	6773
사회생활	18378
대남	19659
특종	28061
변	1155
진학	7193
엇갈리	15906
여배우	12058
제품군	21242
테헤란	26908
일찍	5947
##가지	4314
##업자	10109
입맞춤	29503
충무	15100
공동	3965
나타낼	20078
봤었	28474
##거린다	20703
에쿠스	30986
바라보	4728
얼음	8022
판가	23323
무개	23699
무지	8482
안절부절	27087
환한	17074
권선	20645
난다는	24008
96	7785
휴대폰	7108
김경수	18423
반딧	28630
##얼빈	28915
해체	8033
[unused334]	31834
시킨	4725
소라	21476
시스템	4119
만두	11817
멈출	19639
사회	3647
순교자	27953
GT	16068
부작용	7680
도비	22542
어려워졌	22872
Association	31450
조개	13447
부정행위	30039
훼손	6787
안다고	22307
##박	2042
권오	17184
천연기념물	22474
유세	9812
작품	3967
Tim	28076
배정	8557
중단	4967
김상현	24868
김	648
포스터	11811
미칼	20728
뚱뚱	18226
슘	1314
##물	2266
##의사	12733
##옮	3513
찼	1640
츠	1685
인증	5488
획일	15990
망가진	30888
[unused297]	31797
나른	23884
여느	11934
QM	28607
을까	4018
형체	21514
풍물	20843
상암	28140
者	468
게이트	11105
셰익스피어	18089
##베트	13684
문무	21566
상서	25533
후원회	25692
##꽁	2864
채색	25183
저물	19986
보람	9987
야심	12036
##뱅이	17859
직거래	18024
##먼트	11257
페라	28447
직속	14782
사우	8531
시위대	13723
히어로즈	19317
[unused11]	31511
레이첼	29843
출국	10314
##끊	3410
##DI	9166
이케아	25529
머릿	7816
깨진	21377
피라미	17266
라자	29680
##흐로	22443
공급자	17820
620	29936
전경	10846
역발상	31069
교무	27937
이념	6382
쏟아진	28844
판정	7629
항공기	8434
##쎄	3378
천방	29471
유라	16245
차우	24536
문장	6265
스탬	28547
##OU	28721
여객	8908
별다른	8581
전도	9532
51	5935
York	12639
[unused113]	31613
전래	20065
##포화	30555
탐	1765
검찰	4153
마스카라	29896
대상	3756
세	1269
행적	14630
김영삼	13913
관리사	24576
상당히	5334
도민	7550
자초	15616
피스	13041
쌍꺼풀	26835
[unused486]	31986
##아리	7458
제안	4735
병아리	23302
주호영	30567
투어	5628
조선대	22693
무용수	19947
자꾸	5977
침체기	28535
불공정	12049
인내심	18146
수십억	17413
입금	12793
무예	21323
번영	12290
아쉬워했	29694
##◈	3594
걸리	6179
뭔데	19954
장	1526
수비수	12093
실효	10083
시아버지	25764
##TI	11026
푸르지오	18465
##올라	15055
김인	12307
합참	19376
발산	13458
오열	28057
ㆍ강	29213
자칫	8062
휩싸였	19209
이용	3774
발짝	17624
원활히	24318
053	19904
^	65
##섬유	27377
어이	11683
##예산	18212
후자	11482
톡톡	9645
[unused193]	31693
변방	19587
람	946
##섰	3074
충실하	16963
ㅤ	199
롯	997
위자료	22363
가짜	8711
마귀	28874
코스닥	8704
로직스	23474
[unused135]	31635
부자	5741
사라진	9524
통조림	27630
말랑	27479
189	8284
분별	16592
목사	6633
##시스코	13315
국민대	22541
[unused141]	31641
##변	2447
외부	4993
그친	15080
##젊	3224
재투자	28213
##산리	30531
得	349
캠페인	6590
##은경	28536
단말기	10551
커피숍	18970
Do	26234
무릅	17064
##클랜드	28938
〕	179
##로이	17531
스메	20947
시식	20262
소송	5023
티베트	15636
기전	27822
##가치	12929
에디션	17997
덜덜	28356
손색	15659
뒤졌	22675
미쓰	14907
서려	27133
ㅡㅡ	20687
주례	23369
좌석	9649
##ip	8300
마리	4915
지동원	23998
[unused26]	31526
##니엄	22914
매일	4709
錄	519
1952	19951
상상력	9621
스트리밍	25490
현악	25626
보험	4048
옵티	25199
무심	11852
보증	5666
인피	20133
미궁	30499
돼	857
주차	5447
현우	21296
슭	1320
##무새	23060
넘나들	18916
숲	1305
국도	14288
보일지	28022
##웨이	6733
UR	28902
엔트리	15994
손연재	23692
눈빛	7776
베니	30478
연연	19451
처	1650
라이브	10439
##이터	4521
##거렸	6740
발하	18677
##olog	9966
미공개	31165
굴러	12304
롤링	26276
고기	5257
##찜	3191
대성공	30262
151	15752
이변	18464
튀어나	11023
손꼽힌다	28051
잃	1509
으세요	11154
마찰	11342
입장권	16263
마크	7519
생쥐	24923
모였	12474
창립	8589
고상	19021
ppm	29359
후천	26418
휴전선	31099
왈	1456
정봉	26212
벼랑	15596
ㆍ공	19138
##재	2070
##up	17013
키트	19037
##미사	28053
붙잡혔	19406
개의	20750
##21	21289
發	442
승격	14314
##eph	25225
짝퉁	24177
허리띠	24729
봉합	20138
##뭐	3005
##솥	3263
##쯔	2904
회색	13203
##수단	18434
돌아올	11628
##DP	8469
스티커	15005
안쓰	19816
백일	20801
2700	23451
겁	574
##C	2108
대체	4761
시중	7766
배부	12852
統	464
무시무시	18997
그만뒀	30285
un	15818
공습	18596
세이	10223
귀퉁이	26164
커지	6284
만났	5836
너구리	28722
측량	20366
솔로	9623
자긍심	17541
연거	26568
풀	1872
깻	664
려니	16069
독식	21610
##칵	3351
무덤	8593
##먼지	8031
회사채	13433
##베르트	20054
의인	23497
리터	14524
했으니	10830
독립운동	11387
gr	23246
프라이팬	28903
혼잡	15799
[unused340]	31840
양승	16813
폼페이	17469
##폴리스	22324
중처	29201
웅장	16011
본점	12195
난제	21463
상소	17947
풀뿌리	22616
투입	5113
접시	10721
##기계	19346
보듬	22223
AK	22432
대패	23878
City	27114
가르쳐야	27845
가격	3852
더욱더	12966
##럿	3425
아동	5332
언젠가	7496
시국	13026
신지애	22297
상한선	23733
MOU	10681
선단	29849
척척	24920
남한산성	24185
위해선	9647
한답니다	25107
못지	8240
바친	21083
넘어갈	15955
싶	1335
민들레	24073
두꺼운	14649
##거나	9253
무화과	28369
##고기	5129
제약사	17689
동국	10892
머릿속	8370
##니스탄	15956
막연	12649
꺼내	6139
신태	21585
으신	9081
반납	13085
브리지	20003
##린다고	18672
가계부	29385
놀러	21483
불가리아	29861
장관	4166
요기	17103
##착	2668
연방	7145
굳건히	24201
나쁜	6080
##row	16828
허전	21097
떠	909
[unused409]	31909
윤종신	30540
##가포르	7908
처남	25177
청년회	30083
반전	8984
치장	22060
메기	28326
오락실	30790
커플	8535
상금	7714
인치	9317
백종원	25869
치부	14914
불끈	26560
음절	26207
##치료	27046
##월일	30666
경비원	17418
너스	17346
재판장	16191
travel	25360
패스	9051
미만	6607
월화드라마	26693
군국주의	30868
가정	4369
사나이	10621
사표	13242
무릎	6261
##버거	14426
군데	9289
레오나르도	25091
왕좌	30795
##웬	2842
내걸	9743
최태	15430
##62	26406
원장	4782
##톱	2734
현황	6994
하비	24380
케이블카	15879
아무런	5709
해밀	29019
관절	7559
흩어진	26637
대접	9087
[unused304]	31804
예루살렘	15415
PI	28973
함유량	30995
自	473
뇌리	20961
가려	7937
재테크	10594
저탄	16821
94	8074
실체	8005
영양분	20810
야무지	28118
스웨터	28563
광어	29439
후보자	12149
존경	7534
##욜	3042
세균	10969
왕성	13531
위계	14663
바뀐다	16464
요하	15965
쏠쏠	22218
볕	1159
##국수	9473
책상	7961
딜	891
양도세	15830
더라구	20663
적재	20040
전속	16575
혀	1917
더한	22147
##숭이	11335
##나스	23029
태안군	31203
공시	7380
##킨다	12038
##ual	12757
알라	16734
우의	22713
비키니	24036
중과	28862
하얀	7720
원화	9765
동안	3764
힘내	18332
일문	25006
계열	5096
초코	11486
조중	21339
독과점	23610
뒷골목	28775
조회	10398
중소기업청	16970
챔프	23799
개신교	17985
trans	22877
되새겨	26328
##정지	21392
##텍	2229
원서	12789
송	1288
어쩜	20878
출소	21863
송이	11938
모색	6833
김연아	10154
ㆍ김	17629
##퓨	2934
아인	13180
드신	28981
주중	20997
딱	898
출루	17117
##라미	12614
작별	17812
72	6503
나일	26189
버린	5715
루마니아	25960
太	308
희열	24611
전유물	24968
체감	10761
199	3895
월등	15142
미덕	16949
루나	26598
지나간	13985
##갯짓	29088
켈	1721
CP	13123
二	226
수반	12104
##ㅁ	2802
Ne	21033
화이	25670
향신료	28732
골다공증	24091
생겼	5810
진구	31176
벌어진	8564
수건	14758
밤늦	29163
역행	19357
교과목	23617
할인	4986
초보	10703
달아났	18859
##뀔	3553
##적ㆍ	22901
나르	12279
오토바이	12406
수급	7418
뒷걸음질	26733
정형	12573
채권	5216
못	1085
밝혀져	24295
천호	23366
기하	10964
원수	11489
채식	20119
몰라요	14412
ㆍ부	21800
여름철	10508
숨	1300
##사리	10340
멧	1070
립스틱	16960
la	20563
정기예금	18183
산책	7533
Theory	31308
최순	8512
플래	8477
무스	22082
해전	27418
혜화	30337
활력	8879
##오스	10765
통신망	13977
프랜	9202
주사위	30653
모름	23442
찹쌀	19300
전경련	14655
위화	30973
권했	18143
용품	7134
인식	4263
다면	3793
정경	13104
쟁점	8197
제각	13726
조각	6123
과중	30690
장상	26720
##👉	3349
아우구	23769
망신	19453
김민	9195
세입자	13067
중동	7228
김학	14787
로컬	19077
프로이트	14297
맞불	26837
##깝	3361
피겨	13552
판권	28177
흐름	5203
레전	21243
쏴	1359
더워	20004
##eek	26729
x	91
국비	9037
척	1651
교보	13893
꼬치	17381
동천	18597
이가	29784
##차례	9723
튼	1814
4	24
감명	23404
Best	31378
쏘아보	28239
기념품	17388
##가락	5355
어질	26717
니스	12278
앙금	26996
따라	3653
부동산	4461
내비치	26352
지났	8679
##장난	26603
IN	23462
익숙	6579
짊어지	22522
내	732
직선	10707
용감	13583
##레이션	9680
조속	10432
하이	4899
이민호	23466
뛰어가	24766
Fin	26815
회오리	28411
ㅜ	195
##ous	13656
좌중	29625
연륜	31110
찜질방	26067
事	225
으며	3745
주의보	17939
임진	10945
술부	13968
##소니	24569
##츄	2979
공원	4599
손톱	13128
아닌가요	16596
이슬람	7814
##받침	7894
슈가	26774
此	404
##스트라	9224
##냅니다	26775
쌓	1343
내다보	11182
[unused322]	31822
##orge	29603
##께요	23881
강서	18036
설리	25709
안정세	28885
##냐	2529
물러서	14828
‥	120
단어	5591
승무원	13256
##하여	7488
호날두	17134
0	20
시가	8619
정청	26364
말려	15484
적절	5268
나들	20214
만취	25337
실제로	4539
영종도	29044
도안	24939
광역자치단체	27581
개인주의	19275
비엔날레	17012
에스	5493
아랑	14224
##il	4733
##진보	11296
현아	24879
철회	8188
MW	16866
##클	2583
나타내	6269
단련	15793
사교	16711
주무관	24790
포레스트	30917
경찰청	7384
동대	16255
##icht	28064
School	29522
징계	7352
NASA	24656
해킹	11321
감췄	30205
이만	10152
따라오	16022
유망주	16993
주재	8361
악당	19781
해골	27021
##남도	12182
상국	15432
넘어설	18271
##핍	3220
불황	8508
회귀	15952
폭동	19487
느껴졌	9306
남다른	11649
잡채	30113
변별	20769
주류	7887
윌슨	19766
확충	7237
##갈비	12799
##노버	30601
[unused465]	31965
석면	15273
에센스	15047
##벌레	13208
총독	15391
불의	16967
논리	5168
러블리	25054
안국	30336
스러운	4799
렉	975
틴트	25805
Joh	13825
##부아르	29661
##ing	4586
계속	3851
이승기	25208
무안타	29061
##였	2507
전압	30673
東	395
진정서	31249
니깐	12404
몰려오	25906
##퍼스	7525
두드러진	19510
이루어져야	16350
끌어당	18099
후판	24753
날아	7272
일목	31469
##권자	6674
사과문	26053
승소	14978
##앰	3337
당연	4685
청년층	18506
##킹	2883
正	403
유도	5847
北	268
한	1891
상궁	26633
플레이오프	10630
생물학	11903
교동	24436
윤종	17007
밀수	22299
r	85
잠재력	10149
풍기	12001
위치	4318
멸시	25947
##조건	6366
접했	22009
우표	24005
프레	6704
시현	26786
⑦	142
캐서린	27257
임명	6019
총출동	23778
정훈	28413
불협화음	28998
모으	6410
섀도우	27988
##입	2372
리턴	23684
다시금	12602
캣	1708
##oom	31108
중앙선	17977
그로	25687
##청사	19134
측	1686
[unused226]	31726
물꼬	19825
142	17205
문구	8426
트럼프	5477
##자치	11282
폭주	20619
##쌌	3530
도금	26799
##휴	2198
사귀	11679
관중석	24359
화난	28978
스테이션	22353
유닛	24336
##구리	8333
버드나무	28667
앨리	31345
드	878
중앙지	19460
나폴레	15035
흔히	6217
소생	15539
측은	12386
황태	15462
##시대	13169
##툼	3436
으흠	16683
##코비치	24538
핫	1895
to	7052
영업	4308
찾아온	10458
##라이트	12584
플레	20940
MP	16127
##쵸	3091
거포	31105
달려들	13572
조달청	20635
삼켰	24418
선택	4025
압도	7565
부양책	19785
명상	11364
다이빙	19166
체계	4462
##DA	12366
발전	3859
[unused341]	31841
소독	14081
소드	26102
스피치	20313
마피아	24082
##모니	12716
쫓아다니	30492
전하	5214
고은	22622
들여다보	8275
불러일으	8781
황실	22396
역점	13345
😭	2003
가져와	17852
문의	7421
##루	2162
능	797
뚜렷이	21395
NYT	23492
술술	27620
역내	20071
둘러	4791
상류	11856
착한	8731
##les	15546
##28	21717
트램	26210
툭툭	22773
삼양	21063
팡	1835
몸무게	14167
내딛	18109
응	1502
자랄	23759
삽화	22753
##및	3445
##장면	14014
동갑	18644
세이프	21247
##꺽	3198
지중해	16070
현대캐피탈	16250
채택	6279
리얼미터	28672
##에너지	27147
부질없	30314
##다랗	24578
홍기	30899
홀가분	28387
러너	30406
소품	12199
수영	6379
시발점	25087
[unused246]	31746
##리니	28539
산책로	16055
und	15452
고독	10519
볶	1162
PEF	23979
부드	5503
법칙	7273
출입문	18408
행정력	23445
오로라	28858
비추	9695
비선	20617
[unused35]	31535
##덕	2569
族	377
살아난	26937
다녀올	29321
흡족	23458
중심가	28286
##수지	13331
텀	1781
펌프	16769
앉히	24338
오메	17520
정쟁	20406
행자	20115
먹구름	25731
겠다	18175
도원	25162
##일답	29347
환매	14417
머문	21344
##⊙	3557
움	1473
데뷔	6214
항일	14552
제네시스	17283
가덕	19218
##oul	17679
기다린다	20439
논점	31120
대륙	7606
정오	17252
종북	15213
법문	31204
책임질	18918
양강	25636
[unused377]	31877
만약	4826
스타트업	10581
하필	13575
독립운동가	22073
공헌	7021
다물	12020
정점	12067
어린이집	8090
지은이	21184
골퍼	12538
http	8415
둘레길	22356
뒤처	16563
마당	6481
김한	12476
수놓	22106
달리기	23517
각양	24752
급성	24635
열심	23436
##신저	13193
심근	19685
네스	23944
방기	26757
모스크	12114
한자	9554
05	8341
보청기	24999
이구	24776
##커피	20468
미끄럼	27238
과격	16533
조선소	13073
공시지가	22829
맛볼	13591
촬영	4937
챌린	14322
구슬	13051
가축	10961
표상	13435
129	16281
는지	3754
가출	17018
투데이	21684
치른다	16378
역시	3893
나간다는	17864
부렸	20081
증산	25153
##쟈	2654
410	26209
교육청	5220
출시	4542
마사지	10651
여행사	12293
아이콘	14658
치료비	18014
상	1242
시청자	6373
##쩔	3250
조망	11831
포기	4916
한테	4328
연작	21370
저주	12512
##루션	8001
분쇄	25367
모건	16978
참외	22469
##ior	24764
영변	30979
흥덕	30932
[unused24]	31524
역학	12357
문재인	5573
팔아먹	30643
떨어질	9612
상반기	5815
과감히	14385
률	1016
시문	20234
레즈	23541
행주	27622
이완	11511
선보일	10678
##50	5281
두부	10813
연사	21244
졸지	30151
스코	8968
꿋꿋	22879
귀속	16626
박차	9727
궁지	22736
애환	24188
넘어간다	30668
나온다고	22780
특이	8329
##버려	12432
👍	1998
친분	13792
냉각	14748
받아들여	7302
순이익	8660
평론	8833
그녀	3821
풍습	18480
권혁	21496
인들	25063
길이	8309
교도관	30208
1915	28664
구청장	9218
이종범	30025
시제품	23012
메시지	5305
유공	12913
펀치	20267
충주	13642
숨죽	30119
부통령	17352
##얘	3367
제휴	8959
한몫	14416
##o	2036
Pre	26092
프레임	11386
대구	3900
비통	27529
##000	3778
뮤지컬	6679
날린	21507
가중	9237
트리오	25649
##더미	16351
##이	2052
저만치	30694
유시	17447
##완	2365
산동	19995
이과	21903
교부	10366
해줘	23942
人	229
##천	2337
대사	5140
우즈베	17230
뛰어났	23771
꺼냈	12083
그리하여	8153
불러야	26745
내리막길	27452
컨설팅	7327
1989	9190
##빚	3535
L	48
흥행	8380
관리법	15062
의존도	15440
느낄	5855
펴내	27496
훨씬	4716
유방	9556
시금	18446
아련	22104
총리	4866
피신	23361
이정재	30941
ㆍ사회	28793
##젖	3063
거래일	14964
당첨자	15247
실렸	17192
집대성	31414
##😍	2805
신작	13698
부사관	29921
허가	5897
갯벌	13465
##솔	2437
주심	17761
봅	1166
동종	19692
다가온	15094
##수무책	22610
부속	13024
##효진	22037
[unused155]	31655
AM	16198
육류	18201
기재	7475
혼다	17420
들어올리	25571
##산물	5439
스노우	23605
뭐	1097
다가섰	25397
소액	10977
미나리	24016
금지법	19722
구술	20527
종영	19754
건축	4796
폐업	12562
콜롬비아	18045
2800	22899
추구	5295
진작	12425
##ase	16348
쌍방향	25242
윤희	21731
내몰리	29381
좌충우돌	30754
##툭	3474
야야	30866
금메달	6937
제주도	6530
[unused236]	31736
젝	1546
뜬다	18746
곁들인	29658
무참	25679
31	4529
산유국	29436
색채	12666
라든지	12339
휴게소	14681
개업	17583
영주	9439
##란다	5519
베테랑	12299
금연	10916
청순	21477
버튼	9820
##샅	3520
현세	28639
웅성	28990
stud	28093
코카	15857
타고난	13436
반론	13815
BMW	10067
무임	27429
##aily	9660
황급히	18669
이면	12289
편백	26625
퓨어	27647
190	7175
##타인데이	28109
소모	9838
섣부른	29402
계란	8493
##age	10754
생강	14479
100	3911
미분양	11345
##공화	25726
점막	22754
발표회	14293
가디언	20480
흐르	6134
사탄	23082
[unused364]	31864
자임	23059
베일	16996
닥친	19999
문체	11528
##무시	18654
프루	22338
놓	773
들어	3685
친환경	5572
잃어버린	11164
다다	15871
환수	14061
버젓이	24858
사교육	9880
델	845
모씨	10123
신사	8213
망해	30589
상징	5122
高	538
例	238
##숨	3070
##산소	29709
年	340
주어	23723
데미	29879
마산	7958
Trans	23877
배럴	11274
서장	10319
결코	5231
##웅	2564
퍼져	10391
착오	15801
레전드	21443
간간이	22567
1898	28420
황재균	28704
울	1472
##민턴	16662
혔	1923
기거	30434
##금자리	11478
##15	19739
[unused143]	31643
촉진	6627
서른	10593
줄여서	27427
천하	8788
고갈	16879
이게	4380
Reg	26984
[unused328]	31828
열린	4306
드러날	19161
불분	19306
넘어	4587
##쌍	2686
이스탄불	22881
결연	19629
꿈틀거리	27641
수돗	15414
리원	26620
##스트	3791
키워드	9999
들	882
클레어	31496
SUV	10774
근까	15890
##쓴이	30652
쩍	1606
##훨	3441
강원	4972
해수욕장	11615
어우러지	20447
방황	14231
경내	29739
전수	10286
노마	30805
##💕	2152
모리스	22639
성인	6025
노년층	23469
한계선	24229
##냈	2847
##컷뉴스	28688
부조	19677
##품	2425
총재	8219
윤회	19802
소수자	16824
빙글	28031
오마이	16896
관해서	10573
##과학	20011
면면	20905
뿜어내	23350
##미안	14650
투자액	24985
고분	13388
##미리트	19115
##만치	20455
방정식	22191
시오	25048
무너뜨리	19355
##연히	6467
쏙	1355
윤증	30969
미룬	31142
여학생	10588
캐피탈	17551
##겨워	25577
##달록	27292
##ft	22366
[unused446]	31946
##융	2433
##자니아	31103
U	57
핑계	11595
##믄	3199
##선미	24821
##쏟	3244
##투스	12671
문화원	16386
##크	2292
수요	4446
1936	20727
영수증	15572
長	520
##현	2056
[unused106]	31606
페이스	6343
##erv	15271
섞여	12487
외고	12870
브로드	15334
##1	2083
찌	1625
이기주의	20293
##대로	3770
##충제	20413
맞이해	23986
걸음걸이	24547
안도	13579
하염없이	24285
걸레	25962
##멩이	21614
드문	11592
반대편	16222
돌아오	5999
백종	20577
##AE	13994
걔	567
##말로	5466
##기부	13877
##ss	9864
마인드	10931
방미	25667
장작	20050
##말리아	26702
해낼	13718
상냥	23020
##버섯	14338
Wh	14999
갈아타	20308
스크린	8559
빠르	5185
구청	6622
중기청	22481
쿨	1741
플로리다	17791
정확	4480
전통주	28089
##도	2119
불어넣	11162
창업주	21817
소극장	21020
##ount	20716
민족주의	11334
[unused204]	31704
웍스	16619
리듬	10228
American	19997
##굉	3385
모스	20762
총력전	22911
우스	9422
막혔	18963
##포스	26823
울산시	11617
젓	1542
바깥	7536
가산	10485
속했	28088
자만	19577
갈림	21037
유럽	4227
주체	5282
빙수	18750
김철	21451
고마움	15874
##서스	16154
##속기	17585
읊	1499
입학	5743
대개	7256
생사	15624
찾아	4033
##내려	15733
바른	6417
101	10522
담겨	7136
진이	13036
준수	11354
직함	24476
들이밀	30059
조력자	28196
옥수	26987
##밝	3374
테이크	21266
흩어져	13688
랜덤	31188
댄	825
화랑	12819
감청	24081
[unused415]	31915
속셈	23237
살균	12454
했었	5393
AFC	20006
원한다면	16560
남부	6904
Co	16219
제작	4271
##땀	3403
설상가상	26544
예	1439
등판	9088
덥	837
클라이언트	31083
##ma	15869
박영	9245
창고	8481
꾹꾹	30595
韓	533
대해	3643
오동	20822
필적	27991
특목고	18039
걸터앉	26242
공통	6100
궁리	17647
아줌	9502
후대	18441
병장	18831
로펌	17028
비칠	30510
26	4210
조치	4524
하계	16797
에티	16201
고위직	20863
일원	7708
전담	7971
시바	22158
두드렸	23308
지적도	28107
늙은이	22184
사르트르	24629
ｔ	1992
조원대	22085
팬티	18344
울트라	19339
현대그룹	17118
납치	10784
쬐	1619
젊은이	6776
음향	14047
딸아이	19183
커스	21898
둔갑	22100
재판소	9740
##권력	12383
빈센트	27595
가진	4398
아세요	21183
프랑크푸르트	21512
암석	25353
형평	12470
일거리	26114
##40	9888
면책	21039
궁중	16171
도끼	16413
어려워	6767
은근	10666
강지	28055
뚫린	21968
소장품	30371
마이	6415
국학	30456
수평	11723
D	40
즐비	16966
외할머니	22039
신호	6320
조국	8227
코팅	16509
이재	5912
선대위	18238
거림	25127
##곶	3253
움켜	13955
노스	12192
이정현	16314
##조	2446
쏟아진다	29654
닝	808
양방향	24133
나타난다	8045
##지휘	21341
마음	3717
라인	5152
워크숍	12363
역대	6057
토착	17749
중독	7698
난청	31169
폐막식	30739
용인시	14928
소다	25779
달하	6638
핸드	7676
무위	22025
화훼	23031
징조	23898
코치	7102
모종	21524
##려	2370
항상	4744
몰이	22305
EL	23565
사양	10720
계좌	6964
맞받	28056
초반	5962
배당주	27221
과다	11056
느려	22425
콥	1731
맥박	29056
공략	7185
제보	10477
증서	14565
처방	8576
부르르	29423
일식	18485
아메리칸	15706
제프	22873
소박	11778
친밀	13809
맞대	9207
합작	9342
운전자	7688
통일성	25514
어떻든	27769
상체	17561
알래스카	26907
리츠	18126
##ze	22473
소각	15340
균일	23306
흑색	25279
달서구	18118
함몰	30526
스럽	4265
스팀	19853
시내	6011
理	1978
플로	12759
가로수	14764
인승	19066
밍	1115
비뇨	30658
##키스	16052
주걱	28570
순천	8526
내려다	16950
가치	3985
햄버거	14995
##55	19578
[unused330]	31830
com	6234
의해서	7079
선입	16233
자질	9955
용병	11681
헤지	12375
쉬워	13485
발화	18593
##상각	26546
지상주의	29917
철강	7103
ㆍ개	29220
월드컵	5339
유족	8752
거꾸	10478
미미	11493
날조	31041
각오	7653
선비	9943
152	16446
##공항공사	18383
쫙	1618
기장군	23057
깅	651
보편	6656
##BM	16830
##츠하이머	27629
서울특별	29319
##중독	20644
불러일으켰	19856
농법	27716
행사	3925
치이	25292
##군데	22992
기록	3809
보통	4865
계통	13757
연골	18181
##배	2393
취약점	26255
##46	23406
센카쿠	26994
활발	6062
출제	9837
1978	12606
##셈	2762
##뉜	3589
부귀	26331
여아	29001
살수	30448
##타	2256
승기	22749
Report	27486
아용	30179
용지	7855
121	14936
반기문	15611
낙	718
##쿡	3240
열린다	6676
피의자	10115
서초구	12651
요코	18220
민수	20969
[unused235]	31735
더군	6801
아모	12669
최지	27537
신중	6989
먼저	4019
수북	27615
信	240
헤딩	21095
##레이터	13088
급제	19573
특파원	23586
조나	28609
롤러	19167
##트	2265
안젤	24963
ac	13836
품성	29197
will	27726
장미	9123
##각형	23511
온몸	8384
기묘	17178
안구	21646
혼합	9634
추돌	26904
중랑	23971
포만	28265
##높	3093
서신	17099
영진	18789
나치	12769
금형	21663
김혜수	28976
톰슨	26038
##캄	3059
법무	6845
##씩	3292
바비	15290
권위자	25449
##핵화	8567
쳐다	14553
아무튼	9212
엿볼	13365
성가	18796
고수	7506
한낱	25285
위크	17425
##천동	16183
줄리엣	28167
이경	10816
전병헌	27867
지니	6067
##광	2222
##앨	3014
통수	30153
잠잠	19412
##주머니	25933
박자	17841
철쭉	27885
똑	919
정말로	8324
주채	30453
박근	4627
왕권	20715
로버트	11907
##룩	2475
게시물	22216
라도	4032
동료	5604
삼성그룹	11753
중개업	20317
윤리학	22795
오름세	19551
##렴치	29721
뽀로로	27088
빠져나간	25182
소외감	30957
대영	26890
##기념물	22435
합심	28746
휩싸	10405
방탄	15243
만도	26752
`	67
푸른	7219
줄곧	10715
막대기	23970
##비스	3813
줘야	6175
감소	4520
전시장	13359
침울	29100
이반	29283
장실	24828
##N	2111
##허	2509
정강	22653
유아	6653
불길	11244
정교	9518
오랑캐	24261
##곤	2344
앵글	25669
대법원장	13777
펜	1852
현행	6785
통상	5766
##꾹	2849
외화	11665
##메이카	30616
##∼	2991
피곤	8320
##멋	2937
미래	4037
##릅	2779
[unused303]	31803
##지오	13758
학제	27099
##그라	10896
모토	13781
목장	17299
호로	25506
##곡리	25578
##aby	23794
##척	2135
살아왔	14286
군부	9619
계시	6779
돌려보내	24401
##ivers	12018
작정	11178
서적	10907
Dav	21210
풍조	24189
두루	8809
해인	17453
여명	27901
검지	29149
[unused420]	31920
뮤지션	14821
크레인	16692
소량	17989
덴마크	12749
##승	2164
##공	2086
준법	29362
상무위원	30438
두리	16666
헬렌	20176
내용물	20586
감독관	22895
내몰	14125
비시	17687
현자	25597
MM	16402
후한	24983
가왕	22267
지성사	28997
총력	10686
##볶음	20291
전횡	29157
[unused401]	31901
##딪	3230
##선	2020
전문학교	29999
봤	1170
억	1407
양주시	22398
##쁨	2696
알프스	20922
훈장	12932
180	7995
##io	14610
쓱	1364
##다보	4974
거절	7236
백	1132
##렸	2542
교차	9131
##데이트	13131
가두	15173
사물	6231
아인슈타인	17240
qu	22322
메아리	22277
쉰	1308
##파	2160
실적	4759
애정	7689
엥	1427
거주	5884
퀴즈	12246
격렬	11501
사슬	17505
##실베이	28590
현시	30142
##륵	2590
광복	10195
엇갈린	23391
냥	742
##나르	27146
재해	9894
자욱	26583
증폭	12380
고사하고	26122
똥	921
엇갈렸	23297
와이	8003
김대중	8288
foodporn	25391
난	720
##씹	2799
as	14172
부른	11090
견제	8586
동아	5165
##낯	3423
트레이	8712
숨결	19686
양지	15355
사모	9857
소유주	19207
##더슨	19893
불감증	25459
불러온	28857
힘없	31476
칼럼	11497
철저	5176
##클리	16228
유산균	14819
쓰레기통	21400
##었	2359
비애	30286
봉화	16013
낙천	22916
공무	14173
주임	16080
다케	17175
심사	4917
바이에른	28426
썩	1346
수처	27792
쪽지	17877
적립	8767
왕궁	19601
차두리	28500
불기	19924
의정부	9046
중간고사	27244
화질	15310
걸음마	29199
합쳐서	26098
뒤쫓	20692
소개	4348
그리스인	26957
건너가	15806
굶주림	25655
한옥	12863
비롯	4091
랬	959
보안	6041
맨날	11879
FP	30976
느라고	15619
호주머니	24780
필립스	22529
우세	10380
분분	22885
유신	11258
공단	5446
오마	12586
어버이	16301
봄바람	28508
무고	17891
##데요	16642
조차	4776
숯불	21821
[unused396]	31896
##릿	2153
사로잡	6841
##월	2429
후궁	25363
##무게	14142
DS	15476
##특	2301
##어지	4379
매복	30506
사라졌	7901
예찬	23835
희소성	29592
미트	26148
문창	22118
뒤떨	28788
탈락	8209
물결	10061
들어올렸	28848
전동차	23294
歌	402
리얼	7913
스탠드	19347
##une	30769
##흐	2487
조계종	20537
송치	19352
좌절감	26781
농도	10104
##앤	2261
순례	12916
모듈	12516
연평균	10998
혹	1927
트라이	21899
괴롭	8472
PM	15064
봐도	7293
스치	16795
##행위	10091
티저	20850
피보험자	24646
스니	25136
김상조	30876
윈드	25754
1964	16217
엘리베이터	10874
림프	19866
함량	13636
캐슬	17726
55	5547
도전장	18687
검찰청	20223
호찌	27833
저승	16778
축축	23571
축산물	19103
달력	17045
유린	16697
재미	4697
자본주의	6825
Service	27123
수교	18714
제주시	22492
리코	20735
편치	29578
##ff	7681
외국인	4631
중엽	28511
##곽	2638
내버려	13044
광대	13443
-	17
이루어지	6268
철제	22855
봉사	4810
United	29963
까먹	18908
다녀야	22547
##RC	27073
누나	7921
류	1013
##킥	2958
달한다	8897
##랙	3255
##80	8860
재편	11767
##빛	2753
정우	12475
척하	16168
넛	750
건국대	16274
구석구석	14439
멸종	15284
오장	27951
토벌	18157
보험업	18786
절차	4745
카다	20462
디지	5422
##걍	2963
박근혜	4655
[unused259]	31759
상존	29370
천국	10618
번갈	13200
두려웠	23121
##드래곤	25827
##학자	6478
보낸	5998
포함	3954
효력	9437
##팔이	31286
상당수	7477
나옵니다	15307
시기상조	31092
뭔지	10993
경유	10698
삼각	11021
두개골	29550
심하	7090
##삼촌	20953
바우처	28685
빌리	9420
화나	23425
470	25580
[unused128]	31628
박수	7479
장황	28678
그래도	4785
주자	6788
평생	5577
케이트	24679
水	411
山	330
지낼	16770
##양	2221
액면	19987
져야	10181
태어날	17652
단초	23649
##산지	24440
바래	21920
식구	8998
가려내	27887
기구	5255
##리티	9147
당파	18447
침묵	7207
업주	16745
역습	20798
바닐라	24306
서라	30836
충격	5326
구룡	24346
옥션	15583
디제이	25556
강호	11068
페퍼	27663
김제	16723
경쟁사	12086
심장병	22654
힌트	21915
덕성	27396
따분	28767
공세	8577
직분	27714
##ange	21349
늑장	28662
고질	15823
레베	30750
나으리	29595
##하니	13679
양화	31159
농가	6546
##Ⅲ	3119
아름답	7524
콘스탄	21031
국회의원	5320
공공시설	23488
##절미	26793
갑오	30217
푼	1871
치즈	7241
##ㅠㅠㅠㅠ	7712
교인	16380
시큰	24748
토	1793
[unused125]	31625
역삼	18984
수해	21325
붙	1181
독수리	16969
우익	13834
##조작	21843
달아	7826
인테	8037
##MI	23912
ㆍ서	19718
##RA	11881
##키호테	29041
불안감	8853
##버	2264
성모병원	24234
정차	18662
천체	18772
KTB	31356
##레	2189
CA	19186
##성	2047
트러블	15343
비열	24415
기공식	24514
富	324
가오	26552
Sc	13468
##oss	21380
묵	1089
끈기	19683
하오	25683
파도	9241
203	16421
필립	12603
이걸로	23698
惡	356
가꾸	10887
적당히	11466
로고	11475
만끽	13428
로이터	19736
##뻔	3273
석굴	25914
들이받	25209
추첨	9520
통관	21171
파편	17565
퉁	1806
판매장	29946
도피	13129
매진	10072
클라우드	11079
부딪치	14987
코르	16946
봅슬레이	30042
##쑤	2857
댓글	7757
핀란드	13901
여주인	15379
벤트	23544
춰	1680
##틋	3288
그람	26589
발리	16910
쥔	1574
다며	5239
향토	14668
발효	8053
보라	13301
슈퍼마켓	14463
##틀랜드	15296
커녕	22000
des	16679
남한강	29874
돈가스	28033
밴	1133
關	524
##욤	3286
##패드	14360
쇠고기	11457
메모	7705
농지	12089
극한	14686
던가	7259
보인	8124
천안	6344
커졌	9299
퍼시픽	13053
달라질	11602
쟁탈	26298
##쿼터스	26540
상부	15344
##뢰	2848
서킷	27614
놀랬	28956
##가죽	31430
심도	16951
날씨	5792
설날	17637
압류	16862
성황	16268
민족	4499
##hy	12027
상쾌	15740
요동치	26064
김유	13000
##A	2106
스마트	4323
업종	5742
실례	15860
자활	20387
집중호우	25642
녹아들	29754
발자크	31458
Instit	26263
견	586
라우	19144
개진	22421
##ed	4948
보로	28700
이렇게	3737
世	219
엄두	16193
풍광	18407
370	20799
사민	25532
한층	7320
##랭이	22858
서운	13614
싫어	13932
친지	20352
품절	29599
골짜기	14839
자산운용	13255
청사	7067
쉼터	13819
우스운	31311
##─	3440
토목	14842
특가	16545
ㆍ소	19059
제너럴	23580
장성	8855
VS	24152
선호	5877
둔치	26090
주창	18875
가져다	8999
진기	29144
##김없이	12219
##엌	2642
사은품	19486
물러난	19133
구릉	29569
스트	4870
팠	1834
라마	16518
긴밀히	22638
수하	17163
##EC	10990
커밍	30182
드라	4361
포터	23232
담그	16665
##돌프	25766
體	537
보조	5491
덴	844
치매	8724
사전	4858
##현동	15152
동사	11940
함	1893
친위	28245
외환	6473
##맙	3460
전승	12284
##금리	10015
스테이지	17122
떠내려	26981
2200	20706
외침	15947
왼손	12264
순매도	21175
날렸	12807
답사	14806
항목	6749
가르침	9854
Green	24901
모국	18706
아가	7093
강단	24040
카드	4399
학계	10375
##콤	2987
##ater	15919
내려야	18725
모을	18818
알아본다	23248
프레스센터	25037
Sim	28852
##앓이	28935
악보	21965
성교	29331
오스카	24276
윤택	30820
늘어났	7983
결의	6857
취해야	20264
부검	19135
든지	5242
##때로	13328
86	7692
나진	29909
삼성전자	4798
판	1829
물어뜯	27825
[unused192]	31692
##분투	23663
파인	12098
##른자	25434
돌담	24872
다이내믹	25699
##에스	12830
갑	549
##TV	7375
무성	13251
잔치	9900
부도	8790
##늘	2396
환희	19565
발사체	22955
린드	30626
뻔하	18988
탠	1772
청명	30357
NLL	16432
지배인	25319
지산	27449
스러움	11292
정설	25102
##네스코	12878
몰라도	10275
안개	10267
##팬지	28448
규정	4321
침범	16223
느니라	20501
베를린	10714
##득이	17496
최전방	25040
##탠	2952
충	1679
##업체	28289
갯	562
신혼	8849
Me	18530
윤장	30291
2021	17482
글로	4255
앞산	29487
침몰	10071
스콘	22727
파이	6440
야산	21297
두둔	30446
지방비	29175
케인	17721
헤어졌	22132
민	1109
병력	9027
승전	26921
##헉	3114
토론회	7405
건축물	9233
계	593
펼쳐지	10217
할애	17480
##필품	18809
거주지	19160
풀렸	20205
통한다	17929
새댁	24348
##짜	2244
경기	3682
해태	19575
군포	12398
##증	2304
가이드라인	12313
국민은행	10086
도자	22636
임파	31096
더한다	23751
클레	12906
잠자	12205
##수술	29534
##하	2205
아닐	5138
아니	3614
면은	5441
지친	11207
##텅	3330
지현	25606
기여	5291
투명	5767
배드민턴	16931
궐	628
어찌	5470
느껴진다	12110
땡기	28618
##무성	9047
주워	16036
낮췄	17058
판매액	28294
카톡	16529
##장수	21278
줄여	7425
##uk	20744
PV	26302
##합성	29689
##래스카	24967
급기야	13233
강연회	23316
債	243
##그리	12021
와사비	28052
아레나	20539
##윌	3193
올지	26876
버크	20391
미륵	18276
글귀	19110
사살	22538
끝난다	21277
진흥	7303
구연	28070
##잿	3503
하류	17747
구했	15461
반환	9951
어진	22792
아름	4395
ㆍ중ㆍ	21592
종소리	24713
펄펄	23307
Eng	31488
불펜	11338
##바이트	10027
2006	5474
Gu	23505
나눠	5694
글쎄요	15817
스캔들	13714
콘서트	6665
경운	27613
공항	4771
노동자	5019
사서	21513
인슐린	19100
부적	8231
만지작	24097
에스티	26508
철근	18822
스티븐	13246
##ad	5749
나선다	8314
##저축	24564
독학	28047
인민공화국	28944
치도	27387
##로	2200
사명감	19356
레바논	21131
산자락	30265
##au	21230
국익	16343
클리블랜드	19912
##빠	2574
##노이	16748
어사	30808
중대장	30067
화소	20197
릴리	22738
온종일	23689
##ris	14752
강화군	28415
이직	18995
통나무	24540
복습	22503
들추	30732
##네즈	27794
손길	11117
[unused418]	31918
##키	2089
##병원	12255
파란	9378
Mnet	28151
북경	14011
팔꿈치	15468
인사말	16113
아프간	18592
찾아낸	20559
가식	31057
풍미	15708
##리에	17016
베	1148
따라갈	25540
##uss	23559
중등	24588
졌으며	19624
팰	1840
##투리	12343
로그	17854
네네	5876
숙명	13906
그러고	24105
빚어진	24813
김치	6260
쳐야	27729
십상	17836
##귓	3320
##블랜드	19867
각별히	21722
창원	5479
다스리	12019
서양인	25194
면할	29697
악마	9377
선주	18091
학기	6348
호사	24957
도록	3675
민트	23213
경호원	23536
달성군	17429
유유	19942
격리	12706
이승엽	13033
##윈	3029
오스트	10350
해결사	21440
날뛰	23615
이종	7545
장난감	10464
포용	13568
일상	4553
방조	18557
마이클	10364
##선다	26254
수저	18664
##헷	3242
라비	30975
아닐지	25673
##몽	2814
솔	1285
치킨	7464
이재민	29468
페이지	8427
신정	16511
입원	8086
바꿔	5913
책무	17089
단오	27807
마일	12051
다고요	15483
식민지	8400
내려갈	20302
구스	24164
번화가	30494
쾅	1735
디스	6705
유정	13286
기내식	30244
띠	940
ㅏ	194
##랜	2639
합법	10308
증명	6216
장학사	27365
쓰다듬	15488
경영자	7097
일쑤	13491
##tic	7920
##몬	2582
사장	4184
##ures	28288
순회	13323
##ound	16752
소셜	8758
교외	19474
과대	17392
헐떡	26643
##파니	21837
묘하	20867
목조	24010
감초	17000
박상	10979
쇠약	22764
현대모비스	15517
식음료	26509
스타일	4715
##공산	25156
짬뽕	14558
예언	9934
105	11837
##셔널	9349
##gan	26273
##ury	26873
##프라	5747
산골	16901
지쳐	13847
감격	13035
##씽	3234
박민	17903
뿌리	5369
ㅋㅋ	3725
##백산	24486
방광	23353
연령	6524
쏠	1358
탈모	11377
김규	17403
##순	2017
정보국	26980
490	29084
칼슘	14450
검경	29682
통사	13577
##총액	12921
대책	4272
한족	23631
뛰어드	26478
6	26
##므로	4566
꽃피	20749
구력	31242
짓밟	15948
치웠	21697
내려간	21433
공고히	22178
상권	8961
##드리	6506
교관	27126
제대	13896
이라	5763
애벌레	28846
씹히	27381
스페셜	10306
민중	7037
가로등	18550
전환점	18773
최첨단	21413
대기실	23036
氏	408
철저히	7365
저자	5750
양손	16098
∙	131
건달	25760
부끄	7274
배틀	20225
엄선	22497
##왼	2581
와일드카드	29831
환하	13952
교량	16237
##버릴	21992
고속버스	23674
대대	7903
서현	19663
##89	22934
알렉산드리아	29428
군단	13350
역전승	18881
습	1322
##콘	2435
회계	6223
컴퓨터	5170
여종	16895
절규	20677
오뚜기	24606
물레	27954
수미	29636
利	260
유능	13229
##펠	2559
피라미드	18278
입당	16506
단독	6095
자성	20659
함경	23911
최현	21622
안이	25172
##uth	25254
김천시	28568
렴	985
멩	1071
끼치	11390
공손	16860
나카	18568
최인	20251
언더	8742
시피	17157
##십시오	14924
꾸려	11099
자락	14729
가습기	16743
따졌	24993
##습관	19043
였었	26723
정철	27648
뀌	700
종료	7317
##임	2289
사대	14086
지으	16935
훈민정음	30426
##케미	17625
어찌나	16124
진행할	12150
지렛	28455
##자유구역	12927
사냥	8056
##른	2202
디플레이션	28025
자연산	31082
컨셉트	25283
부추	9210
이래서	16317
방송인	14656
취사	25752
##소문	10690
찬스	15131
부르주	15828
거래소	8070
남동구	23866
창덕	27778
혹시	5697
아이돌	9326
그리움	13810
##랫	2993
엄정	14266
정신병	22066
##링턴	26015
Cons	27518
넘친다	26919
조셉	31079
드실	22570
##티넨탈	28004
한중	12611
딜레마	16204
실질	5486
마약	8926
산단	9823
병실	14678
올릴	9177
배당금	17095
간간	18595
##공개	23083
질지	31247
보라색	24682
던진	11304
이수	8416
ev	26975
호프	16773
태세	12701
튕	1809
설악산	20668
헤어지	14023
크로아티아	23320
신라호텔	27483
이북	21123
따라야	18105
려다가	18051
속삭이	23666
팔월	27239
##벡	3006
자비	12167
한다니	29820
원진	30759
이태	8583
하하	9455
##사장	21893
##92	24240
활기	9538
새내기	22950
리즈	23136
아낄	28724
살리	6063
어쩌다	15582
종일	8516
🤣	2004
여부	4588
시기	4342
##소송	18098
거위	24067
데이	6244
출금	25875
동적	30755
배불	25989
겸손	11663
앞치마	30218
##퓰리즘	17651
일어	7736
값진	18552
##양양	29974
村	394
첨부	15359
로스	8138
##잠	3025
다분	18243
받침	19384
쾌거	20374
##대문	8413
##쳐야	21259
대자	25632
조나단	30394
그러니까	4719
활용	3987
권고	7940
메세	29290
스파게티	23115
비워	16848
제멋대로	20779
올랐	4990
##펌	3068
전셋	18693
전직	9293
피해자	5379
붙박이	31020
윤성환	31317
으니까요	10501
관전	18748
시크릿	18603
후문	14797
버린다	9543
KO	11690
##엉	2187
고성군	25442
內	248
터뜨렸	12060
##라이언스	30413
시편	23378
##맥상	24449
은평	16476
육박	10760
이자	5617
연예	6310
원색	23857
##사정	28240
입술	7126
점진	14214
아이스하키	19744
김성근	20980
다녀왔	11765
힘든	5455
들어서	6333
일대	6394
헌금	22452
##깅	2186
##점	2532
##묻	3469
김관용	24427
저것	15759
쟤	1534
정형외과	28783
리메	23221
스필	29253
컨퍼런스	18646
형태	4337
시그	12809
##사키	20137
##리카	5225
알루미늄	13495
##슛	3452
바가지	19979
발대식	21674
##PR	23520
인데요	7501
광양제철	25894
악재	11440
슬기	17524
면사	24866
명하	22477
시에	27603
국부	20191
##내렸	18848
진천	25309
뜨거운	6562
##센터	9544
1981	12148
2004	5764
킬	1757
다는데요	29583
변화	3908
##aus	18558
문화방송	26086
135	14018
##룰	3112
검열	14401
무료	5263
##냉장고	27775
##타임	15302
이명	5279
전서	22620
되게	6109
이윤	8774
명동	11404
팽창	13463
##첨	2268
##학생	5097
##ene	17828
상작	22019
유나이티	13791
고택	23223
일시	6935
좀처럼	10043
서늘	16796
##용석	26708
베이직	27435
157	14516
이쁘	13854
살인범	24080
국지	11788
대상자	7307
보문	24226
남산	12103
맞추	5739
##㎖	3581
##iron	28968
1988	9053
Program	31147
경기력	15010
한전	9490
콤비	21695
뛰	927
슐	1313
신	1327
퇴직	6736
까	653
버클리	27359
숙부	25915
불현	25123
##bs	23847
[unused227]	31727
남달	27758
비즈니스	5928
반짝반짝	23963
필하모닉	26241
##콰	2838
기흥	21467
도로변	25310
##사위	28311
대인	10799
삼청동	29293
늘어난	6355
##ux	30290
주파수	13174
친밀감	25703
블라인드	23371
염소	14427
양립	21381
고쳤	29676
상주시	28125
쳐도	27550
세인	30837
진단	5169
부츠	18081
긴급조치	31357
性	354
많	1039
##org	20962
수술비	31123
망할	22228
##사고	7472
버블	13937
##박스	13473
##미애	20902
한정	6594
사공	29190
71	6980
루수	13141
영속	27515
##슥	3339
찡	1630
참조	6998
출범	5788
콜로	18611
탕감	30849
소형주	27743
##지배	30267
중계	8137
수수료	6389
On	18598
특산	21153
『	174
잠	1522
어린애	18808
최장	13225
지름	11981
CI	17243
뻔히	24630
##끔	2863
호찌민	30777
이른다	7497
티슈	30203
벼르	26222
남해안	18787
대궐	29128
산모	16269
가혹	12359
Am	23861
내세	5618
수도	4438
검색	6102
모여서	14958
국문	15643
타진	20816
흔하	15136
목살	27459
빙빙	28756
임상시험	23034
마드리드	14388
선처	30277
국수	10264
JS	26869
진보	5359
능동	11660
김영란	16441
##러리	6065
##윤	2399
깨달음	12788
경계선	18893
수세	21044
골라서	23409
용역	6823
겨루기	27654
명성황후	30870
연희	16146
##스	2255
멘탈	25396
올스타	14213
바이올	11906
부정	4533
크리스마스	8347
차려	9606
장외	16007
요격	25706
모바일게임	25772
느티나무	26023
텁	1782
전동	13571
사들인	22220
여직	20365
떠넘기	20713
NBA	21819
민망	16118
##슬라	18364
도왔	15667
저소득층	9494
현미	13842
##️	2652
무디스	29109
양회	30441
앨리스	19258
물러나	9425
추경	10108
수기	19972
티아	21151
결승	6533
악장	24333
##탬	3212
공주	6717
연주회	16385
우완	29073
삭	1234
신설	6039
야스	16027
합친	17884
구제역	10176
##일리	6514
한국가스	28706
<	32
플레이	5382
일까	4846
징벌	21059
수채화	31167
가르치	7110
의혹	4829
good	23025
귓	632
취침	30806
환생	30364
종말	11607
##란드	6084
노회	17539
진흥회	25596
꿈속	26517
빌	1190
밀리	9514
얕	1403
덟	835
미납	29007
내시경	16749
에이지	30013
다는데	12667
겪	585
밀어내	15891
테슬라	20717
이달	5277
급식비	25430
한발	13324
들춰	27695
흩어졌	28796
선거법	10146
명부	18811
괄목	23678
탓	1767
조교	17540
실은	9744
양사	15618
노래	4388
아드	17591
물티	19778
막아내	22750
찾아보	8131
신격	23607
##센트	5753
양용	22904
##금고	24867
두드러진다	25708
廣	343
가라	8335
연	1431
러셀	26127
선박	6155
프로그래머	25650
대해서	3958
치러진다	29643
대성	12465
##사이클	29012
발	1123
질투	12122
속옷	13341
티볼	28580
맡	1048
##킬	2764
홍준	9591
빔	1191
스리	11858
교사	4487
1994	7756
고성	9952
사우나	21764
찬미	26477
우애	30518
f	73
로울	16463
파인애플	25811
누룽지	27307
천민	27975
구전	26252
성범죄	13638
102	12374
싱크	13134
고베	28138
[unused388]	31888
이지	9353
바를	25471
성경	8901
경제력	16088
파출소	18077
목	1079
파트너	7338
미얀	13021
장면	5034
공보	14627
커리어	17858
##모더니즘	27079
추계	23590
##라이	4893
쏘울	30111
광장	6110
ㆍ중ㆍ고	30117
제출	4962
말끝	29685
##오	2168
빠졌	7544
건져	19348
빨강	22113
##겨운	11166
몸부림치	31427
유물	9291
불명예	22613
결별	17912
신청	4373
조소	26496
해야지	10159
인척	16682
엣	1426
즙	1581
즐긴	25252
확정	4947
오류	8710
삼국지	21084
응하	14095
모	1078
우파	14875
암소	30187
밝히	5481
비디오	7652
풋	1874
순교	18223
환대	26454
##수원	13479
립식	17857
융합	6555
산실	26370
뽕	1221
전철	9682
정화	9737
산은	23547
Op	24315
다량	17068
살충제	21752
인증서	28912
History	25122
살펴야	24383
한국일보	23589
배합	20382
1929	20647
퓨처	23468
맛난	22334
##두리	9788
씌워	24664
발끝	19493
솔깃	31340
정략	25211
정전	11436
박성	10649
농업	5321
##기름	13643
저렇	13291
엘리자베스	17737
퀄리티	18295
교양	9869
데려다	16284
자유민주	19871
스텝	17601
臣	472
크리스탈	25259
휩싸인	24632
##투자증권	18405
대도	19370
마그네	21568
수색	9872
공공	4437
라이언	17438
갸	564
두터운	19440
패럴림픽	23441
자연히	14697
사이판	30556
거처	16393
뉴턴	21079
롯데제과	28338
무당	14598
재규어	24925
밑바닥	17451
헤드	9323
헬리콥터	25275
딧	894
무마	20680
포스	7806
상인	6390
닥치	15251
기어	9416
코딩	23086
절정	12011
체인지업	27285
##지리아	18738
유황	28834
흘러나왔	19034
##스탄	7933
##지책	31480
직전	6480
봉쇄	12857
웠	1480
이놈	12282
마셨	10692
섞이	23496
미네	11500
여유	5707
살아날	25047
잘난	18728
부단	19202
사무국	15060
나우	23841
이준	11942
단행	9267
평형	15528
원자력	7655
중얼거리	18606
확고히	18668
상륙작전	29816
##사태	16123
논증	15601
농작물	17728
김연경	28141
##ata	24335
조원	12397
한양대	13705
##낳	3270
R	54
오름	12567
@	36
좌절	8642
고분군	29696
세분	12627
그래서	3775
존나	11366
꼬박	14462
반칙	20831
키보드	20283
신입	7225
##브	2645
장생	25536
블라	10913
머릿결	27770
##낙	2921
듣	881
know	29501
높여	7048
##지만	3683
쇠퇴	15000
이리저리	12312
스테인	19557
불어났	31416
연주	5485
##탱크	18112
공상	17794
보전	7649
##뛴	3390
중앙	4097
##앉	2873
경희	11593
평점	20609
티켓	8592
##퇴	2550
이정미	31060
마중	18448
밴드	7503
전적	8355
문단	11467
ex	12235
도무지	12271
손흥민	11251
서술	7819
Gr	15053
스페이스	15604
취항	16573
##공업	6116
잡아먹	15066
계류	16941
모차르트	17509
신인왕	22233
괜	611
ㆍ조	27394
달려드	30293
베니스	24042
펄쩍	27216
위층	26290
선진	5195
피치	19220
손해배상	19961
혼탁	28142
웨이브	20756
파이낸셜	18151
tv	11771
아카데미	9101
엄격히	17972
순전히	19322
황토	17491
카르	11395
##지능	9107
##크라테스	14537
[unused51]	31551
몰래	8905
우라	15082
간선	21256
부연	23067
협의회	6097
##이다	28674
횡포	17044
밧줄	19652
아담	12647
비중	4946
반향	21422
##푸	2257
떠올린다	29338
영문	10672
現	430
모처럼	13763
꺼지	17224
추산	9940
감춰	18769
##지물	22255
대리운전	27175
##델라	29906
굴레	22479
할아버지	6403
##르트	6414
산후	20075
증세	8670
경솔	26369
별	1156
##63	25939
이룩	12215
기승	16310
이뤄져	15819
기다란	29947
갈렸	27956
망막	23318
글러브	30552
조	1552
시화	18840
으르	25078
체류	10994
귀여	7580
휘몰	30477
참견	28457
중심	3886
언스	12185
수성구	14326
저런	7043
오작	31088
도회	28993
미성년자	19514
데려오	20788
성산	14741
폐사	22404
##레타리아	22424
시청각	31044
현대제철	14277
도스	18839
서병	21057
[unused242]	31742
##원지	14301
방재	20714
향한다	23984
화려	5725
줄게	15068
합한	24103
[unused284]	31784
드리블	28769
파악	4591
신구	28099
분사	16808
입출	20118
273	29970
삼각형	22163
악한	20502
넘쳐	10402
노원구	23284
##씀	3044
새까	27985
속속들이	31073
머리칼	22906
##건설	6668
노려	10631
탐지	17775
소비세	20047
신령	24129
질병	6317
1925	22189
OB	24986
칼라	17278
빼빼	30792
col	29536
합의	4436
CEO	6191
異	440
OECD	10237
##ㅣ	2880
세무서	22280
##스타	4889
부주	22506
원두	15256
int	20641
귀국	7873
고삐	20042
##17	20835
##ular	28199
볼모	30248
싱싱	14503
사기	6263
떨어진다는	20105
400	5808
##ec	5781
무너졌	15091
여	1428
반하	13364
라스베이거스	21636
천명	15689
언어학	20813
긍지	24227
요약	8861
##워즈	26257
섞인	12391
스완	19925
외출	10003
중앙당	15911
앞장서	8876
相	446
민변	27575
모란	22346
진보신	17698
##켈	3003
그물	12895
학급	11131
##ㅋ	2074
그대	6834
##플	2546
농구	7124
청계천	17677
굳히	20035
650	17731
##스로	4173
탐색	10746
여러모로	21146
스탠더드	21941
우러나	30839
각료	20409
필하	23385
##서기	22103
진시황	25138
##벳	2404
조동	18978
254	29530
지아	20986
드렸	8343
무작위	21951
라기	9279
점자	29330
자인	30036
앞서	4294
1945	12883
##ridge	22372
변해야	30875
숭	1302
##머스	10065
리언	27921
ㆍ	200
110	9180
리조트	7745
##첫	2966
연두	22321
아보	19645
미백	21598
학비	16738
사정관	16890
℃	124
시내버스	13786
굴리	18410
참상	31187
연습생	27313
접어든	18862
숙소	9206
비호	22745
관철	13604
굴	619
부러지	21316
덜컥	24946
테일러	19438
[unused414]	31914
어드	20936
왕십리	26529
생각난다	25513
네덜란드	8445
함대	13774
척결	17986
다뤄	14138
고	594
[unused343]	31843
##넌	2360
항공모함	29539
신상	8936
BG	27198
애매	11548
##통	2140
거침없이	17897
숨진	11197
귓속	29153
신선	6667
아메	7790
IQ	30997
로마인	28045
께서	4710
대표자	15561
중앙일보	15724
얄	1399
##은	2073
인원	6182
씨티	15848
세운	7407
학술	7570
이관	15336
##풀이	7975
수렁	24948
메마른	28709
방비	30493
잔고	25504
재무	6090
성장	3877
득표	11002
사단	7077
바쳐	17780
카운터	18000
##구조	25197
시월	24553
증감	27004
##괴	2629
##wo	28021
산적	18666
절로	13353
##타기	20871
●●	29369
버팀목	23187
경작	17188
Br	15502
상어	20608
들뜬	24044
학회	7160
써요	30185
나누	4835
헤아	13645
떳떳	19814
금감원	9002
##사르	17909
##거릴	25721
유엔군	30091
전략	4012
웨어	12677
니혼	22991
그제야	13368
##킨	2605
##당	2481
처리	4211
민감	7198
줄다리기	24530
특수강	24976
대양	25905
##밍	2633
##노바	30330
##옐	3421
##래도	6743
SH	20742
로브	23880
연중	13347
소리쳤	11009
뱅	1137
##리학	14486
##순위	22247
ㆍ의	28270
간호사	9768
부의장	13172
찔	1628
다시	3690
훔쳐	12908
직시	19363
유상	12635
눈살	22965
##럼	2731
순차	13661
음색	23352
양희	26134
##벽	2710
정윤	23811
승합	26821
돗	855
담아낸	25527
준	1566
필름	9657
##첩	2619
물음	9164
University	13935
##꿰	3563
연회	16318
난무	17604
서부터	14940
##저우	11110
##ium	22701
복직	16673
갈구	28390
근친	30416
목포시	31441
이태원	16548
경영진	9243
알맹이	27759
뻤	1215
구마	22924
명단	7824
##으며	4007
폭격	14341
[unused410]	31910
163	16559
시련	12703
느껴야	30580
##ｍ	2832
자막	17888
넘어섰	10539
노릇	8732
187	11132
공갈	27242
듀	876
선구자	20420
승마	12479
구미시	15841
##cht	31077
춘	1674
##수엘라	20612
시냇	29969
보여준다	7313
Pro	10966
금융	3786
청룡	23895
##법인	13185
오승환	16057
더라면	10136
생명력	14099
난간	19703
##덴	2906
굴곡	20761
은빛	21967
##당초	24161
##지근	27259
피아	6698
일깨우	24039
2009	4877
먹을거리	20297
역풍	22046
딩	895
군국	27545
큰	1751
피하	6174
장래	10955
행진곡	24583
##oft	26463
흔	1960
양동근	30189
무술	19233
양정	24673
여운	15987
##iter	26825
임동	28892
한참	6756
아반떼	20704
낭송	26515
##미아	21374
어야	3823
세워져	22071
##얹	3477
란스	21378
장보고	22203
##ㅋㅋㅋㅋ	6752
답례	27218
이스트	12713
망가	13731
##씁	3465
인친	16389
잊	1515
대답	4769
조처	13619
스피	6539
가산점	18328
해낸다	30104
산불	14733
후식	21196
주말	5228
##berg	25609
물감	19977
석권	18874
산만	22064
작아지	26831
1900	14688
하이트	16290
건너	5828
[unused150]	31650
마셔	11101
2019	9227
PS	17244
참회	23509
성금	14310
법령	9964
탐구	7650
주정	18968
##산동	16338
##덴티티	23994
id	22673
##움	2894
독주	14750
비자금	23840
##텐츠	5051
친목	22304
106	13918
상사	7326
설치	4198
영화제	7434
벌어져	22291
##부지	24895
학부모	5653
받아들	4617
##디오	4895
피로감	20529
금메달리스트	26486
붉히	27277
된장찌개	22245
원유철	29360
종사자	10324
220	13444
사본	21498
보살펴	24662
##sc	21762
##영화	16516
운동장	9194
물자	14742
SU	9809
민속	10347
정맥	20344
임재	21647
편의	5347
신호등	22200
애덤	23938
고사리	25249
인프라스트럭처	27078
새겨	8775
##관광	12007
강성	13272
시설	3953
승부처	26140
##ulation	31471
섣불리	19807
플라이	16648
떼	916
감나무	28127
##스트럭	26673
인스	27053
도착	5082
산란	19602
##쓱	3380
경선	5918
밝혔	3705
instadaily	25757
학내	24582
화장실	7047
부산대	14457
모함	27269
동물	4801
은수	19025
귤	635
밟	1125
##팡이	12311
Go	19745
생존자	18591
산산	22824
허우	24012
예금자	26741
박스오피스	30800
읽힌다	27523
漢	420
배급	13803
곡성	18730
천정	15761
##27	21333
##에른	27346
검단	21248
빛	1195
NO	18168
##bert	27276
일렉트릭	30033
포크	13508
쫓아가	22208
그치만	28468
이어	3796
즉각	7395
##루미	12194
쓰임새	31314
페루	16823
취한다	21989
검술	28296
홀몸	25742
토건	27281
나아지	18241
채집	26299
##딴	3311
축사	13483
##엿	2610
그래픽	11531
배상	7053
권세	21303
246	24592
전환사채	31288
혼란	5963
쿠쿠	30061
이끌려	23132
일컫	13488
부여받	18999
보위	21955
빵	1201
꽃잎	17396
##초	2535
잡히	10096
그래서인지	19378
부작	7172
유포	12502
전도사	19599
기정사실	22770
부릴	25169
슬라	21068
돌려야	29935
선심	24870
##얗	3373
##로웠	27156
1954	19011
리차드	31129
파노라마	27705
루즈	23180
selfie	19727
동창회	23675
집합	12958
세미	8029
서초	8543
볼일	19681
근속	24107
가로채	30312
바티칸	27209
분노	6111
요정	14332
두르	18284
슴	1321
면허증	27498
wh	14092
마누라	18294
##유사	21027
가마솥	29037
처마	27343
어르신	7810
문제집	22644
푸조	26883
찌든	30978
그려져	17878
##붕	2938
정승	19374
라야	19610
##프스	15011
좋아	5723
NA	19552
뚜렷	6899
전문가	4205
부를	9539
팔	1830
##랑이	7727
담임	11227
인대	18052
보복	9308
비문	21167
한계	5201
##ㅂ	2243
구본	17813
자의	15263
윗사람	25605
남용	10032
경고	6151
클래식	7364
th	8276
##ld	9446
폭염	11283
전한	13332
최저치	20237
건방	25167
우익수	26925
수완	23154
기네스	27327
##파람	25071
흘러들	27513
돈키호테	29050
[unused421]	31921
그만큼	5569
불린다	12732
백지화	22169
그랜트	30625
추워	18064
순발력	24831
ICBM	23375
##사관	20498
문전	21581
##속	2354
디저트	10058
전출	31265
정반대	12750
진통	12436
패션	5179
읍니다	23175
에버랜드	16322
확신	6483
인천대	24037
분단	9998
포티	21163
184	13037
쓴맛	29066
##붙였	27966
바꾼다	22645
##리지	27481
출범식	26089
시구	21324
급한	12657
구려	18843
##자키	25707
대출	4394
2300	21829
##뚫	3577
나이	4358
수당	8356
라틴	12880
외신	12533
취향	8281
적시타	17823
실업	6235
##대간	23087
환장	30090
진도	10545
아스널	21865
성행위	27144
##IC	10079
뒤돌아보	25902
플래그	22430
남녀노소	17456
##시장	7149
예고편	24223
소공동	28633
시력	12699
정호	17991
며느리	10272
크나큰	27250
국세청	9528
dogstagram	25010
자정	12434
미리	5134
베이스볼	27505
동굴	9972
위법성	29997
춘천시	18475
천문대	28694
외채	28813
천사	10120
펙	1851
고양시	10978
##뱉	3579
절망감	29126
사골	31431
포인트	4648
텔레비전	7361
착하	15097
교구	15950
##ench	30193
오랫동안	6386
##평가	10359
막장	22657
주현	28306
##마르	14963
##혈증	21445
##뱀	3206
착수	7615
거뒀	8734
수력	18049
맞아	18556
풍토	15194
불린	19596
나아갔	22624
공정거래위	13587
찻	1639
도미	12771
빡빡	22804
경험	4043
##하우스	17975
선미	29832
했을까	30348
혼재	27838
핸드폰	11740
원균	31026
천차만별	25108
약화	9104
조폭	20056
싫증	25705
기립	28668
##봇	3201
모음	16544
혼	1928
동지	9787
탱크	11579
음	1500
어떻	3761
들려주	13320
우상호	27294
용모	25050
[unused188]	31688
##로이드	21236
이용해	26208
잡지	7682
상여	14962
메커	15050
만전	18353
로저스	27659
저울질	25965
경협	18542
##티티	23314
제공	3894
최희섭	26562
정직	10089
판세	20866
##conom	17412
광진구	25134
淸	419
##휘	2740
[unused441]	31941
##샷	3261
가린	23734
문어	16687
억누르	23283
증강	15358
##✔	3472
##♀	3545
이태리	24478
USA	28979
프라	8195
강경	8088
##스케	22807
살인자	28085
가즈	23251
늦춰	18040
##인물	14673
과학고	18670
리조	7537
일파	22515
Res	15791
기념관	12127
##기운	27715
대여섯	24089
딘	889
경각심	23056
넓이	19779
##orn	13940
70	4531
##각서	20033
심미	21519
일러	11393
소릴	24153
##ain	10134
해커	16783
##재료	17349
원어	18377
대당	22698
선보였	7639
개원	12689
##ric	18350
백혈병	19716
##장자	29819
레저	9401
전해졌	6923
희귀	13478
낮춰	11966
##tr	14766
보여준	8848
똑바로	13318
오래가	24437
반란군	30439
미생물	13767
최치	29191
##중간	22227
저마다	11402
##하이머	24007
이뤄졌	8266
Fe	30936
버무려	30409
어차	8465
##오프	9178
각양각색	25416
냉	739
##저스	9595
도로공사	16472
갖출	18466
컵라면	28174
##폼	3458
122	15084
스파이	13106
없앨	23838
즐거웠	19391
##무장	17286
시효	25064
경정	16367
토드	29138
성급	13719
통폐합	17530
아이비	22797
비틀	10192
토토	13850
##정식	16238
이어질	7583
연발	25273
짭짤	26137
252	29538
답니다	6485
비약	16892
실거	28781
노점상	22951
지켜봐	24719
환자	4295
안장	20887
포교	29804
##팻	3550
나이지리아	18739
W	59
포르쉐	30405
형수	18580
한두	7978
##광역	15471
##mp	13632
[unused365]	31865
식물원	26111
윤아	29611
청취	10180
##S	2238
face	28332
爲	425
겸	588
##뜰	3188
##자치단체	18758
공소장	26497
##PI	23486
조직체	31366
Te	29486
지내	5958
알차	20726
울프	22478
문제	3635
분절	27684
[unused46]	31546
재연	17807
구호	8523
난폭	21917
준우승	20582
중진	12556
뒷모습	16065
보낼	8947
조지아	27159
[unused199]	31699
으로부터	4500
신춘문예	25635
독약	30871
둘	867
홍차	24390
긴박	20416
이소	16667
일어났	6794
양명	29875
궤	629
문	1091
분개	19914
배아	23293
류성	30989
##비엔날레	27812
카이로	29217
##수기	10741
쩌	1605
##걸	2249
동태	21661
하남시	22560
1993	8487
[unused269]	31769
##erm	19131
처했	16959
쫓	1617
##행정	21002
유태인	20377
셔야	9392
김재	7863
라이스	21265
길들여	22116
나성	25229
##은사	30628
확산	5149
##NC	18989
Company	31491
최문	21802
##하키	19458
쉬운	6655
SSM	18972
대중	4672
한가위	26997
왕래	18685
내세워	11572
NHK	24705
골랐	20314
신청서	12511
휘둘	14816
호환	24461
강호동	22609
클라라	25260
시외	20193
달서	27061
요시	14753
맴	1053
전파	7719
묘지	12753
권영	13882
##원회	25549
머리말	28449
하객	27034
상용	9904
옷장	20977
뷔페	15741
저하	8693
멍	1064
귀농	13536
Mon	25560
##릎	3129
신도	11267
방송	3861
대뇌	29440
매니아	29484
정수장	19591
가설	11535
일어나	4652
풍경	6372
엘리트	10636
pro	12862
##uf	29185
색소폰	28065
남강	29241
##｜	3482
134	16525
퍼센트	6092
용산	7947
다리	5035
글쓰기	10243
휴머니즘	26894
WTI	25436
구도	6985
역세	11759
황보	27171
맞물	10344
##ttp	8399
사관	12084
손익	13735
9500	27623
780	29344
독스	31087
史	277
깔깔	24228
뷔	1182
##깍	3215
녹색	6119
이데	8568
##리나	16794
접착제	31493
담양	17694
강동구	19647
##pp	11177
단기간	12451
시리아	10074
화보	10879
로그인	26951
신하	10710
우롱	27646
쌈	1340
##아아	16881
##클럽	12616
##ood	6029
##부	2144
멕시코	8099
파마	23728
평균치	27923
여객선	15646
박람	6777
공고	7715
충고	11246
연산	12492
인해서	15899
##뜨릴	15026
ㅤㅤ	27612
까페	31101
페널티킥	25032
슬로	8530
언뜻	15078
##소사	30383
무	1088
성과	4422
##모닉	26190
전현	27048
비해서	11933
심폐	20091
극소수	22615
자고	5883
문인	10858
렬	984
위협	5350
브렉	18671
계집	14997
교체	5357
##혜진	17922
불모	24242
NFC	25306
폐지	5631
김태	6958
방법론	17770
##센스	12712
로즈	13257
저지	6196
장군	6631
탐험	14013
꿈꾸	7419
##거름	18856
2100	22723
비켜	15516
아성	27930
살아	4996
남중	30011
헐리	26135
모래	7667
평준	16707
시승	20497
고조선	23452
##튿날	13670
분기	4590
##웃음	16267
성폭행	10648
유현	28227
문학상	13570
망고	16647
##셰	2705
쌀쌀	18300
##ilm	29103
##버터	23262
선거전	21508
젖소	27206
콩고	28553
합쳐	8507
쐐기	19433
박인비	17206
단축	8483
페인트	16961
수화기	18652
소인	15822
애로	27531
럴	967
간지	19156
다다랐	30323
창	1641
##찐	3287
리틀	18023
도형	24863
・	181
다카	15467
라디오스타	27637
피크닉	28525
불쾌감	25901
재인	21700
축제	4727
가라앉	9065
가로막	10750
유니클로	28955
절	1538
소연	25768
전성	11221
바구니	18097
##무니	13878
미네소타	25846
She	29067
무력감	30859
##여행	11382
당겨	17683
초소	20516
요령	11624
지에	30707
##어로	12529
그러니깐	26664
##터스	15681
##찡	3100
청렴도	23665
왕따	18149
##렷	3108
고추	8102
성별	12444
소시	16266
계약자	17506
지분	5570
분명히	5589
더샵	26249
1927	22831
안달	27903
##세	2103
서두르	13419
고비	12107
담뱃	16536
명종	29848
비서관	7821
##출	2102
초미세	23382
개성	5879
두피	12722
논설	18356
##뜨	2751
동거	14691
이단	16376
울릉	11737
비수기	20361
예술인	14740
형이상학	24917
열등감	27934
정이	29677
##쁠	3216
오히려	4312
탈북자	12751
저절	10870
전시실	18797
##①	3232
실록	22822
##ero	30354
갈래	13420
대동	11954
골몰	25644
려는데	22300
농사일	27472
유적지	16547
관음	21509
저지른	11060
잤	1525
거북선	27393
클린턴	10305
214	26608
인디	8798
RO	16561
실망감	22585
##타르	11008
감히	9643
토스트	23852
시흥	11452
본다고	24386
##떡	2807
으려	4853
機	400
##탁	2438
우즈베키스탄	17981
르노	11914
토막	14435
형이상	23755
저당	19919
임했	26176
댕	830
로웠	19388
##oc	6624
OEM	31209
살아갈	12275
##쨌	3586
닥터	11380
무릇	24548
딱히	14582
포퓰리즘	17655
둬야	16684
볼	1164
내일	5420
리모	9118
9000	7748
할리	10695
[unused453]	31953
점심	5961
9900	26320
샘	1248
보물	9699
##ind	13263
쏟아졌	13230
삼성물산	10745
[unused54]	31554
공개	4049
161	16956
참나무	27015
호랑이	9121
##극장	23295
끙	710
당혹	13943
매달려	14278
엇	1416
그해	9842
줄리	19327
잉태	23933
##뜬	3321
거든요	4459
각기	9659
현대건설	15691
도리어	17338
당헌	24640
복	1161
나와서	8678
##런	2957
소비자	4297
항아리	15960
실리	8064
일회	14137
##꾸	2660
못지않	9338
##무진	14913
위업	30566
성안	27655
##량	2199
p	83
변했	10448
전월세	27149
놈	770
##모토	14257
날아들	25282
법인	4932
핵심	4325
실패	4717
뇌물	8154
선풍	14411
건당	29339
방파	23627
서기관	27340
계엄	17326
꾀하	14110
##레마	14905
##ervice	22960
한가득	28702
도취	27086
ㅠㅠㅠㅠ	17102
애틋	19222
일진	19992
전무	8072
##창기	16309
##신보	25287
##걀	2724
##뛸	3538
방향	4367
##대교	12419
종종	7286
##ㅠㅠㅠㅠㅠㅠㅠㅠ	25083
[unused195]	31695
PGA	14246
경남대	27995
상환	7277
콘도	26236
8000	6938
##컸	3560
##one	11814
127	15057
문경시	30933
세수	10900
균열	14911
몫	1080
그린	5207
펼쳐질	19056
유고	21246
##뽑	3055
[unused301]	31801
토핑	25638
만회	16037
불참	11642
프랑크	16528
##outh	30147
기울이	7794
교육감	6357
원로	11554
인과	10226
##깊	3137
태양광	8057
섬뜩	20360
##95	21946
로테이션	27100
만류	18634
평민	20250
멀	1061
Ma	26736
모순	7872
밀려났	27103
꼼짝	12630
프린트	17107
[unused356]	31856
##냉	2576
초고층	22301
##노위	27619
휠라	29564
발품	28651
##US	21874
줘야지	27378
마우스	17735
##구이	19125
랗	951
도구	6876
어원	23490
진호	28396
##푹	3085
대외	7627
아득	17040
선후	17202
가느다란	25381
삼화	29570
##FC	10904
##바구니	20507
대본	12183
성역	20959
을지로	23901
[unused196]	31696
이식	11384
분식	14436
니다	8648
성심	22146
SAT	28386
증가	3964
난생	24448
플로리	16424
이뤄지지	10064
당한다	20724
뒤따르	21715
낱	730
min	25112
콘	1728
벨트	8528
##적거리	20271
흐를	20136
행렬	12310
타르	20891
Power	28739
사각형	25876
심포	12755
송파	10169
폐해	15716
선수단	9749
숲길	18742
부원장	21011
슬그머니	19280
괴	612
차단	6202
투게더	24701
化	267
미지수	14950
두려워	9862
인재	5368
재상	17738
복근	29078
금천	21580
보루	23326
몄	1075
유성	10351
볶음밥	15475
##스타일	22776
##정사	16300
이끌	4597
서투	30901
다녀와	30299
전면전	25810
PF	17237
케네디	17119
##각색	22023
될지	7101
##스턴	7923
유체	29865
적폐	13523
명소	9877
감량	17781
시커먼	27268
##ck	24154
탱고	28104
의도	5289
생존	5898
펄	1847
종시	7083
교포	15423
총독부	25684
[unused177]	31677
맥도날드	19865
풀어내	19286
메운	27718
##잉	2230
거리낌	24420
기품	28770
집행유예	14513
성행	21797
##쿵	3375
부서지	21559
에서부터	6474
무너지	9235
##ice	11431
##bl	29178
청중	11347
니라	17001
Market	25398
##띈	3590
##ham	29358
자책	10824
사병	20759
##숱	3533
뚫리	27927
승리	4644
##ep	7885
검진	9550
유혹	8113
##몰이	19806
심지어	5929
스퀘어	14680
##일관	20299
파급	12159
취임식	17125
50	3956
팔리	10426
아마	4486
부산시	7767
부릅니다	29925
레이더	14611
쇄도	20141
ㆍ현	26143
허허	14225
유정복	25125
임대료	10135
총통	26669
럭셔리	14336
안타까워했	31206
딤	892
저서	9698
벽면	15915
묶음	25288
쿠스	30186
에메	31388
해군	7487
성대	15446
##레스트	19197
붉은색	25299
짜릿	14618
유방암	15522
초대	6158
성취	7408
명절	7930
역사가	19543
흥부	29845
##마당	21001
##자원	10638
보스턴	14140
##이나	15351
올라온	13289
KEB	20239
마르	5906
만료	12664
수취	26246
##러우	28359
어둠	7336
##회계	16696
행실	28943
##쿤	3001
크나	27025
##세스	24141
[unused299]	31799
따르	3881
이루어진다	12151
세션	15678
몽골	8836
##둥	2680
메뚜기	31243
코노	20261
유출	6554
지문	10617
활자	18836
박하	25557
샵	1254
구로	12648
펜스	17041
잘생긴	20992
메이	5659
##테크	8055
시사회	19688
res	19408
애국심	21021
단편	9558
강했	14156
지녀	24603
사부	16736
세척	20082
그러나	3678
한남	24693
국민당	21743
$	8
업체	3816
Con	9336
##58	26025
플레이트	29922
쿠바	12797
파파	19555
[unused142]	31642
중풍	29775
일찌감치	11318
##뉘	3223
경제학	8949
멈춰	10770
탈취	18043
##포동	18837
혜성	19210
산부인과	17742
제일은행	30136
##Z	2611
익스프레스	24284
고발	6684
말문	16877
수치	6582
상층	24761
연구소	5158
지회	12403
피셔	26707
##어냈	13387
때려	11635
움직인다	18194
부끄러워	20431
뿌렸	22637
수역	19402
태조	15492
산파	29748
바울	12237
빠져나가	11598
마카오	19229
학군	19488
공모주	22571
준거	25789
김강	26694
둘러싼	7078
##무스	28877
與	475
영남대	14693
##트랙	15565
##해튼	22089
명지	22574
##끓	2902
##모닝	23939
으라	10444
합법화	25884
##리필	29986
##하기	31302
보태	12102
시한	11880
양가	23403
저작권	25480
[unused430]	31930
생	1250
민자	12179
연세	18203
왼발	19024
미주	12957
플루토	27201
수신료	19725
요한	11986
쉼	1310
비단	9965
전편	27848
실까요	29966
끄덕	7637
##아이	7760
[unused181]	31681
고대	6584
양고기	28475
아무리	5080
이민	7191
방문객	10968
##㎥	3602
메리	10435
나아갈	14863
수아	23521
김태균	18204
튀어나오	23927
토박이	25455
##MS	15428
비하인드	31019
리어	15382
아삭	22519
천식	19508
가칭	15283
지름길	17537
##바라기	20873
물끄러미	20430
구해야	27773
앤	1391
이뤄	4310
순리	25508
his	27725
발병	11543
배심원	20236
확보	4194
운송	7642
주총	17645
[unused451]	31951
CM	19294
불붙	25096
땅	903
##ut	6449
##윽	3202
부채	5654
손꼽	11399
##태우	13194
영재	11496
베드로	29000
빽빽	22931
간혹	12268
##꿀	3035
##잤	3544
집안	5720
S	55
일기장	24593
대한	3618
인양	15226
걸까	9575
외식업	27054
##스틴	13439
##겐	2171
##ㅡ	2573
정해진	9826
사별	28437
쳤	1662
오렌지	11150
##반구	27069
성씨	28773
광물	15496
큼	1753
서핑	25113
패셔	26679
계단	7328
바라	4156
추석	6734
드래	9467
연락처	18386
경로당	18034
자그마	18585
취임	5826
어느	3875
⑥	141
총격	20041
문서	6953
붙잡	7305
육상	8941
살릴	15009
원활	8262
島	331
눌러	10157
##카이도	25415
##🏻	2512
맡겨	10178
폭스바겐	14645
파기	17241
각본	19771
합천	21892
닉	802
##깨비	13159
17	3932
괴로워하	30455
만장	15976
잡아내	19452
툰	1803
박탈	11703
불량	8904
소고기	12362
해적	16714
임태	21981
겹겹	29672
겹	589
장인	9277
[unused237]	31737
일각	7662
바닷	7984
도운	25702
회비	22591
처한	10584
크라	13346
##ts	13077
수작	17168
낭	727
민법	14661
답안	19130
영자	25990
[unused296]	31796
법치주의	29447
천문학	15677
의술	25110
리프팅	29189
공조	10161
총감독	29136
버려라	30385
프랭클린	25502
성분	5768
가까울	28837
재조사	28165
상식	7684
상우	30507
노크	23341
획기적으로	16488
레일	16876
Global	22683
드림	8079
다각화	21465
##랑스	28201
생리학	30045
기울였	13384
패인	30813
복고	21301
처진	30727
적잖이	31192
진경	25461
이청용	17450
##적인	31221
요일	20405
최루	26887
고모	13146
정색	25785
소멸	9304
금상	18066
때때로	13789
즐긴다	21589
청주시	21462
바이	4624
##꾀	3126
장밋	24065
뭡니까	17363
성숙	8655
강가	19080
원효	18851
바꾼	9506
지휘	5872
초안	16216
갈랐	26435
망령	30592
##왜	3132
촬영장	19828
불량자	29708
안종범	25974
뛴	928
쿼	1743
사람	3611
##어질	7424
토요일	8414
위드	22578
무궁무진	23460
애국	9454
적립금	19065
정구	26144
스니커즈	31269
자며	23876
야수	18732
위원장	4120
##친	2720
지휘관	16048
등본	24838
친	1691
유분	25407
힌두교	28503
비닐하우스	22927
##т	2541
제후	19278
1932	22224
##OS	10856
무어	17098
안배	28316
휠체어	14699
김두관	21471
구급대	29932
##기에	12551
이군	29764
족장	29250
장부	12659
딱지	18154
來	237
전성기	13590
##나도	27433
Adv	29655
숫	1301
백억	22925
개월	4109
열중	15634
##뵙	3583
드로	16148
w	90
고열	25620
배상금	25494
난개발	31278
매회	28164
영화사	22976
##조류	22237
힐	1971
기무사	23144
무대	4537
최정	14703
전방	9839
실점	8464
탑재	8167
지구	4290
104	13724
내린다	14829
윤상현	25456
선종	22086
운수	14252
##tis	16977
보증서	28932
말살	24873
밤잠	30254
일전	19318
자각	12934
그만	4416
상업	6195
##ash	15576
##뿌리	16294
부르주아	17817
BI	17222
지오	18136
불행	7284
##아졌	21142
겸하	22752
새로움	24660
##둑	2565
빠져나	8293
식상	28062
so	25641
이쪽	9755
서정	10240
족	1553
비우	14935
##썰	3082
청취자	15935
서자	30261
[unused18]	31518
라니	7968
썸	1349
미국식	23432
변국	20696
이뤄냈	26139
침략	9808
내장	9551
램프	16701
##탱	3278
상품권	9361
거	568
배당	6464
떨어져서	20492
옴니	30096
41	5623
은행원	30123
산기	30623
##나절	20276
가감	27784
해프	21336
##송	2224
정열	17347
심호흡	27128
기술원	14419
풀어놓	21765
편입	8839
챙겨야	22327
Mo	28965
독소	18031
##엉이	28105
East	30996
알	1381
##바라지	24607
센티	16075
##℃	3486
##맥스	26689
토지	5250
잇따라	7912
강변	10054
대검찰청	20938
민화	25470
도봉	19678
저놈	22022
무겸	25524
[unused212]	31712
패거리	24856
삿	1240
##베이션	14512
였음을	20796
##화	2267
##커스	11990
문책	20804
내국	16693
수서	19204
나이프	29352
깊	652
##나	2075
##alk	22137
엘리엇	22367
##소시효	25205
고를	18092
스트레이트	27967
기부금	12790
조명	6288
올려다보	17141
허정	19242
방랑	25233
간소	15949
관공서	20509
##넌스	24883
아무개	13958
영업시간	18114
박모	15653
350	10906
##der	21933
잣대	13056
김태호	20456
영등	11339
g	74
성능	6540
걸어갔	16968
왔으며	15946
베이지	24216
##성대	25601
넉넉	9628
청주	7959
구애	15930
네요	4363
지은	19067
증권	4549
성형외과	17700
차곡차곡	23090
두만강	26578
##섀	3256
간섭	10401
안내문	23614
형식	5146
안재	22499
Mart	28627
뿌듯	13349
낮춘	17957
권장	12308
타지	21777
130	8898
심혈	13378
##ung	9853
—	112
오션	14803
새우	8780
##욱	2682
품평	27738
서슴없이	30215
부평구	23803
##국사	28008
알아볼	15187
마리오	23004
교의	25637
임직원	6809
사이클	12545
字	314
구금	20860
정	1543
하이트진로	23085
주소	7862
일품	16458
권리금	23758
꿔	697
포석	18653
찰리	20242
아웃도어	11597
팬택	21740
##st	4350
든든	9726
나눌	10040
고장	8514
IT	5392
입상	14566
홍성	11128
전병	19309
막막	15232
##리	2059
한의사	23732
⠀⠀⠀⠀	23830
je	28295
[unused159]	31659
##랠	3529
결승전	12663
실수요자	15385
볼펜	24969
특단	23176
치러졌	28762
주일	5453
격하	26864
모드	10214
드러누	29271
간행물	30077
모터스	17139
농약	13082
1999	6819
최일	26571
川	332
잡담	30046
국무	5687
유승	9666
연간	5341
더덕	28679
[unused5]	31505
민경	23688
이국	14993
추가	4140
##어들	4519
##뚝뚝	24077
##삼	2443
동방	11685
해인사	29671
벨벳	22408
선진국	6652
노후	6929
##학규	13601
근래	17025
농민	6290
도톰	30106
옮김	12231
[unused427]	31927
장동	16838
접할	13266
베네수엘라	20790
엔지니어링	14184
기보	18030
당규	26782
프라자	22374
79	7593
라운드	6383
투수	5820
여신	8772
[unused373]	31873
알갱이	27868
##이면	24094
몰려	6339
39	5513
##탓	3508
걸스	29646
보류	13095
뀐	701
디자	4329
광풍	28211
##화가	24326
##해졌	29919
칫솔	18391
매표소	31063
글로벌	4279
무제한	18638
일생	11355
성남시	11147
자음	28476
링	1035
브로드밴드	22627
아내	4582
[unused254]	31754
배관	19078
던데	8263
##교사	22034
man	18911
텝	1790
다녀간	29858
오빠	5852
빅스	27824
등장	4454
프로그래	16806
들린	24724
춤	1676
##투합	26076
174	17439
부턴	18949
토요	16399
시무	23632
다행히	8273
부제	17873
환급	12865
●	157
Rob	19254
##달리	21237
##렉	2973
아기자기	22966
🏻	1996
화합	8412
접합	26138
鮮	539
##좌왕	25733
재주	13602
폐막	17159
넉넉히	29218
프러	28527
예견	13672
테드	29276
힐스	27220
깨어난	29421
간디	17220
임창용	24202
중론	27157
논어	22508
퍼스	18647
시호	24307
일산	9664
군사력	16354
개최	4414
산악인	30295
##53	26462
##타자	23426
Sm	18273
시나리오	8684
인천	4068
일지라도	17928
송광	28686
[unused122]	31622
불씨	15197
전보	15748
무력	7950
스러우	22351
뒤집어쓰	27527
음직	24131
##00	3607
##구름	17844
머뭇	15805
LCD	10768
##옴	2721
쿠폰	10337
건조	6727
음주	8387
##복	2091
박보	21232
##olution	23435
##습	2219
이력서	18399
은근히	14638
##ict	25408
##처분	12892
주택	4031
직원	4070
뉴딜	24194
려는	4139
##VD	19879
전부	5412
IF	20589
이곳저곳	20436
수작업	28895
##폴리오	10326
시험	4448
개연	17535
끊기	19759
프런트	23825
##듯	2471
##뷰	2890
화초	31410
아닙니까	8652
동수	27996
이거	4647
兵	253
정조	10317
가위	15304
당겼	30271
신우	31102
늘린	20836
총탄	27142
기획	4417
징크스	23832
기념비	19964
APEC	26556
수차례	10277
궁핍	23194
오리온	12598
사령탑	14464
가지런히	27670
인권위	16867
면역력	12963
원통	20624
##라이터	27214
초래	7298
따돌리	18841
##오피아	21394
의료진	12263
봉사자	10342
대지진	15861
의성	15211
트렌디	19120
깃	650
불복	15832
유쾌	10960
전골	29036
헷갈	17149
주무	10633
지독	13514
마치	4372
##글라스	13690
동향	8588
정영	19554
비엔나	28178
전세금	14299
라구요	17739
우월	11540
G	43
스트레칭	17313
##ㅜ	2409
도표	17706
중고차	13780
##급수	31226
권하	12832
동남	7075
구자	14153
수배	18627
GB	13947
거스	15037
아웃소싱	26862
포식	18336
##us	5722
서양	6482
시드니	18459
개발	3720
##걷	3159
그렇게	3914
북서	20332
직결	12696
시속	10831
기뻐했	21861
##ack	10790
긍까	26645
##쇼	2191
원사	17603
구용	29125
##ation	5148
깨우	13363
평창	6505
무지개	16617
전복	10492
vs	11461
##벌이	11705
쓰였	15665
##쿠르	16755
부대원	29119
간절	8915
풍력	11883
##✨	3274
위선	18953
끌어내	12999
아랫배	30178
출구	9802
진해	11567
불입	28595
머드	28929
만남	6291
붙잡혀	27920
대항	8721
스터	11947
설욕	28100
[unused263]	31763
##희	2364
악법	25001
##틸리티	22768
한약재	28592
아다	29481
##다운	20721
존중	6936
져	1550
오염	6048
고품질	16680
주변	4240
초밥	13019
퍼진	27361
##닌	2326
하루	4051
고자	4359
능숙	17022
잔해	24565
##ective	31223
이모	7793
범위	5371
복통	26527
격분	28124
##60	9616
##지	2118
차장	8107
방송법	19817
##라드	26487
##기획	26648
됐	858
##오롱	12571
한신	27474
##파크	9541
대부분	4057
유죄	11043
건널	24464
##그러들	28588
챌	1646
는데도	14682
수락	16418
판자	28219
순하	31372
탱	1776
헛되	23568
김종인	17054
이뤄지는	12106
흉	1957
가맹점	9070
이천	16781
##게이	25012
집념	24942
건물	4515
행여	21909
심리	4779
미수	15106
태산	19494
북송	29267
스타	3787
안방	9509
선데이	28134
##호영	20689
교리	12923
순직	27353
브레인	17582
春	380
우여곡절	16489
##티	2747
습관	5759
풍선	14102
##야	2275
주리	30266
소문난	20760
회유	21281
바이올린	14760
스테이	19397
나약	20185
고래	10559
으로	3603
##스민	30188
격투	19734
윤기	15939
태화	17401
BO	22275
괴리	18940
갸웃	21115
商	289
인자	10117
여대	11066
질식	22047
본체	17821
내쫓	20015
염두	8650
갈아입	14559
한명	19217
그동안	4532
키친	20758
##iation	23449
음란	15034
침대	6849
높이	4392
##ud	8844
지킨	16633
유품	26498
라스트	28225
격한	27902
돋보인다	19495
콜롬	15553
##영상	6848
놓인	10092
유의	10407
##저것	13373
상속세	19844
2011	4840
##ㄷ	2553
자금력	29644
##갑니다	14059
##91	24907
ㆍ한	22358
천일	21489
목수	24363
해왔	19540
꿇	693
이어지	5166
##장각	27719
낸다	8737
e	72
아토피	14845
##OR	14851
247	29883
례	990
##ee	9739
Stud	21224
##어진다	7763
앤디	20633
수중	13165
##처치	27412
휠	1954
강릉시	25522
가졌	5989
##최	2631
지방	3870
시부모	27928
알아채	26776
인생	4545
버려진	17940
빨려	21099
오늘	3822
상투	21132
food	8611
조문	12439
240	13434
개조	11423
걸	572
많이	3732
힘겹	16438
대대로	21723
유기농	11835
네에	29209
##저만	26433
증빙	21875
택하	13207
신체	5878
까만	19943
다가왔	10373
##용수	16375
##어난다	29992
몰랐다	19923
면장	29394
수화	26501
##민정음	30335
定	320
여동생	12977
##바리	20427
반짝	8727
##로움	9867
줄지	13734
임원	6101
##럭	2823
수령	8884
저탄소	17334
남극	17978
경멸	17626
벌이	5440
소정	18355
당론	16443
습기	17950
작가	4197
##운영	27766
방부	27460
여제	28754
예술가	8560
해야죠	20349
기득	11575
뒷받침	8082
白	443
유소연	28218
##쾌	2809
거부	4966
##다지	8945
동인	14260
##국적	12904
출혈	14847
사상	4472
채울	19006
##36	23798
##lin	24126
가정부	29876
뮤직	8673
냐구	25776
##76	24254
武	405
염증	11138
##ech	14632
국력	20917
단장	6738
껍데기	18028
고시	7996
##롬	2981
홍순	27756
신호탄	20045
특질	27617
덩샤오핑	31161
연예계	17297
태극기	12341
온천	10509
찬물	16210
초식	28098
##밀	2531
쌓여	9735
##35	21675
##가운	7922
아베	8302
특례법	26291
고어	21439
노동법	27635
##독	2405
✔	164
루스	14695
##픽	3237
쓰인다	15166
빠뜨리	21362
##irst	24507
벨	1151
고액	12813
오트	30548
정치판	30618
당황	7389
##alysis	30655
녹이	25255
[unused198]	31698
해법	9382
체력	7230
만리	22134
꽃밭	26275
오락가락	21976
저택	14363
금감	8709
앞길	24405
##stag	8744
블룸	17191
대유	28984
권유	9398
저작	7739
합창	10044
바디	10599
##케이드	27710
##구려	23179
약탈	15599
##oy	12874
##orm	27751
소용	8578
꼬집	10973
여성	3811
##공증	24032
직간접	24919
##꺼번에	8306
예의	8828
지로	20791
쿨링	26844
##격	2502
수리	6751
켜졌	24554
포항	5846
대추	17288
##min	26289
섬기	14916
몸체	27722
특급	13589
일리	14971
호응	8249
파주시	18784
분말	21022
노조	4602
탈당	10112
남양주	11272
##러	2030
물동량	18740
전통	4289
신자	11133
유리창	15494
제	1545
##열차	25761
산삼	24978
승낙	18751
su	19835
##화질	22463
미니스	28896
족부	29648
##글리	27005
터졌	13260
76	7115
서둘러	8468
수혜자	20522
##둔	2684
연구	3692
질병관리본부	20741
선로	20903
미켈	21250
안치	17298
셔터	22865
포커스	19608
세계유산	26301
자녀	4861
최우선	9962
기지개	25907
광주시장	30613
전반기	16422
ㅈ	190
휴대	5204
슬림	14976
부딪쳐	24767
희소	17649
킴	1758
군대	6017
통진	21270
현직	8623
기댄	29607
오르막	25545
도스토	29417
##쭈	2825
활황	31454
특허	6271
이정표	20542
왠지	9379
##ology	12997
첫째	5919
BM	9251
잡아당기	28251
매달렸	22453
속력	25496
매니저	8912
조항	7196
##마을	14207
옵션	9356
전기차	9263
결핍	13343
양재	16043
특파	22974
두유	21672
판단	4150
종묘	21088
Fre	24218
過	508
쓰여	10786
윤성	18774
충치	29456
##vern	27043
나올	5458
남양주시	20503
패	1837
Public	23579
마수	28010
단열	27662
##ven	18961
노태우	19259
##ber	9891
이비	25657
심심찮	29461
두들겨	21500
밀레	16016
고행	29979
신시내티	30195
통신비	21360
고야	19372
점수	5543
132	15664
암	1383
le	19760
중국	3693
밀레니엄	26570
해집니다	28143
자급	17815
약세	10936
건전	7603
이웃	5616
송유	26859
[unused424]	31924
진다는	14437
맡길	17461
우측	17734
c	70
환호	11217
##믹	2931
국물	8805
동요	12233
##뭘	3522
##춧가루	18346
조민	29688
ㆍ영	28378
대결	6419
거주자	16606
##태현	29303
인계	21518
대견	25185
넘보	31258
##밉	3547
우승컵	19729
청진	30167
거머	14636
변장	31477
스러워했	30845
아이슬란드	28111
꽁	682
불	1176
반가	12738
겨냥	8042
수납	14272
.	18
양악	20551
佛	234
재판관	12802
##연맹	13558
##모로	20776
녹색당	30714
성수	17341
시행	4338
##펙	3181
##봐도	17330
수식어	18335
##버지	3974
가려움	26692
수여	10336
연근	28899
난국	31193
##렀	2602
갑시다	25749
격정	27304
ㅇ	189
비쌌	31313
내무	21164
[unused42]	31542
입주민	14063
첫눈	24122
키움증권	28136
##다발	20655
그럭저럭	24009
나래	23725
선발전	23506
GN	28469
131	16882
잠적	28370
##거스	18001
##appy	30431
맥락	7836
속해	14726
##렵	3147
##le	5083
윤동주	24699
이때	5107
느닷	16344
공채	14232
재충전	29990
고승	25192
##이지	4609
러	964
##에이	11264
##킨스	19369
##네이	21682
##약	2589
대놓	20353
##대장	16328
역전패	26325
뒷날	28432
광산업	30591
실수	5678
게장	22652
##용	2048
영통	23642
동네	5602
##현진	8253
막바지	14312
오니	23039
形	347
적금	11677
보인다	4090
거느리	14883
스님	6058
옆구리	17301
뭉치	15077
뿌려	11213
죽도	31360
외가	31036
맞춤	5987
들이닥	22521
ING	29942
##퉁	2725
챙길	19238
전인	17876
mg	19908
다빈치	28156
어플리케이션	26839
씹	1373
홍익	16135
대첩	29248
덤벼들	29252
[unused251]	31751
##돋움	16820
죄책	15700
주조	20080
투르	23796
ha	13866
던가요	23069
흉노	27183
갖	554
단점	8685
현대식	30789
양육	10589
구심점	23613
##떼	2959
취업	4819
##영수	16202
지정	4753
내려왔	14072
후회	7977
패티	28406
들여	5055
이충	31131
속담	15511
[unused127]	31627
Top	28611
독설	26703
연약	19671
피츠	15902
개당	29762
유심	30250
승승	18543
##에고	30351
##콥	2986
FI	10036
항로	13075
미시	14989
사라지	6293
공매	24841
간식	8381
##고리	9159
대형	4477
간격	10232
모인	9447
마르크	25678
저버리	23400
이어졌	6907
인체	8946
포탄	21420
허둥	21823
농원	28552
##너스	11222
헤어진	20089
앤더슨	25954
일으켜	10230
최태원	21574
원예	22833
튬	1811
밀가루	13712
국조	27983
뮤	1103
의사	4206
주어져	28660
의뢰	7358
##소드	11862
그럴까요	31255
트위	6883
피디	16510
이승	5955
과목	6292
##end	10269
정평	26050
##×	2930
석부	26068
유적	8995
전멸	27823
##썼	3391
##직자	8404
수선	18930
심화	7417
의무	5054
출석	8085
##람	2383
방통	10491
픈	1879
143	16771
끄덕였	10935
인회	19249
복안	20913
어렸	9852
군산	11080
결손	23091
02	7255
발찌	29242
임금	4654
세일즈	12748
다산	15803
'	11
[unused7]	31507
되레	28180
지진	7163
##oduc	18211
남양유업	25665
##que	19958
수목원	18884
##ax	16608
실래요	30175
국행	28261
1300	13849
##계리	29729
##눕	3152
##ization	17906
선착순	13201
저절로	10886
끊긴	26339
다이어리	22702
900	8389
[unused120]	31620
도인	25334
기침	13394
엿보	12814
진실	5352
어필	15984
308	30970
최저임금	11041
올리	4705
도망치	14737
윤활유	29063
수요자	11416
뜯어보	30716
[unused213]	31713
슈	1312
파트	6237
스모	19572
예상	4045
들어간다	10303
ph	17472
##이브	7467
##드로	9335
녹취	31008
##받	2757
##벤트	5020
생길	8238
##지사	6721
##스티벌	7800
He	13472
공대	12808
뜨거워	19195
도전자	26804
교우	29265
비상시	29142
장려금	20023
솟구	18106
장시	30579
대리석	21252
렸	988
실내	6502
친문	26688
보유	4747
셀러	27007
누르	8353
핵실험	10609
정치국	25677
반가웠	29837
신세계	7387
햇살	9778
단비	21470
미로	21771
굶주린	29638
인플루엔자	15815
새로이	17029
노벨상	18133
카네	18575
물러섰	25128
종횡	30166
##문트	30280
총회	6302
김황식	30144
場	302
대원	8041
똑똑	9724
파동	11344
ARS	26659
본디	26791
##까	2299
웬만	10952
꾸짖	18260
애써	11490
교시	19468
쫀	1614
진입로	25328
인색	20844
백과사전	27113
IFRS	30761
내정	8321
메달	10022
한국인	5691
##육	2193
해물	15264
휩	1955
오른발	18934
##둘기	16715
내려진	20752
볼보	20837
1938	21763
##ial	9083
실무자	15809
이병	8940
뽑혀	30545
배변	26582
도이	31262
후기	7541
주의	4924
세자	11841
보건복지부	12484
침착	12050
##자스	30427
##소리	4050
스며들	16546
신학자	19907
테마파크	12817
자타	30325
불매	22507
시차	19168
춥	1677
일주	16164
포메라니안	26054
쓰레기	6614
교수	3865
젊음	14835
정확도	23243
##tern	11460
sh	12437
임대차	15151
내용	3800
문지르	26525
양평	12525
단신	25751
지대	6732
타이거	13136
살균제	19462
본다면	9969
예사	18311
##심	2361
일곱	7843
망설임	23165
수레	14190
죽임	24783
미사	5664
##하하	22197
재수	10970
진동	10063
##ance	13399
[unused367]	31867
예순	29704
강직	30767
진행자	16377
윤석	12024
인다	19519
농림	10354
흔들릴	23298
##otd	22923
순찰	13267
소피	26451
할지	5066
돋	851
돌아갈	10409
서한	15675
만물	11834
채권자	13967
밑천	30302
앤드류	30505
학업	9079
땅볼	19074
메리트	29751
반년	22918
알카	28207
##생활	6894
준다고	11220
윤활	22708
발색	30535
의견서	24643
##싣	3531
트리플	14448
##라치	24087
[unused476]	31976
꿀맛	21202
브룩	28488
191	6874
휘둘렀	21993
[unused474]	31974
실수요	14442
캐릭	5669
氣	410
##트럼	23335
추위	9747
민원	6710
제전	29018
평전	31470
##소시엄	11891
잠식	17654
##led	23856
금년	17008
原	271
요양	9522
##Q	2681
##착오	17399
골머리	25163
프라하	25748
문맥	22512
하지만	3696
정근	23870
사계	14683
교육법	26351
모일	30064
쇄	1290
불안	4732
공경	22056
채광	25716
[unused381]	31881
발각	21306
수진	21727
쥐	1573
충성	9394
##마는	16605
강림	25961
는다	3684
떠오른	12325
##흡	2975
##아보	15792
따름	12833
이남	18613
다짐	8532
##LS	11039
뻔	1211
재발	9484
받아	21372
노파	18261
그럴	5014
어우러진	14581
속속	10247
마스크	8979
비화	20952
UV	27109
[unused214]	31714
작업실	19121
투박	23997
태후	24721
##멕	2713
돼온	27383
거쳐	4811
st	7982
즉흥	18915
##엑스	11812
천박	24792
포탈	24825
걸쳐	5314
성상	31035
문파	29340
동생	5565
##bps	25676
모아서	17359
430	21879
Cl	12220
올인원	30731
[unused13]	31513
팬클럽	25959
컫	1713
매료	18879
##딸	2905
늘렸	12828
##anc	15195
##출산	12506
##73	24395
선호도	13970
협정	6323
##훈	2034
Mus	26592
행위	4191
박연차	24551
장남	13466
##항	2421
첫해	16230
청소년기	25180
[unused281]	31781
tr	17619
대검	12401
슈타인	31107
##났	3166
통풍	18426
토리	13312
##tim	26195
심상	10383
##HS	30939
설계사	16676
프랜차이즈	10024
어머님	11650
생성	9600
적극	4133
##륨	3060
뒤집어	17187
언약	28011
옵티머스	28881
타락	13562
도장	11208
커질	10472
죽인	14273
부식	20401
개구	29779
봅니다	7324
##man	9811
본청	23062
륙	1014
영업자	30793
부러진	25005
쌤	1344
한중일	31074
FC	7992
넌	746
##3	2195
떠오르	6949
입문	12464
109	13880
밀폐	22695
둘러볼	29048
一	213
##ㅜㅜ	11863
다독	20594
버릇	12472
후폭풍	17958
포맷	22760
##으로	6233
[unused32]	31532
궈	626
진피	24458
중형	11731
덜	834
렘	978
##댓	3315
습격	15324
주효	21862
변속기	24823
무얼	18222
신앙	6635
질러	16361
알아냈	24492
경각	21745
##러웠	13929
배드	14601
후지	15321
눈여겨볼	26170
##29	22794
바나	11810
툭	1802
서쪽	9519
등장인물	16320
라라	19532
반반	22459
나락	25584
##보도	27963
##ub	8438
대법원	6739
득세	30140
시공	7986
##하나	8705
##쿠스	16420
맞이	6644
曰	383
차질	8436
리부	26789
폭설	18715
메웠	31009
##문화	6977
프랜차	10002
바비큐	26105
불이행	30074
가브리엘	28866
##젝	3120
부록	23611
그런대로	30243
개구리	13761
특위	8641
흰색	12003
조계	15102
##데자네이루	27067
분명	4288
290	20576
최애	25547
파묻혀	31324
씽	1375
💕	1999
군민	11697
일감	14677
바짝	11802
㎖	204
소말리아	27600
실생활	19035
개도	16789
빵집	15564
편도	20390
체육	4856
##셔리	14325
##ution	16803
포섭	23446
아린	27193
##절	2373
빚어지	20919
충북	7249
##직원	6117
테크노	11407
오이디푸스	27240
놓아	17667
대한항공	9435
##납니다	15711
##국장	16323
거룩	15174
##훌	3252
로	991
인지도	11448
[unused354]	31854
꾸밀	29965
사변	23936
也	224
멘	1067
취득	6278
위법	10385
나타낸	15937
이근	16576
국방부	7006
어장	26206
##ress	16304
성형	9252
난관	15924
##테랑	11916
에너지	4291
MMF	31085
간신히	11550
Time	28748
[unused164]	31664
##짭	3357
비상	5506
관리비	15013
화끈	15652
직선제	20269
서북	17183
하반기	5860
어의	29517
보험료	7104
장려	9889
기상	7179
돋보였	21486
당초	6051
부진	6043
얼마	3943
층	1688
홍문	22033
응답	5483
둬	871
동진	28914
가렸	29543
##팥	3138
대목	7063
스포츠토토	18887
성냥	24138
##들리	19427
周	285
튕겨	24178
스노	13249
어차피	8489
No	14097
내보냈	22199
保	239
288	29653
전혀	4366
##게임	13960
이를	8345
봄	1165
##골	2501
노을	18343
이선	16094
민지	23146
##urn	23513
영결	24061
##내믹	25680
잡티	27085
a	68
##7	2254
왔으니	26390
뭘까	16273
경진	18425
##수수	7433
익혔	24419
꽝	686
에이전	17070
##떴	3484
##템	2643
1937	20533
울산	4595
[unused81]	31581
학술지	19179
비범	30544
허용	5358
모르	3926
##리어	5859
포진	15325
BT	24305
스트로크	31007
어긋난	25485
폭행	7694
문양	17110
소매업	28577
인데	3933
##evel	16753
共	252
철학	4825
문답	25053
히어로	12717
못내	28504
##≪	3177
완결	19396
변함없	21354
##꽂이	29350
트이	30458
My	21070
후안	25345
최	1670
😍	2002
개소	7988
이름	3934
##지역	17552
개미	12646
##평동	27334
集	528
확대	3989
인산	25467
[unused232]	31732
##슬기	27598
꼬막	25651
[unused91]	31591
과정	3747
WM	26120
물병	31162
나왔	4225
상임위	11696
완고	28805
소비	3963
입점	9536
##캘	3424
참된	17825
뭉클	22496
138	17080
억압	8538
안일	22365
가	543
%	9
##잘것없	28234
생겨난	16062
적용	4121
;	31
규범	9129
무너져	14268
짭	1601
안상수	17557
낙오	29205
지하철역	22742
달했	9819
풀어	22457
##암리	26121
토하	19959
후계	12283
##봤	3072
작자	18615
공로	11435
##샴	3182
변경	5131
양태	22194
사명	9331
##바키아	29772
##ill	8207
##턴트	13768
아이언	14424
인도주의	25898
알렉	10662
##졸	2441
##포츠	4474
워터	9478
감가	23957
꺼져	18697
未	391
느냐는	8925
김현	7586
골문	18177
아우성	22999
매니지먼트	18913
송도	8501
[unused345]	31845
##스트리트	14698
와우	21551
장제	25464
해상도	25515
imp	27692
어려웠	8503
아름다	4689
임진왜란	15294
도약	7342
##클레스	24609
블록버스터	22310
##옷	2428
그늘	9954
##푸르	22449
마돈나	29557
왓	1457
113	14468
고백	7473
##댕	3180
브이	16277
벌린	28658
허리케인	17833
선착	11035
후반기	12668
안철수	6577
게끔	11634
##문학	28963
SKT	19963
[unused407]	31907
##굳	3087
인화	21852
호재	12087
고선	18165
해운대	9568
##자재	14644
좌회전	27182
방어	6152
보름	10454
##늉	3539
후작	17320
꼽	680
##암동	14817
저널리즘	17197
교단	14612
##ia	7856
##퀘어	13720
명언	27525
[unused439]	31939
##데르	25537
외래	13832
왔으나	19142
제리	21767
떨어뜨리	13537
스티브	14004
##나갈	24981
녕	764
die	28908
굽혀	29742
##슬로	28214
파출	16134
였을	9835
시킨다는	13858
저번	14247
##흑	2503
인용문	30851
기에	5871
달마	29864
천문학자	30865
총각	17826
##뇌	2650
여덟	9152
원미	30223
자선	13895
비좁	24689
지멘스	31254
근력	16598
스완지	31312
까마득	26667
특기	13482
노령	17692
원산	11911
[unused321]	31821
[unused429]	31929
##자와	31405
빠질	11212
획관	23015
##거슨	23407
술집	11285
예술	4145
숙여	16894
교과서	6056
##b	2040
##라리	7184
납	724
영호	19107
이글	20882
지구대	22811
석탄	9817
개헌안	20975
첼로	22836
정론	27335
ELS	14324
기출	21216
상위	6298
이젠	7194
빠져나갔	20550
히틀러	13405
리허설	23416
버금가	20426
칠월	26641
249	29827
은행장	12142
큐레이터	24221
열풍	9441
지녔	14689
[unused154]	31654
代	231
병마	25956
기본급	23791
이따금	16128
NBC	27877
성서	8344
저렴	6206
대낮	20841
다기	23270
후쿠	10440
[unused202]	31702
미네르바	28872
가운데	3850
맛봤	28650
누구	4061
끼어들	15897
캐스팅	11777
더니	4355
무서워서	24304
장지	21209
마포구	15680
상대편	25762
陽	527
##응	2026
부천시	18885
향신	27441
God	26012
##펜하겐	30324
콘텐츠	5156
##텔	2659
손잡고	27056
결석	23161
##팀	2628
민속놀이	31267
괄	607
지자	5407
늘어	12861
부장	5137
평화상	24642
촛	1667
냉난방	30784
좁	1557
피폭	29669
사이버	7414
수렵	28785
[unused185]	31685
차관보	21810
수은	21028
속인	24525
김봉	25392
취합	26683
거장	14794
##뾰	3290
일격	27493
동급	19097
##버스터	22050
콧물	23921
이슬	7055
평양	7141
구치소	19838
##리사	24168
감수	8561
평등	6381
나위	16360
##our	8330
목재	13879
외압	21686
Eur	23569
[unused103]	31603
업무	4148
올리브	11962
##air	18529
안겨	9805
진두	23788
중재	9204
##사채	28374
체념	21274
cl	17085
##ors	21073
##다녔	13258
##주군	14665
미스터리	17477
상대국	26724
l	79
##오피스	29776
##라이나	18510
KB	5907
심할	23786
전업	17501
운전사	16299
AD	13965
경우	3640
기부	5546
잘라	8533
공연장	9978
DB	16731
암반	30640
매입	6130
엄밀	20937
끊어진	29614
제고	7928
스킨	9497
경산시	29731
육지	13356
##FF	19548
김해	6967
풀린	20541
##스트로	26169
##유진	24663
其	254
기사	4420
LTV	24771
수빈	22180
대원군	22565
설교	11437
랏	948
##묘	2543
##빔	3388
탄탄	9110
차기	7780
씁	1368
도교	17348
이순신	10661
추종	13588
6500	21629
우회	10532
대의	14006
던전	25352
가져다주	18367
북유럽	19385
무서	6338
퍼붓	19291
조리	8036
떠올릴	23765
손잡	11627
노리	7838
##부인과	17715
##태영	19921
##딱	2587
추스르	29093
데카르트	23106
널	747
유언비어	29266
전체주의	24680
파이팅	21317
놓쳐	22719
표정	4879
팥	1836
해져	9203
융통	20219
민회	22880
수산	8753
보일러	15936
##맞춤	15983
꽃미남	30645
일조	12980
부끄러움	18708
감도	20256
머니	11447
내세울	23954
대화	4386
누	778
[unused187]	31687
떠나	4614
못해	5794
뽐	1219
밑거름	19794
발육	29561
##OA	28072
스타크	27599
오드리	29519
노장	20889
제수	22119
성년	20649
법률	5075
★	158
골밑	22970
宗	318
##룽	2826
88	7215
##플레이	6296
사복	30082
더더	13427
화폭	30639
프렌즈	22598
매뉴얼	13336
수변	18186
키스	9236
결심	6875
렌지	30982
이부	27754
구성원	6719
신동엽	29104
두드	7357
가져가	10068
市	335
건보	30528
언	1408
##og	6128
벗겨지	30854
빙그레	19932
달성	4994
각막	22629
규모	3849
발의	9770
자지	30956
##카도	23826
지음	11655
##어야	13091
미즈	22801
한화그룹	19442
정아	30503
林	396
1934	23398
폐차	30622
기발	18792
사회단체	11442
고구려	7733
앙상	16307
뱃속	16746
##생명	11729
실루엣	23768
한용	30538
앙상블	20363
##어붙	8432
고운	13969
베트남	5713
보인다고	18819
일으킨다	21234
인접	9355
con	10190
성동구	24482
돼야	5615
축복	11503
720	24524
우미	27179
안내판	26389
관로	31481
장진	27014
터무니	15701
대한민국	4892
성립	7888
테니스	11547
거듭나	12708
근	638
그랜저	21029
가급적	12715
아파하	27473
군자	17380
생가	20607
펀딩	19342
차명	14707
##룡	2664
상도	22988
행방불명	30386
티	1819
；	1987
지프	22160
부도덕	26126
냉전	11941
교전	21220
답보	30435
議	500
##카페	27894
##불리	14626
시대	3891
지하수	15574
종편	13042
낙타	21832
조아	15015
##웹	3259
UEFA	24697
이루어진	8613
Man	13633
젠더	21940
신파	27137
196	4978
##ue	9255
캐스	11102
네이처	18897
애칭	24733
##날두	17120
시공사	11773
YS	25746
퐁	1867
양천구	22834
해했	18471
여고생	20415
한대	26404
허니	17945
교통량	23743
빅토르	25640
실권	30134
공사	4079
테크놀로지	17333
使	236
sc	19700
이효리	22476
슈틸리케	20301
주장	3831
경품	11539
어렴	21398
자궁	11929
번들	25720
돌연	12734
유형	5563
가라앉히	26345
##갑	2141
프리킥	26860
패러디	17566
아브라함	22296
잡	1523
긴장감	10327
나비	10577
BB	16029
목소리	4243
##칭	2672
도당	11502
자화	19338
휘둥	28422
마다	4009
칼륨	31117
생긴	5448
감춘	26811
##어나	3829
##OL	29091
주물	21642
흐지부지	30772
재일	15854
삼키	17314
스몰	23418
부인	4675
짬	1600
03	8235
[MASK]	4
저급	30935
알맞	13070
빗장	30368
불현듯	25505
##얇	3527
LO	24678
Sec	22105
손아	18063
시그널	25572
##휩	3595
휴학	25137
시작	3670
갚	556
##amil	27538
서장훈	27993
나타났	4432
김일	8877
체격	18456
오른팔	27672
##낚	3080
##oll	9631
백신	10098
동결	10937
헤라	17351
강도	7514
세정	16257
수첩	11612
그때	4190
person	31016
전송	10291
좇	1559
주전	10358
수강료	26156
1920	12575
전라도	14329
sk	31344
초창기	16610
엠	1425
떠안	17688
렉서스	20700
제회	25618
##너지	4125
##클라	24818
봉중근	29551
##링	2557
링크	12337
이즈	19636
오리온스	19712
완비	29612
내저	30894
어마어마	13751
在	296
춘향	16873
고속	5517
##업소	19155
대공	15982
##롯	2877
셰일	24849
##튼	2677
이롭	26203
동명	14807
##서트	6479
##히로	26445
[...]
