Ġpriorit	19086
Ġahead	4058
Ġlate	2739
athon	12938
ĠAlan	12246
current	14421
ĠBennett	17468
ĠMonte	22489
Ġdenied	6699
eworthy	25969
Ġnumeric	35575
Ġmed	1117
ĠJohnson	5030
players	32399
Ġquantity	12040
Ġmig	37011
ĠBerg	24626
Ġsafer	14178
Ġpriesthood	33060
Interface	39317
ĠMexican	10816
relation	49501
employ	7033
Ġcleanup	27425
Ġabsent	13717
ĠOkay	16805
Turkey	31632
ĠMourinho	28689
Ġfisheries	41440
Ġresil	20036
anging	4924
ĠHalifax	34438
bis	41907
Ġliberated	35112
SY	23060
GC	15916
ĠBarton	32342
Custom	15022
Ġthrew	9617
oria	7661
Ġflask	42903
Ġdeployment	14833
Intern	15865
ĠAnthem	43192
Ġtriangles	44360
meet	47745
Multi	29800
cert	22583
Ġinnocent	10218
Ġconvictions	19131
Ġpledged	16387
Ġmechanic	21600
twitter	6956
403	31552
ARA	24401
izer	7509
Ġsurvive	7866
>>>>>>>>	33717
ĠMBA	45517
ĠTou	23359
Ġinternational	3230
ĠEdison	37448
Ġstew	20798
Ġdemos	35551
chio	40900
Ġbribery	37388
istered	23187
Ġboast	28020
Ġcriterion	34054
Ġbright	6016
Ġaiding	37221
ĠBernardino	35680
acho	43703
Ġdowntime	45832
orth	1506
ãĥį	44916
Ġpseudonym	48129
001	8298
Ġtranslate	15772
AMP	23518
Ġhealthcare	11409
ensible	27339
Ġquoting	28411
Ġinformant	35710
Ġ840	48777
Ġidentifiable	34450
Ġmid	3095
rypt	6012
nerg	25649
ĠContent	14041
Ġchlor	20207
Ġdistinctly	30911
femin	33594
Ġdegrade	42962
Ġ352	44063
Ġox	12018
Force	10292
Ġpatriot	29408
iable	3379
Ġnorthwest	24821
Ġ1957	25177
ĠKaplan	37105
Ġ+#	43053
Strength	45027
Ġmortar	29871
1982	30763
ĠJuven	48113
010	20943
reference	35790
Ġinappropriately	49190
ĠHera	23480
Ġprocessors	20399
763	49641
Hunter	38803
Ġelectromagnetic	31094
ipop	42800
èĪ	48958
Ġhears	23180
ĠFIR	23703
/.	11757
Ġremained	6150
Ġsubsidies	16230
Ġanomalies	35907
SUP	40331
lasting	24810
Ġcounterproductive	46674
Ġestablishment	9323
ĠMade	14446
Ġconced	15096
ĠParsons	35925
Ġshore	15191
ĠCodec	39298
ĠPark	3250
ĠPrince	9005
Ġcheapest	28918
Ġdiscour	15117
Soc	37949
ĠBugs	44991
ĠÅ	25370
WARE	33746
Ġhomes	5682
crafted	39160
Ġunre	14880
ĠShaw	18193
ize	1096
ĠAsset	31433
ĠRob	3851
Ġtheaters	20550
Ġreservoir	22115
Ġchanges	2458
ĠGil	10689
End	12915
Whether	15354
ardi	22490
ĠNarendra	28113
Ġconfidence	6628
Ġimpro	2015
ĠStevens	20019
Dual	36248
name	3672
effic	24531
Ġmodifying	30620
usable	31979
Ġpenny	26369
Ġdump	10285
Ġlibraries	12782
Ġoffers	4394
ĠGran	17113
Ġautumn	23608
Ġcycles	16006
Ġglac	25169
urs	1834
|	91
ĠDear	23420
Ġfooth	36522
Ġsuppressing	41895
ĠReading	11725
ĠPend	36865
Ġstriker	19099
ression	2234
NR	24723
ĠLearned	38514
ousy	41808
681	48564
battle	38471
Cart	43476
Ġ3000	20343
yrus	21180
ĠInvalid	17665
Ġviruses	20547
Notable	45533
Ġhereafter	49912
Ġdeath	1918
Ġconfigure	17425
ĠTaxi	49227
yrics	14279
lied	18511
Ġdivul	43373
æķ	46763
ĠNT	24563
ĠEmacs	36447
Ġincarcerated	33946
renches	33650
Ġantip	32867
heon	37060
Ġgland	37917
Ġexpr	44052
odge	9728
Ġpops	26384
allo	49457
ĠSag	25605
Ġdystopian	49483
Ġillegally	15572
Ġprogressive	10393
Ġoccur	3051
post	7353
ĠOpposition	29560
Ġpacif	47617
higher	46503
ielding	30449
ĠJSON	19449
Ġdetox	44674
ĠCatalan	31066
ratulations	30167
scar	13034
ĠURI	43975
OK	11380
Ġnarrated	46190
Ġstitch	24695
Ġsigns	5895
Ġirony	21296
ĠYin	37201
Ġtrain	4512
ĠFT	19446
Ġsuccess	1943
ĠInqu	17193
å¸	30585
d	67
Ġcomforting	34228
ige	10045
basic	35487
224	24137
chanted	28923
ĠWeek	6119
Ġflash	7644
Ġhosted	12007
${	38892
Ġrevise	32548
ĠMikhail	42040
Ġinvincible	46038
Ġawoken	43532
Ġbewild	34672
amaru	46893
ASHINGTON	19436
Ġantagonists	50178
Ñ	141
osal	40725
Ġ18	1248
ĠLikewise	22660
Ġfort	6285
ritten	9108
Ġtransf	13501
ĠTrinity	22844
Ġproliferation	25068
Ġexecute	12260
https	5450
ĠMotor	12533
ĠCam	7298
ĠRifle	19685
Chris	15645
Ġfuse	32738
Ġbrightest	33871
iki	5580
Ġextend	9117
ipple	18793
arat	34174
ĠAdv	8007
ĠKendrick	38643
ĠSerbian	39619
agged	14655
Ġcloset	21615
quickShip	39752
ĠGoff	44572
ĠMoroccan	49323
Ġepigen	49651
Ġmy	616
Ġintercourse	22409
Ġdeport	29489
Flag	34227
ĠFaculty	35262
ĠSatisf	48168
Ġamazed	24562
ixon	12305
Ġcalorie	28740
->	3784
Ġscars	31109
ĠSuffolk	45034
IVES	42472
iph	13323
Ġhusbands	27742
Ġpatented	34824
Ġreluctantly	35462
Ġirreversible	43635
Talking	45904
Ġ176	26937
ĠDrama	30647
Ġ401	22219
ĠOlympic	11514
Ġpetertodd	37444
ĠCOMMUN	48811
Ġovercome	10980
illi	50173
iably	18745
Ġissue	2071
mitting	16138
Ġsacr	7687
ĠFi	23238
Ġslapping	48966
Ġalterations	29858
Speed	22785
aeper	28235
Ġgr	1036
Ġnat	34664
ĠTHESE	48947
Ġ=================	36658
osta	39818
Jess	34648
Ġcervical	36012
Ġpleasures	35396
Ġâī¥	26870
ĠMood	25723
Ġplag	19640
ĠBoolean	41146
Ġcould	714
ĠChief	5953
istance	9311
Ġ625	48868
____	1427
ĠTaj	32490
psey	39070
Ġmarching	26409
Ġseparate	4553
Ġdiscussed	6693
ĠCanadiens	33664
Mrs	27034
Studies	45833
Ġurban	7876
kit	15813
ĠMagnet	32079
ĠRelax	46883
Ġlegalize	35605
ĠStruggle	49460
Ġjarring	47300
cyclop	22873
iltration	36055
Ġgreatest	6000
Ġscrew	9580
Ġpublished	3199
Ġlocal	1957
Ġcomics	12770
Ġstrides	35002
ĠLOC	37347
adden	38014
Ġ220	15629
ĠJinping	39823
ĠKirk	13855
ĠKerr	32879
ĠMillenn	19007
VT	36392
ĠPyramid	41450
Ġathletics	35691
Ġspilled	31896
ĠNode	19081
Stack	25896
Ġbattled	31472
Ġvolume	6115
ĠOath	37838
Ġcopyright	6634
Ġbeloved	14142
arm	1670
unciation	24978
Ġdevast	9884
æľ	17312
Ġwebpage	35699
Ġfountain	29420
ĠRiy	33542
Ġtaxes	5704
ced	771
Ġgiven	1813
ĠLee	5741
Ġregularly	7987
choice	25541
ĠMeet	21167
mem	11883
173	25399
Ġold	1468
Ġattained	28681
ĠCG	29925
Ġdc	30736
Spell	31221
aze	6201
IQ	33866
azaki	32276
classes	37724
ĠRoma	29600
Ġprox	14793
rig	4359
ĠGender	20247
volt	37764
ĠBret	39420
ĠAvalon	39600
ĠGaal	41308
ĠPeng	42341
Ġvolunteers	11661
ĠCoup	43156
Albert	42590
north	43588
sm	5796
ĠPension	46391
received	47844
ĠGohan	45281
personal	22682
riors	8657
ĠCompetitive	47665
pol	16104
iths	47252
ĠMTV	31214
ĠProced	23652
Ġrespectfully	41177
stellar	28732
ĠMSM	44401
Ġcaramel	32913
Ġfucked	20654
ĠNeuro	13782
Ġflourish	31147
romeda	32291
amel	17983
Ġfandom	35387
thora	34261
Trade	35965
Ġsarcastic	47037
ĠAaron	12139
agonist	15239
ĠIdle	37130
ĠPorsche	28367
ĠPM	3122
Ġvendor	18371
agh	10471
Ġafore	18036
Ġtandem	32969
ead	1329
ĠZhu	33144
Ġfashion	6977
ĠHighlights	30776
Ġretrospective	41432
ĠBits	44733
oys	19417
Ġoccupy	22265
Ġenumer	27056
utes	1769
imedia	20626
mr	43395
ĠGuardian	8283
ĠTOM	41526
Ġstyled	45552
ĠSimone	47592
Ġadorable	29012
pty	5835
ching	10813
uits	15379
Let	5756
Ġepisode	4471
ĠKavanaugh	21195
Ġprofessor	6240
Ġalerts	21675
176	24096
ĠAmen	34717
Ġtokens	16326
Ġdelve	39130
Ġ1926	38525
pee	39463
çĲ	49426
Big	12804
Ġscored	7781
isk	1984
Ġresigned	16542
deb	11275
Ġmilitar	28131
ĠRevolutionary	28105
Val	7762
ĠLug	31541
ĠSpartan	34527
Ġunlocking	39052
Ġsuccessors	41491
endiary	43034
Ġdisagreement	25800
rid	6058
Ġportray	10993
Ġsetting	4634
ĠMystery	18208
ĠEvents	18715
ĠFarage	33904
Ġqueens	38771
Ġleaders	2766
Ġpolymorph	34196
escription	7260
free	5787
ĠByrne	38245
Ġgiant	6175
NVIDIA	38021
oeuv	37600
1994	22666
Ġcig	8594
Ġore	23751
ĠFilms	30198
bin	8800
Ġdiscard	27537
seller	32932
Ġenriched	35601
ĠStyle	17738
Ġundermined	31256
ĠGray	12723
Ġrecording	8296
ems	5232
unts	34115
Ġreligions	18879
Ġconsuming	18587
aks	4730
ĠEss	11985
oi	23013
Ġrevital	32951
ĠÂ©	10673
Nine	37603
imil	26641
Ġoutset	30761
ĠFAM	42129
Ġdotted	38745
Tan	45557
osc	17500
ĠDevil	10489
ĠRadius	48838
Ġlivestock	24424
ĠPaladin	26693
ĠFalk	32164
warn	40539
uning	46493
Ġcamping	22498
Ġpaving	47711
Ġprem	4199
chers	3533
Ġdiscrete	28810
Ġindebted	37816
Ġbackpack	22526
Ġarchetype	37942
Ġfamed	28331
oglu	49006
ordon	9999
Ġriver	7850
Ġrepresentative	8852
ĠBranch	20551
Ġstorytelling	23689
Ġethos	39676
pedia	50235
SEC	23683
Ġprecisely	10582
Ġentitled	9080
aine	5718
Ġblindness	37673
Carter	49958
ĠPakistan	7648
ĠChristine	26088
Ġassembled	16030
title	7839
rha	30268
onal	20996
ĠDungeons	25461
Ġwarp	25825
Ġtherapists	39395
Bed	45896
880	41655
Ġlineup	12750
WAY	27285
ĠOffense	43824
FLAG	38948
Ġbucks	24780
ĠApr	2758
Ġtaxpayer	14776
ĠAless	47319
Ĝ	216
UME	38340
Ġsulfur	37402
Ġcharcoal	33512
ĠReyes	40599
ĠKron	44732
ĠMiscellaneous	46253
ĠCanadian	5398
Ġera	6980
ĠBis	38045
renched	23437
Ġ450	18523
ĠParenthood	18461
Ġmillennium	39210
Ġ1973	15674
Ġweeping	45705
Ġdistraught	48629
Ġcomeback	21933
70	2154
Ġthink	892
Ġproblems	2761
Ġresist	4180
Ġanaly	4284
Ġpiss	18314
Ġassemblies	37398
icut	13554
thank	40716
ĠKafka	46906
lock	5354
Ġdispers	39895
Setup	40786
ĠFreeman	22394
Ġrejo	30668
stown	27928
Ġpassers	45378
isal	28456
ĠWrestle	41137
xton	22874
Ã¯	26884
ĠParties	32024
Ġmachine	4572
aur	2899
ĠFR	8782
Ġok	12876
Ġvinegar	26600
ĠVERY	29550
ĠStro	30183
imation	18991
ĠExaminer	35855
Ġunusual	8468
ĠTwisted	40006
hiro	49907
Ġdumping	30231
ĠBarbarian	38946
ĠKristen	44467
agar	32452
Ġadul	19046
Ġreassure	37762
Ġagreements	11704
Ġ318	39320
ivo	23593
Ġdifferentiated	47543
anda	5282
ernaut	37879
orrow	6254
ĠPratt	34780
ĠSaudi	7420
ĠZoo	21980
Ġdevelops	21126
ĠLone	23405
Ġkinetic	37892
brow	25367
596	45734
agents	49638
rons	12212
Ġcloudy	40026
Ġfasting	24845
Ġlav	21606
Ġseason	1622
Ġconglomerate	50240
ANI	43664
ĠDeliver	43371
Help	22087
Ġseed	9403
early	11458
ĠEngineer	23164
Ġaven	27968
ĠAsc	29469
ĠAwesome	25020
Ġattent	32649
";	8172
Required	37374
Ġportraying	42458
Ġlyr	47188
ĠMagn	14872
ĠBaseball	17362
Ġextract	7925
Ġpretended	36766
hedral	21962
ĠShaun	35188
shots	20910
Ġflexible	12846
ĠTOTAL	36247
acter	7321
Ġkeys	8251
Amount	31264
Ġearning	13748
gear	31763
EE	6500
ĠPrayer	33189
qu	421
ĠCarolyn	43450
Ġprepares	25978
Ġghetto	46482
ĠSpeaking	21393
ĠPresence	46523
Ġtrilogy	26298
umblr	15566
ĠStreet	3530
Ga	35389
ĠSorceress	40672
ĠCLICK	49583
ĠStri	26137
represented	33469
Ġbounces	49623
eeee	41591
Ġwavelengths	45656
Ġgob	48484
urches	12730
Ġsubstituted	31601
arrison	22472
irty	5893
Ġsorce	32892
autions	28766
Ġwires	19474
Background	21756
ĠRivals	42307
ĠKi	21927
Ġ(_	44104
ĠSpears	45978
ulz	37314
ĠRouter	48538
ĠNieto	49783
Ġsits	10718
ĠisEnabled	34842
ĠDamian	42574
Ġbaby	5156
Ġexplanatory	44742
Ġslammed	21376
Ġmorning	3329
ĠBoot	18892
Ġblasphemy	41933
glass	20721
're	821
ĠTatt	36711
Ġteleportation	48285
okia	22903
roc	12204
Ġmeditation	16901
FTWARE	37485
ĠWikipedia	15312
Ġimprisonment	16510
Ġlob	6804
Stars	29366
Ġconsultation	18103
ĠScythe	45227
ĠOnes	32606
Ġcolumn	5721
ĠConv	34872
*****	35625
aredevil	38281
iece	8535
Ġyen	28808
ĠProtestants	41713
Ġbombardment	44022
ĠIslands	12010
ĠMission	12633
ó	175
lia	24660
Ġcatastrophe	27767
ĠSingapore	12551
Crime	45580
ĠSpecific	17377
Ġentry	5726
Ġboss	6478
Ġparting	44823
ĠBAL	48091
Ġtyp	2170
Ġcountered	32925
gent	6783
Should	19926
ĠSchro	47349
Ġmetadata	20150
ĠWI	29360
ĠRamadan	37604
agate	37861
ultimate	44818
Ġunfairly	30750
Ġappropriately	20431
ĠSeb	20639
Ġoverhe	34789
ĠMadagascar	46694
ĠHowever	2102
ĠBurk	37940
478	29059
364	26780
stones	28750
Pink	41912
itably	14829
mony	9926
Ġ2010	3050
hart	18647
male	22606
ĠGard	12790
Develop	19246
ile	576
Ġtum	11814
Ġ259	37831
ĠNets	27811
Ġplastic	7309
ĠKoz	40772
ĠUg	24384
rational	20310
edin	27152
Ġsa	473
Ġbid	8406
ss	824
hero	11718
Ġconversations	10275
ĠDos	43976
Ġtu	12777
Target	21745
ĠArtifact	45908
ĠSTA	47550
Ġpit	6028
Ġrandomly	15456
Ġsurveyed	20840
437	43284
otta	12375
neck	27235
Boo	46120
Ġprivately	17092
ĠBand	10243
house	4803
ĠEdgar	29166
ĠRye	45014
Summer	33560
Ġwiping	36906
ĠGrounds	44201
å¼	28156
ĠEmmy	33953
ammy	46736
Ġhoping	7725
z	89
ĠLith	19730
Ġuptick	46347
qs	48382
ĠWembley	49611
anism	48162
ĠãĤµ	38390
Ġminds	9017
þ	186
Ġintensive	18590
r	81
ceed	2707
ĠSly	31615
ĠMisty	47330
Ġhumble	19695
BALL	45463
Ġoriginated	20973
Ġendangered	22700
Ġsediment	33408
Ã	127
ran	2596
ĠZe	9033
Ġshouting	19642
Ġshortcomings	31731
ĠDiscord	39462
Ġcondone	48058
76561	48527
gre	16694
00200000	36490
Ġ169	27191
Ġ])	33761
Ġwhistle	16121
Ġwings	12098
vl	19279
Ġ\\	26867
ãģķ	43357
true	7942
bers	1213
Ġmodes	12881
I	40
Ġunclear	10061
ĠBrief	22821
ĠPlot	28114
ateral	10534
Ġquar	36343
angelo	46525
Ġattic	46113
irin	47388
Ġcrafts	28229
ĠUID	25105
Mexico	33006
Debug	27509
urrency	13382
ĠAmbassador	20656
ĠHumanity	35629
ĠFab	14236
ram	859
Ġnegotiator	49194
there	8117
rahim	26922
engu	13561
Ġarguments	7159
ĠRoyal	8111
Ġplural	22801
bee	20963
ĠKnock	29061
Ġrunes	32326
Ġwhisky	39501
Ġ970	40463
ĠGreenwood	42928
Ġpests	44283
ridor	44425
Ġunsure	22147
inals	6897
ÃįÃį	43569
Ġtaught	7817
Ġantim	37802
Ġbeginnings	33875
Ġforce	2700
project	16302
aba	15498
Ġstatistically	19941
ĠResident	22373
Ġlocale	36693
Ġpublicly	7271
Yellow	39499
Ġpatrolling	44518
ĠFork	39812
ENCY	45155
Ġdiapers	45162
Ġcomparative	29270
ĠThreat	25238
ĠHaving	11136
cerning	41981
ĠHills	14379
ĠAlphabet	45695
rek	37818
Ġvividly	46641
ĠCain	28370
ĠLancet	45122
ĠQuincy	46884
ĠGentleman	42112
enemy	46970
Jar	47511
stocks	29522
olog	928
Ġgroups	2628
Ġmercury	27394
Ġpercent	1411
ĠLang	16332
Ġclipboard	47999
HL	6581
Ġperiodic	27458
Ġ2	362
Church	46686
533	44994
Denver	49818
Ġhierarch	28398
Ġservic	37756
ĠGust	26657
ĠSpencer	15971
Ġinauguration	23166
Ġcrush	19813
Ġinternally	20947
ĠTPP	24322
ĠKre	25732
Ġhearing	4854
Ġè£ıè¦ļéĨĴ	25992
Roll	26869
Beaut	38413
EMS	39201
members	30814
ossal	33582
Ġacquisition	12673
Ġvirtuous	41276
roman	47119
Ġtearing	24447
Ġfollowing	1708
Ġintend	14765
ĠBegin	16623
ĠâĶĤ	19421
ĠYam	14063
ĠUnc	28304
373	34770
ĠLambert	36978
chin	24658
Ġrecite	46528
Ġdaytime	32899
rehens	7345
tta	25854
igation	7065
Ġthere	612
ĠCRE	29244
Ġscreenshot	22032
Ġheadquartered	48583
Ġcomposer	26777
ĠTutorial	36361
orum	19220
inary	3219
Ġauth	6284
olves	9010
Ġtastes	18221
imity	18853
äºº	21689
ĠAK	15837
ĠUncle	23169
Beh	25267
Ġcoming	2406
Ġobesity	13825
etting	35463
Ġtucked	29779
Brand	38416
Ġchang	1488
along	24176
Ġfoll	22752
MAR	40569
Ġbribes	39926
ĠShin	11466
tile	40927
Ġtimely	19376
alcohol	42142
Ġdamned	28911
ibe	32438
Ġdams	40907
Quite	44959
hot	8940
Ġanarchism	41661
Ġrc	48321
Ġpoisons	49121
ĠAFP	8916
nesota	8360
Î³	42063
Ġcommenter	46914
Ġbindings	34111
Ġshameless	41564
Ġtackling	26348
Ġacknowled	7333
ĠTasmania	46896
uracy	23843
resp	4363
ĠInstagram	10767
hered	6083
ilia	17517
ĠTickets	26878
Ġrisked	42179
Fer	43362
oslov	50005
ĠClockwork	47120
Ġtoxicity	28152
Ġexhaustion	32493
ĠCRA	33416
Ġfeaturing	9593
Ġconvict	38309
water	7050
Ġthank	5875
Ġbooks	3835
ĠOH	18723
Ġsubp	22718
ls	7278
ĠNeeds	36557
ĠBox	8315
places	23625
Ġvs	3691
ĠâĸĪ	23287
Ġcrit	1955
Ġcust	9378
Ġimagined	15758
Ġinsurers	24668
Ġbrew	9059
Ġsunset	26428
Ġpursuit	14748
ĠLSD	27483
ĠBlitz	29299
impro	32077
ĠStarter	37460
ĠV	569
Ġdepreciation	45980
iliate	49826
Ġdiving	23186
ĠAval	23587
Ġdecimal	32465
adv	32225
rex	21510
Ġdealership	44843
ĠRing	12569
Ġdeepest	25420
Ġmurdered	12864
ĠSantorum	34008
ĠPOST	24582
Ġcredible	18409
door	9424
ĠChairman	12787
Ġtopple	49377
Twenty	34096
ĠDOM	24121
[[	30109
Ġinsult	13277
nostic	43758
Ġrotting	44494
().	22446
1500	33698
ĠAOL	46101
Ġindividuality	48960
Ġpredominant	45718
ĠEvolution	15815
ĠLank	44824
Ġfielded	49407
Ġbuyers	14456
Ġpoorly	13455
Ġviolated	13998
icz	28051
Ġcer	26074
ĠShip	16656
Ġredirected	45158
ĠJas	21961
Ġresulted	8724
thin	40871
matter	47635
Current	11297
iphany	49915
AT	1404
updated	43162
103	15197
Ġeats	25365
Ġcombined	5929
ASC	42643
Ġworsened	44838
oci	1733
ĠBL	9878
Ġregulating	26379
seed	28826
Ġheels	18728
ayette	27067
145	18781
Ġclimbs	34332
ayan	22931
Ġnic	9200
flash	34167
Ġthreatened	8556
Contact	17829
ĠCharles	7516
Lean	35806
Ġcand	2658
Balance	45866
Ġinterface	7071
Ġsincere	17082
Ġninth	19646
Ġbrute	33908
Sold	33873
ĠSans	20845
amura	37324
ĠHabit	41950
Ġbookstore	44346
Ġrepression	28279
ĠSitting	46547
Ġclerks	44115
pr	1050
ich	488
ĠIw	44316
ĠSI	25861
Ġparticulars	45596
ĠJewel	29151
Ġvac	6658
ĠHDMI	25499
Ġplateau	38008
ĠViol	13085
Justice	28447
Ġ00	3571
Ġturb	14830
ĠSecure	26707
aternal	14744
Ġshaping	23610
also	14508
enz	19471
023	45310
ĠRed	2297
loader	29356
Ġapplic	2161
Ġnutritious	48102
inst	8625
agn	4660
ellation	28828
Ġ()	7499
Ġprosperous	32757
Ġassaults	21832
inatory	23132
Ġsparkling	39072
hair	27108
ĠsrfAttach	43065
âĢķ	31857
eenth	28117
livious	35260
AAF	38540
BSD	21800
Ġbron	18443
Ġloan	8063
itting	2535
ĠSR	16808
emies	5090
Ġcreated	2727
Ġscreams	26557
ĠPrevent	31572
packing	41291
Sword	43117
PU	5105
Ġreading	3555
Congress	25916
Ġmiracles	32904
bull	16308
Ġarises	22068
Ġby	416
ĠMayweather	38718
ãģ¦	28134
Ġ1964	17575
Ġtuple	46545
Ġsurpr	2827
HER	16879
Ġbob	29202
Ġgrievance	47645
ĠBrooklyn	12232
ĠLions	14536
ÃŃs	41200
~	93
Ġapartments	19592
Ġchallengers	49112
ĠAdded	10687
vell	29333
Ġfibers	26742
auth	18439
ĠPreston	34564
dain	27162
Ġcomplement	16829
trust	38087
ĠAwakens	39613
481	40271
Ġmigraine	50082
Ġboy	2933
Ġpistols	34793
Ġwish	4601
Interest	19302
abs	8937
ĠApp	2034
chi	11072
ĠArctic	15723
ĠCredit	10504
Ġsocket	17802
ĠAges	21449
Ġlowering	21683
CLA	16827
Ġrecipients	20352
Ġinheritance	24155
ĠPBS	30051
ĠSioux	37903
Ġhesitated	41723
Ġchest	7721
ĠBam	42167
ociation	41003
issy	36419
Ġkilograms	37075
eanor	17663
CDC	47667
ĠRite	47810
Ġvague	13443
ĠRobinson	12652
Ġadmon	37202
Ġ30	1542
Ġgives	3607
ogn	2360
usc	16241
Equ	23588
hatt	11653
////////////////////////////////	49704
Ġfederation	36986
ĠDag	32167
ĠAssist	43627
Ġimminent	21161
Ġpurported	23236
Ġloos	37222
Ġtheorist	46410
Ġ363	49327
Ġalbums	16788
ĠBud	10370
iness	1272
Ġdamaged	9694
Ġhectares	43025
ĠSana	44500
Ġflares	45831
Fle	47669
ierre	31058
Ġpays	13831
249	21626
CL	5097
Ġdiamond	15291
349	27371
broad	36654
etime	8079
oppy	26696
gow	21175
verend	37713
Hardware	49865
ĠHero	8757
Ġrenders	30111
ĠObamaCare	38195
orgetown	29085
Ġdiversion	34851
Ġmention	3068
nar	23955
ä¸ī	49011
Ġenchantment	43706
Ġresemb	11568
atable	21156
ĠRender	46722
uddled	32745
Ġconsumer	7172
Ġtremendous	12465
Ġarrests	14794
INGTON	17480
meal	28208
ĠMalta	35206
onen	34481
Need	23037
Ġbrushing	42798
çĽ	33566
kar	21070
ictionary	14188
Ġexperimenting	27826
ĠSpirits	30141
ĠTelegram	50203
Ġmut	4517
Ġmanager	4706
Prep	37534
536	44468
Ġbooths	45496
supported	15999
Ġkitchen	9592
Ġfeminists	22742
optim	40085
Ġreigning	40098
ĠFIRE	39110
ĠSomewhere	43808
ultane	9560
NOT	11929
Ġtransported	18665
withstanding	20701
Ġdifferential	22577
laughter	27815
Arch	19895
ĠEmerald	28909
Ġhospitality	33362
Mind	28478
Ġweakness	10453
crime	28126
Ġrepaired	27457
Ġthats	29294
Tue	41392
Ġdome	29500
Ġ358	41761
Ġscree	43465
Ġ287	38721
Ġdetract	31041
ĠSik	32615
Ġautonom	11827
Port	13924
Ġcreamy	27892
Ġmicrobial	36603
ĠGrassley	44050
ĠShowtime	47908
ĠNAD	49204
Ġlocality	48036
stros	48288
best	13466
Ġrecol	26330
Ġcaptive	25798
Ġ1	352
Seven	31334
Trigger	48344
Ġbrig	24393
ĠKoreans	25999
Ġhippocamp	28253
ĠDEBUG	16959
Ġconqu	20277
ĠJail	25715
Fe	14304
AU	26830
ĠDirective	34736
ĠFirefly	40374
Ġshows	2523
ĠRomance	36555
atum	21307
ĠBolt	21764
ĠTracks	42259
Ġmeltdown	37824
rotein	35574
sy	1837
Ġdanger	3514
oops	44860
ĠBuckley	41493
Ġindicative	29105
Ġmd	45243
Ġpneumonia	35647
ĠUSD	11403
Ġ];	28013
hemat	10024
Ġaudits	41973
Ġlinger	31402
Ġconsumed	13529
event	15596
Track	24802
Ġrepeating	20394
Ġpc	40653
Ġdrank	24070
Ùħ	25405
Ġslog	25801
ĠAgents	28295
Ġblister	40770
Experts	38897
Ġobstacle	22007
udget	29427
ĠEUR	27526
Ġgovernments	6905
ĠChes	28250
Installation	30838
Ġcongreg	30663
Ġdots	22969
Plot	43328
ĠDEM	40101
ĠRequest	19390
Ġexposition	45357
Ġpharm	10113
ĠGutierrez	48283
ĠSpicer	26242
ĠCellular	50072
Ġpessim	32277
behavior	46571
ĠPercent	22512
ingle	17697
Ġexclusive	8568
Ġsneaky	48930
Meet	29318
ĠLegisl	12288
Ġimag	3590
Bill	17798
life	6042
Ġ(#	17426
Ġswall	20301
Ġleaning	21804
ĠPeak	23974
Ġsupport	1104
Ġloss	2994
Ġju	7544
Ġgluc	14182
riages	16451
ĠMao	22828
property	26745
Ġdashboard	30415
Ġbliss	30533
ourge	14501
Ġdelivers	16316
retch	22592
gments	11726
Ġ330	25508
425	32114
Ġapproached	10448
ĠApplied	27684
ĠTara	37723
329	37967
Ġmanifestations	38538
Ġcombines	21001
ĠUEFA	40858
Ġnonpartisan	42157
Ġrevolutionary	12253
Once	7454
Ġdisqualified	40650
Ġverse	18527
Ġcodec	40481
ĠFounding	44593
LIST	45849
Ġasserting	33183
ĠPrompt	45965
Ġbirthplace	48145
Ġincl	13358
ĠRican	44459
Ġbund	12207
ĠBi	8436
>:	31175
Ġmov	1409
Ġreflect	4079
Ġ33	4747
Jackson	31270
cele	49840
icators	44549
ĠProtection	9985
Ġgasped	45236
ifts	19265
Ġkingdom	13239
ĠEp	4551
Ġdiver	12312
bour	6084
Ġimmortality	40079
href	33257
Ġlining	20883
Gender	41394
Ġtaboo	35899
Î¼	34703
ĠGes	45371
ĠÎĶ	37455
ister	1694
Ġtennis	20790
ĠUse	5765
abul	16665
Ġretrieve	19818
ĠPrescott	42555
ĠBank	5018
Ġbogus	33418
ĠTomas	42884
Ġneither	6159
ĠCLS	39241
udos	42418
cept	984
ĠAnthropology	50171
fire	6495
Ġnotion	9495
ĠReborn	37612
ael	3010
ue	518
ĠDEL	28163
vana	33175
ensity	6377
ĠShepherd	30890
ĠFebruary	3945
Ġconfirm	6216
Ġgroove	35096
ĠVs	31280
Ġcautious	21205
onom	6326
Ġsleep	3993
Ġcoaches	11070
esp	9774
Moh	38443
aus	8717
ographer	18539
izontal	38342
Video	10798
iberal	16813
Ġbang	20188
statement	26090
ĠKNOW	35876
ĠEn	2039
ĠMySQL	33476
Ġapproximation	40874
Ġwaiter	46612
Ġproblematic	15833
ĠCalgary	17842
Ġbound	5421
olid	10180
Ġinherit	16955
Ġrestricted	10770
istine	32248
ĠSuccess	16282
Adapter	47307
Ġcentres	19788
ĠSlip	49988
Ġquant	5554
Ġilleg	4416
308	21495
icle	1548
CT	4177
Ġballot	11100
psons	31410
Ġnecessities	41918
iciary	13556
itor	2072
Ġaccol	45667
Core	14055
allery	17022
Ġinsiders	31594
osp	2117
ĠInstit	37931
anye	23495
gur	45073
Pr	6836
Ġtransit	11168
inge	11912
Ġchoices	7747
iani	25111
ĠANG	33278
Ġrounds	9196
Ġmainline	50114
Ġaffidav	21637
Ġconnectors	34472
ĠMAT	36775
ĠAster	38484
ĠCPC	41190
Ġdisrespectful	41987
Ġdreams	10625
Ġpsycho	30731
Ġelecting	46913
Ġped	7190
ĠFiji	43676
ĠFer	12880
ĠLake	6233
Ġrake	47885
Ġind	773
Ġscientists	5519
Inst	6310
boro	21513
itus	17506
Conf	18546
ĠTurn	6756
anguard	23521
ĠTw	1815
CF	22495
Ġexpert	5887
this	5661
orse	7615
Ġunle	15809
ummy	13513
Ġinsects	19435
acet	23253
ongs	28079
ĠSprite	33132
Ġtoe	21189
ĠPrint	12578
119	16315
ĠJuice	35161
Ġfork	15563
Ġhelper	31904
Ġpedd	36145
ĠCGI	36378
notation	38983
Ġ90	4101
Ġantib	11310
mph	23335
âĺħâĺħ	28353
ĠHiggins	39043
Ġmsec	43242
Ġalgebra	37139
Ġnests	44382
ĠAboriginal	26432
ĠAble	45349
Ġstream	4269
ĠLAR	47211
Ġrabbi	47326
Ġ1850	35745
ĠLaden	19402
ascar	37740
virt	48940
pd	30094
Ġconsult	5725
ĠDeV	29619
cession	43914
ĠCHRIST	48354
Ġstricter	36602
key	2539
ĠRaven	12552
ĠSummon	19515
Ġhero	4293
Ġvacancy	39836
ĠUltron	46315
ables	2977
ĠCorey	24154
ĠEdwards	17381
Ĥ¬	8955
bial	25200
Ġsqor	36938
ĠHampton	36852
Ġdripping	37472
provided	41279
ogether	8236
atana	43777
melon	45690
Ġdeploy	6061
ĠINTER	23255
ĠBunker	44761
AUT	39371
Ġnorms	19444
Ġregrett	31649
Ġmultiplication	48473
Ġang	3550
Ħ	226
EW	6217
cyl	38801
Ġcommitted	5364
Ġradios	40023
ĠRon	6575
Ġfabrics	39533
ĠNurse	42724
Ġwr	1319
Gab	46079
ĠImmigration	18204
iframe	39621
iral	21093
ĠRomanian	34344
ĠFriends	14213
lin	2815
Ġdefendant	11304
N	45
ĠETF	31112
docker	45986
OTA	29009
ĠTry	9993
izens	44908
ĠMeth	39675
Ġ4000	30123
asley	30705
idious	33243
yle	2349
Ġsteps	4831
AIN	29833
Ġboldly	42831
ĠAlph	39805
??	3548
Mouse	39643
ĠYen	47028
Ġdime	37062
alid	10751
lifting	30510
ú	182
Ġbumper	32228
oppable	35628
ĠDisp	36060
Ġopenings	28431
Ġneurotrans	39307
ĠHubble	40455
Ġpossessed	17273
Ġbenefit	4414
Ġattorneys	14449
State	9012
Ġlunar	25572
Ġemotional	7016
Labour	32475
ĠAb	2275
Ġrecognizable	30264
ĠVulcan	33402
ĠNOAA	36184
Ġmonuments	28814
ĠPence	17339
EST	6465
Ġamuse	26072
Ġoddly	31414
views	33571
ĠJenner	39760
ĠLuc	7598
@@@@	22675
?]	26398
Ġsh	427
Ġ{{	22935
sensitive	30176
ĠSeattle	7312
Ġanimated	15108
ĠWikileaks	35828
omet	908
Ġsolvent	43209
jobs	43863
Testing	44154
Ġbre	1449
phy	6883
oche	30848
akra	38004
should	21754
ĠBuk	36810
Bomb	48478
Ġacupuncture	48647
worthiness	48756
Ġimproperly	34250
letters	15653
ĠBayer	48009
ĠBen	3932
Ġpup	15552
ĠDisney	8519
Ġoverflowing	43347
Ġimperson	28671
AN	1565
Sy	13940
Ġfiltered	29083
Ġretarded	34445
ĠMinecraft	24609
ĠPlane	36829
py	9078
Ġpirate	25868
Ġstick	4859
Ġpione	15272
Ġpolitical	1964
ĠSapphire	35718
Ġsaline	47375
ĠBarnett	38174
PROV	41283
Ġcompos	18882
ĠDeep	10766
Ġoppose	12856
Ġengines	11874
Ġspecializing	40847
ĠSports	7092
Ġsimplistic	35010
ĠJem	48199
Ġdomestic	5928
ĠMP	4904
ĠCho	10031
category	22872
ĠLuo	25956
ĠKuh	46035
Ġbackward	19528
Ġspec	1020
Ġingredient	18734
ĠTammy	50070
Ġfost	26546
Ġprogrammed	27402
Ġts	40379
ĠWoods	16483
ãĥ£	23131
Ġproposing	24634
Ġannounced	3414
Ġmont	40689
imei	45519
Ġoverc	25676
aye	48822
Ġconscious	6921
ĠMedicaid	13594
Ġpods	37185
Ġrequ	1038
Ġclosure	16512
yg	35641
Brook	45534
Ïī	49535
Ġstressed	15033
ik	1134
ront	4298
Ġtribute	17547
Variable	43015
Ġlawy	4840
Ġdude	18396
!".	48220
Mis	31281
Anne	43227
Ġunders	14584
Ġprehistoric	44741
wd	16993
Ġstead	7978
ĠFoot	7870
ĠBour	20576
Ġcoined	33115
iden	14029
ĠRuby	10888
Ġconfirmed	4999
ĠUnivers	26986
Ġnano	38706
Ġscalp	39287
Ġroster	9354
Ġmil	1465
ĠFaction	41552
ĠGlenn	17551
ĠFur	22384
ĠEconomics	18963
ĠRestore	42019
ĠPlat	32715
Ġclothed	45361
ential	1843
Ġgirls	4813
altern	33645
ĠSHAR	39225
ĠFlip	29583
Ġvirginity	48533
Meg	42672
565	47372
expr	31937
ĠImam	38386
Ġsqu	2809
od	375
ebra	37052
ĠIdeas	35365
ĠFont	24060
ĠSwanson	47528
idence	1704
Ġmicrobes	33712
imer	22723
Crit	18559
428	40173
Ġwhichever	26204
onyms	43612
INTON	46812
Ġo	267
Ġattackers	16391
Design	23067
Ġimagination	13843
sudo	24032
rather	34330
Ġdupl	14184
Ġwhine	47409
Ho	28900
Ġ"\	37082
ĠTRAN	48213
Oak	42426
Ġgovernance	18848
Ġbasis	4308
Ġswitch	5078
Ġdisplayed	9066
Ġnoted	4367
Ġè	5525
especially	16480
Ġwebs	2639
ĠPython	11361
RP	20031
opez	20808
Wire	29451
Ġingred	7677
Ġsip	31145
keye	34929
asonable	17994
Ġscaven	35998
erick	41556
ĠCLASS	42715
à¤¾	48077
dfx	48753
ĠHyder	47660
IDENT	25256
Ġbomb	5194
Ġmovie	3807
Ġcomparison	7208
Arg	28100
Ġ"-	27444
Word	26449
mor	4491
pees	42623
iland	40855
Ġ1922	36094
ĠEngine	7117
ĠAdmin	32053
Ġkitchens	48184
Initially	40443
Ġbilateral	24537
Ġprofitability	37129
Ġ}}	34949
Ġbudgetary	47560
Bur	22991
Ġcaut	17258
ĠCast	5833
kered	28970
ĠApplications	26622
ĠBean	26510
Ġartificially	32455
ager	3536
Ġblank	9178
ishly	29735
ĠUbisoft	34559
Ġshouted	17293
ĠPredators	42065
Ġprecious	14186
Ġarrivals	34462
Ġcommand	3141
Dial	24400
Ġregex	40364
Ġprotected	6861
Ġrights	2489
970	43587
uddenly	18865
Ġdisasters	24193
Ġnostalgic	40459
Ġclout	45789
ĠLikely	45974
rists	37326
Ġnods	34833
ĠSergeant	26541
Ġconsultancy	47827
ĠCrab	32379
ĠVulkan	35977
Ġundis	24149
Ġalthough	3584
by	1525
Ġmaj	16486
bre	4679
Ġsignatures	17239
Ġaspect	4843
Ġlevels	2974
ĠSSD	21252
Ġreservation	24048
Ġistg	36940
urate	15537
Ġentrusted	37984
cars	37993
nav	28341
Ġnoticing	28107
ĠMarks	27366
ĠJungle	26411
ĠHew	30446
ĠHunts	31926
Ġconstantly	7558
Ġmosquito	35446
BB	15199
Members	25341
ists	1023
heastern	18160
Ġdelusional	45935
Ġhundreds	5179
ĠCi	37685
ĠPROV	36592
Ġcrowds	15779
ĠWillie	28623
Director	28702
ĠHUN	41041
ĠWEEK	43765
Footnote	33795
ategor	47467
Ball	23410
ĠPe	2631
ĠiT	4748
desc	20147
Ġalways	1464
Ġexercising	25352
usra	28352
Ġdecision	2551
Ġpreferences	15387
alias	26011
Ġhorrified	32816
ĠRespons	20549
Ġneigh	3422
hn	21116
ĠGM	6951
Greg	25025
Ġenergetic	26758
)*	27493
Ġunspecified	29547
Ġassassin	31120
widget	42655
ĠGenie	49405
icating	12364
ĠCoff	28584
Ġrenegoti	48312
reverse	50188
Ġexhib	7316
ĠPet	4767
oslav	26388
ĠPerez	23058
ĠKahn	42264
AKING	43602
ĠValiant	47781
Ġpropagate	47933
Critical	41000
isations	38189
MP	7378
Ġdramatically	12034
little	31629
Ġdenomination	47491
ĠShe	1375
Ġdrives	10182
Ġware	16202
Ġpassword	9206
Ġbreached	34662
pard	26037
Ġadventurer	40994
Ġdistraction	24066
ãĢĲ	31854
unal	18835
acebook	2887
Ġconfirming	23366
osexual	8542
ĠE	412
Ġ168	23378
Ġforeigner	44897
ive	425
ts	912
Ġdenomin	31457
ĠTight	44643
Ġplanting	26630
ĠDexterity	40537
):	2599
Ġlarge	1588
ĠRichard	6219
ĠMacintosh	48087
Ġsoftened	41534
aying	8369
Ġattention	3241
Ġtopic	7243
Ġsolitary	25565
ĠOther	3819
avoid	27080
Ġpirates	27516
commit	41509
ĠInformation	6188
Ġinjected	25077
Ġstrife	39809
Ġexoner	43507
iga	13827
ĠSally	25737
const	9979
iesel	29893
Ġgoods	7017
ĠSunny	32241
ring	1806
Ġex	409
ĠEmer	10320
Ġmakeup	16029
button	16539
Ġtac	26142
kan	27541
Tracker	35694
Ġcling	36331
Ġeasily	3538
Mult	15205
otent	33715
Attempt	37177
Ġonset	21228
Ġrumors	14923
Ġtweaked	38304
ĠAbu	13098
ĠEX	7788
Ġlittered	41664
Ġhideous	42269
ĠPrinc	14117
azed	13865
charges	34948
Houston	33387
ĠWeston	46949
etheless	12845
ERN	28778
rev	18218
Ġfees	6642
Ġconvin	9120
Ġvaccines	18336
ĠCrusader	33765
zos	37925
Ġown	898
ĠHowe	38320
ĠNaked	41619
Ġinept	43891
prev	47050
Ġissues	2428
Ġdivisions	17397
Bee	49512
Ė	210
ÃĥÃĤÃĥÃĤÃĥÃĤÃĥÃĤÃĥÃĤÃĥÃĤÃĥÃĤÃĥÃĤÃĥÃĤÃĥÃĤÃĥÃĤÃĥÃĤÃĥÃĤÃĥÃĤÃĥÃĤÃĥÃĤÃĥÃĤÃĥÃĤÃĥÃĤÃĥÃĤÃĥÃĤÃĥÃĤÃĥÃĤÃĥÃĤÃĥÃĤÃĥÃĤÃĥÃĤÃĥÃĤÃĥÃĤÃĥÃĤÃĥÃĤÃĥÃĤ	35496
ographics	24188
Ġcr	1067
ĠBJ	47204
Ġrusher	47608
rill	20190
Ġmaniac	45575
Ö¼	47903
Ġperform	1620
Ġsteel	7771
ĠNik	11271
="	2625
Ġflip	14283
Ġiterator	41313
ĠPryor	45350
ĠRet	4990
Ġdysph	50111
Ġatheist	25222
ĠDeter	45559
ĠAlchemist	36084
Jake	43930
Ġenjoyed	8359
89	4531
Ġdracon	27733
syn	28869
cn	31522
urious	16421
Game	8777
pher	17042
ĳ	239
Ġdiffusion	44258
ĠAsk	16981
ivariate	42524
Ġsaving	8914
Country	33921
ĠSci	10286
WP	25527
ĠCur	4424
EL	3698
ĠNevertheless	15933
Ġunborn	36172
ĠPSP	48651
Ġecological	25047
ĠNet	3433
ilty	6267
ĠOu	42201
ĠMich	2843
ĠThese	2312
Ġheads	6665
Ġexpansion	7118
ĠVoice	15282
ĠMarriage	24509
Ġsing	1702
Ġshipped	14338
ĠZero	12169
eren	14226
ints	29503
ĠTamil	32519
uum	13814
ĠFinch	45277
Ġwasteland	46045
661	47159
uling	16619
Ļ½	50159
Ġcondemning	31568
Ġconsidered	3177
Grade	42233
Ġbandits	44149
Ġtroopers	38817
Ġpunches	25495
ĠDaniel	7806
ĠSB	18056
alis	27315
amples	12629
ko	7204
ĠLaser	23222
Ġcarbohydrate	28205
ĠBeau	32831
ĠPse	49693
Ġdom	2401
bits	9895
ĠFurther	7735
Ġhttps	3740
Number	15057
Ġfloods	27283
Ġprison	3770
hetic	6587
ãĤ¢	11839
ĠMall	16618
Ġnarr	6664
Ġdesper	8029
Ġunb	22619
ĠMiner	29295
Ġsoften	39536
ocard	44412
ĠMus	2629
Ġscrap	15881
Sah	32194
Ġoriginals	47324
ĠJews	6771
Ġslippery	32911
out	448
planet	47427
Ġtown	3240
ĠRegistrar	46439
Ġpressure	3833
Ġkidnap	49679
Case	20448
://	1378
ĠPlanet	11397
WARD	39743
Ġfear	3252
ĠCurry	20920
Ġ345	39937
inez	18885
ĠJackets	41324
email	12888
gs	14542
omas	16911
Ġgist	50057
ISON	39960
Ġexcept	2845
Ġpanels	13043
BUR	38926
ĠNiagara	44340
Ġparan	23511
Ġ777	35534
Ġpush	4574
Ġqualified	10617
ĠMethods	25458
Ġcrank	30425
Jean	38248
Ġwatching	4964
Ġfleeing	19105
ĠRevenge	24366
ĠTrade	9601
isodes	8052
ĠStef	22350
ĠDept	28786
DM	23127
Ġdetail	3703
ĠKernel	32169
Ð²	38857
ĠPROC	41755
Ġlooted	49575
hend	15631
Ġprosec	19306
Ġconfronting	31291
laws	29317
},"	9063
Ġcasting	13092
Ġfacilitated	35923
Ġdisemb	38110
ĠIdeal	41765
ĠCommunists	39049
ĠSidney	35727
Ġinexplicable	49602
Ġ1600	26143
ĠTOUR	49698
ĠIdentified	24517
un	403
Ġmessages	6218
ĠSaint	9281
Ġdropping	12047
Ġdisease	4369
Ġforgetting	32012
ĠEternity	33410
Ġqualities	14482
ĠAmazing	23181
Glass	47698
Ġapplauded	38911
ickers	21630
ĠCAN	15628
Ġessentials	41954
ole	2305
ĠTrib	10841
ĠFlor	4432
oola	10513
Steam	19109
Old	19620
court	22230
Ġstretch	7539
Ġhazardous	26082
Ġincompatible	27294
Ġpsychedel	27477
Ġresilient	30738
ĠBasil	32520
ĠDodd	32145
Ġpauses	37622
Its	20459
Ġenvoy	39137
InstoreAndOnline	40241
Ġphased	41716
Ġprovisional	37042
ĠFunctional	44224
ĠCharges	44620
rupt	3622
ĠHolmes	17628
ĠPatients	28021
Ġ1935	30704
ĠMER	34482
Depths	42382
Ġthinly	44722
acid	46309
Ġple	3339
nb	46803
ĠBenz	47891
ĠStore	9363
Ġnec	27576
())	28955
IA	3539
ĠGale	36483
ĠGreece	10315
Ġgazing	50234
Screenshot	34204
Ġsteam	13324
Ġcamel	41021
ibr	2889
ĠHistorical	23121
ĠPort	4347
ĠNBA	7403
Ġcircumstance	25179
Ġproposes	26017
rieve	30227
Ġduties	10741
Ġpour	12797
Ġsuburbs	21040
ĠEating	37537
ĠTues	48496
SCP	48956
ĠConcepts	50053
ĠMatch	13225
Ġprayer	11443
idents	3231
ĠRather	11317
ements	3196
ĠAlexis	31078
Ġcoverage	5197
Ġinduced	18268
aretz	48338
ĠJordanian	47820
Ġrelent	18547
Ġhypothes	22079
Ġdossier	34602
Ġprojector	43396
omever	49784
Ġsam	6072
atl	25864
ĠMiss	4544
Ġbeneath	11061
Ġcarbohydrates	32328
ocrates	34095
Ġannexed	49181
ĠZak	32605
Ġcapac	18457
ksh	50133
Ġdisturbed	24069
imum	2847
ĠReload	37653
Ġmanagement	4542
Ġsurg	19797
ĠSH	6006
Ġfol	5955
Tre	31055
ĠHung	12149
Â½	23141
ĠSex	14419
Ġori	22812
stre	22853
------	23031
Ġtion	34222
Wra	36918
slot	43384
ĠCuomo	32496
Ġfascination	35556
å·	32432
Ġinvoice	45458
ĠCompact	37904
ĠGotham	30129
aro	12022
ĠRapids	27466
aken	1685
Ġproximity	20387
356	32066
ĠNancy	18496
Ġdefiant	36219
ĠStack	23881
cers	7999
anol	22012
Ġantidepress	27293
esque	28939
friends	36154
ĠStretch	44489
ĠWang	15233
Ġassess	4659
Joe	19585
Ġnas	25221
qq	38227
Ġtelecom	30452
ĠJulius	32834
Ġwise	10787
orthern	4824
Vaults	33937
ĠSimilar	11014
Remove	27914
Ġbatteries	13591
Ġoperates	14051
Ġproven	9157
ĠBadge	44308
ĠForeign	8708
ĠRoads	40065
Ġmemorial	17357
TW	34551
Ġpresiding	44851
ĠDart	29032
owan	45197
671	46250
razy	5918
yssey	23784
%.	7225
ĠSven	44611
vy	7670
uture	1832
reath	19367
forces	27087
ĠMedic	5786
Ġwisely	32773
Ġwield	15445
ofi	39542
ĠEighth	41040
ĠLars	31239
ĠSue	26089
ĠSett	41479
Ġseeded	48453
ĠCumber	38732
Ġnozzle	46031
Ġtight	5381
ĠLI	24653
Ġpeanut	26636
Ġharder	7069
ĠFloyd	21150
ula	4712
Ġevasion	30877
Ġconcerns	4786
Ġ54	7175
Ġsuffer	8659
Ġeditor	5464
uru	14717
ĠMim	39312
ĠUSSR	28905
ĠCrew	17652
ĠGay	16013
Ġnights	12513
Version	14815
Ġdialogue	10721
Ġarrangement	13888
su	2385
============	25609
ĠCost	6446
Cle	34349
exist	38476
ikhail	39065
urbed	37694
ĠRequ	9394
olutions	14191
ĠMedina	41946
Ġwelf	9468
REE	11587
olon	43645
Ġc	269
Ġcert	5051
Ġboasted	32758
ensive	2021
Baltimore	46139
ĠLac	23115
MX	43243
Ġ1932	32471
Ġprices	4536
273	27367
Ġ60	3126
suits	16554
210	21536
Ġapologizing	47401
oths	27118
Ġforay	47773
Ġburned	11544
Ġsimmer	32857
Dam	14550
Ka	37281
ĠCruiser	49719
Ġhoard	46960
ĠPete	17542
Ġan	281
ĠNeal	29189
Ġstarship	48744
ffe	16658
irlfriend	9872
polit	34470
foundation	42526
eem	13761
ĠBle	17175
ĠDAY	24644
ĠTRA	29125
OPS	30737
ĠHumane	45936
Ġgrapple	42146
ĠSheila	49627
ĠTransportation	15198
ĠMissouri	11565
Ġseems	2331
ĠUnable	27319
iver	1428
Ġbeet	25679
ĠUttar	44744
Ġliquor	20030
Ġhordes	41872
Ġsupporter	15525
Ġwom	1116
Ġinh	25783
Fif	44403
Ġhiding	11816
Ġoccurrences	40279
Ġextraordinarily	31999
Ġmism	32691
Ġstood	6204
Ġdrilled	34936
ĠOlympia	45760
Ġcrochet	46149
ĠSchw	20469
ĠAAC	47943
Ġcourts	8028
Ġremembers	18140
Philipp	49680
ĠGained	34775
?".	43634
socket	44971
opa	26186
ĠKay	17356
ĠKab	28793
ĠMiy	29464
Ġ"_	45434
fp	46428
Ġarch	3934
ĠDickinson	47485
Ġnem	36945
otor	20965
ĠTud	48256
é¾	11737
Ġextremists	20674
launch	35681
Ġtarn	40851
Ġcarved	23470
Ġbarely	8523
146	20964
Ġletter	3850
ĠBarcelona	15142
ĠAlma	35152
Ġbelievable	41632
ĠKnot	42572
osity	16579
Ġshielding	43539
Ġdramatic	10092
ĠLogin	23093
URN	27064
368	27412
ources	2203
Ġmillennia	38710
Ġcountless	12925
ĠGhosts	38389
0100	39103
Ġallotted	44554
rompt	45700
Words	37117
liners	34380
ĠCentauri	48278
Ġ221	31566
ĠPicks	33957
unity	9531
ĠShields	30512
commerce	27061
aji	26436
Ġselector	31870
ĠBelow	10383
Ġmerit	17004
Ġbanning	19479
Ġreliable	9314
Ġneed	761
kind	11031
Ġiv	21628
ĠANC	46179
ĠGarfield	47218
encing	9532
Ġdrib	35003
Ġcovert	22624
dra	32491
ĠDe	1024
grave	41711
ret	1186
ĠSoftware	10442
Ġ161	27829
Ġmortgage	13682
55	2816
Ġtorn	12445
tics	14094
EU	19684
Ġcardiovascular	21134
ãĥŃ	16253
assment	45312
Ġpermits	13892
Ġenhancements	29754
ĠDemand	34479
Ġhoney	12498
exempt	42679
inement	21828
Ġavail	29107
Ġstudio	8034
Ġkill	1494
Ġcrates	40382
Ġtour	4205
alla	30315
Ġjealous	19354
oubtedly	16423
hesda	30049
ĠCrimes	32655
Ġsuper	2208
Ġcease	13468
Ġfeared	15240
mur	28582
ĠAmber	21896
ð	172
Ġcaveat	36531
Ġlabou	45161
âĶĢâĶĢâĶĢâĶĢ	16068
Technical	45638
ĠCBC	20244
Ġuint	20398
Ġcalc	42302
wei	42990
ĠPakistani	17807
rape	13484
mails	26165
Ġsd	45647
Ġknives	23110
zech	15356
Ġcommands	9729
ĠNur	49281
ĠMT	19308
ĠNOTE	24550
Ġ160	13454
Ġphil	5206
********	4557
Ġpsychopath	29670
byss	15040
VEL	18697
Container	29869
packed	34860
ĠRegener	40721
Ġplaus	48923
IME	12789
Ġsupervisor	21277
".	1911
cour	43220
amination	24979
ĠAbdullah	26804
Ġ4	604
tn	34106
Ġrightfully	41802
ĠDanny	15105
Scient	23010
ĠBar	2409
%	4
Ġprojects	4493
Ġanyway	6949
Ġparad	11497
Ġrental	14447
itous	22109
+.	27613
herty	29029
Ġdisingen	48578
Ġrepealing	42753
ĠLauder	39212
ĠSoviet	7570
Ġhostile	12524
Ġace	31506
Ġsteroids	31397
Hal	40202
Ġpepp	49038
vity	21319
opian	37548
rings	33173
killing	43764
ĠCAP	20176
ezvous	50063
dh	34985
003	11245
STAT	35744
Ġswim	9422
Reviewed	40266
OY	21414
Microsoft	15905
688	34427
User	12982
ijn	48848
¶ħ	41678
ĠPainter	49102
avy	2830
letcher	29257
Ġwinning	5442
Ġplugged	30601
ĠPositive	33733
Ġscoreboard	50198
Ġnarcotics	36524
ĠDise	14865
Ġpeppers	31804
ĠAmy	14235
ns	5907
incerity	40310
Ġgeographical	27465
hyde	39175
Ġtentacles	41192
perate	30052
Ġgoof	31644
ĠNotes	11822
ĠGeorg	6850
Ġshaft	18619
reating	34567
ĠLibraries	46267
Ġsegregated	38135
Ġmurderous	34082
Ġredistributed	38913
...]	22345
1001	47705
Ġsettlers	25371
ĠImplement	48282
itors	6742
ĠHomes	34698
Ãº	21356
initialized	17532
aging	3039
ĠAtlanta	9371
nation	25729
IVE	9306
Ġsearches	15455
Ġwaters	10150
chool	1251
Ġaristocracy	50025
checked	26752
Ġviewership	48347
ĠInstead	5455
Ġinterven	14118
ĠStead	45445
ĠØ§ÙĦ	28981
ummer	31647
Ġdystop	39227
Ġcontest	8414
Ġtransc	23589
general	24622
Ġdove	38862
Ġbash	27334
Ġdrive	3708
Ġorganism	26433
Ġcalculates	43707
Ġevict	49397
Attack	27732
Ġknowing	6970
itutes	16845
ĠCosts	36845
omes	2586
ĠCyprus	27885
Ġpyramid	27944
Ġcried	16896
Ġna	12385
Ġrecipient	17800
Ġrecreate	32049
Ġreads	9743
ĠThom	4323
Ġkan	43998
Ġwatered	48024
ĠNirvana	49923
Ġtho	42796
Ġjurors	28792
ĠNPCs	28167
omy	9145
Ġnightmares	33301
Ġcomprehens	8569
low	9319
120	10232
omic	10179
KS	27015
math	11018
Ġoverr	23170
1111	26259
atech	40340
mington	39773
Ġsummit	14237
ĠPriebus	37486
ĠBody	12290
ĠAwakening	28832
estial	21711
Ġbroadcast	7025
Ġmuscle	8280
Ġvibr	12611
ĠRestaurant	26078
dyl	30360
Anna	31160
ĠVirt	11285
audio	24051
described	34869
ĠMOR	35208
ading	4980
Ġyawn	40908
208	21315
Trend	45461
Ġhelium	43142
ĠMEM	35153
Ġfreeze	16611
inos	11996
Ġcoronary	37151
Lt	49578
ĠDre	30882
Ġ''	10148
otonin	29613
Ġchew	34722
Ġpride	11293
Ġranch	28752
ĠGOODMAN	32021
Ġspor	35810
Fac	47522
Ġdeprive	41613
ĠElectronics	27828
280	21033
201	1264
Ġregulated	17153
Ġstrangely	29381
02	2999
Clean	32657
ĠSlater	44289
cigarettes	32529
ĠTimeline	43040
anger	2564
ĠPhoto	5555
Ġvanilla	16858
Ġwidest	46232
Adventure	48289
Ġplugs	37008
canon	49883
Ġ600	10053
susp	40409
ãģĮ	35585
Ġquaint	50127
Ġlavish	38957
Created	41972
Ġdeduct	18777
ĠEPS	47013
Ġcoefficients	44036
Ġapplied	5625
inda	22261
Ġmound	31446
Ġclar	10212
critical	34666
Ġledger	37208
Ġarms	5101
Ġcapitalists	32663
Xbox	43377
Ġfugitive	43799
Ġprism	46475
ĠWhite	2635
Ġstreng	3472
ĠHobby	44327
Ġsuperf	21176
ĠMcMaster	42284
Ġsuit	6050
technology	45503
Ġrelationship	2776
Ġadvoc	5271
Ġrecession	16457
Ġflirt	44109
Sen	10445
ition	653
oj	13210
ĠFAQ	18749
ted	1513
ussy	14650
Ġartificial	11666
Ġdisag	7969
ached	2317
AE	14242
Ġdel	1619
Ġpartition	18398
Ġsentiment	15598
ĠPayPal	22525
ĠAdministrator	22998
405	26598
embedreportprint	30898
Ġresponded	7082
obb	21963
aution	32917
Ġwonderfully	33138
sters	5937
ĠTestament	18318
Ġprostitution	22679
Ġcarbon	6588
ĠRouhani	34915
ĠBenedict	28697
Ġinfused	37681
Ġdemographic	16728
ĠRecord	13266
ĠDACA	38061
lege	2765
Our	5122
hl	18519
ĠHC	27327
Ġhospitalized	31736
Ġtelescopes	42067
igrate	42175
groupon	14531
Ġrecruited	18774
mo	5908
ĠNewport	36538
brates	44835
ĠJudging	47024
Ġpasta	26296
Ġdunk	35434
ĠForensic	49245
Ġassignment	16237
Ġassorted	46603
Ġattack	1368
ĠTrees	34925
Ġdors	37650
ĠMagical	22294
aunts	43981
nom	26601
icas	44645
ĠMarkus	46013
ĠRollins	47489
Ġcommunication	6946
ĠAdvertisement	39711
Ġpiping	48426
Ġbe	307
ĠTaiwanese	41777
ĠHollywood	8502
Ġrecommended	7151
Ġparalle	9315
moon	22977
Ġallocate	31935
ĠCorps	12778
Ġpric	38151
sofar	38649
Ġ40	2319
ĠThat	1320
Ġstre	1937
Ġjoining	9679
lad	9435
Ġpersonalities	20929
Ġanniversary	11162
Ġencounter	8791
Ġcosmetics	36432
Ġunfinished	34419
Ġhated	16563
ĠGr	1902
954	48372
ĠSalvation	40814
Ġsex	1714
bie	12590
Ġuns	5576
Hit	17889
Ġirregular	21388
Ġpathological	42306
elaide	25078
Ġsmugg	19176
Ġglossy	40551
ĠSolutions	23555
Ġcartoons	30070
ĠSynt	26375
Shot	28512
obar	30973
stadt	38863
åĮ	44293
Ġflu	6562
author	9800
media	11431
Ġhomicides	33025
ĠJeff	5502
BR	11473
orm	579
Ġbunny	44915
levision	5024
Ġsquares	24438
ĠShape	25959
ĠJoshua	20700
Ġpurchased	8155
ĠStream	13860
ĠSabb	33066
Trans	8291
Ġhast	19338
Ġcourthouse	33625
mediated	38363
ĠCout	40253
Ġref	1006
ĠKP	45814
ĠAcquisition	44564
ĠTruly	49446
Ġprecise	7141
ĠSem	12449
ĠAdvanced	13435
Ġdeemed	10762
cription	6820
ĠPag	31525
ĠNoon	41035
onde	14378
ight	432
Adult	42995
ĠShell	17537
rush	37357
naissance	47090
ertation	42245
icked	9484
Ġbestowed	40293
Ġsinful	44858
Update	10260
Native	31272
Ġcitrus	35405
ĠAlas	45315
Ġtransfer	4351
iest	6386
Ref	8134
Ġheavens	27636
ĠCoC	41055
cow	8232
ĠjQuery	37420
Ġillust	6406
Ġinhibited	48582
AG	4760
Ġfloppy	49415
ĠWem	45300
Ġwitch	16365
installed	37050
ĠSeller	46555
ĠMotors	19292
ĠBuddhism	25932
ĠLover	40414
Ġinspiring	20886
Ġ[-	25915
.}	44587
ĠHELL	47899
Ġcunt	40267
Ġsubstitution	32097
ĠBoy	6387
hound	39047
ĠInitiative	18362
Ġwhence	44012
ĠÂ½	25208
Ġexamines	28025
Ġpoliceman	32166
ĠSET	25823
ĠConservation	23702
Ġfuels	18017
Ult	16301
Ġterrifying	17623
Ġarrives	14443
Ġmelt	16867
Ġthereafter	19547
Ġprojectile	26489
ĠEns	48221
outher	44262
itution	2738
Ġarrive	9240
ĠUran	33287
tering	20212
ĠDriving	32889
bring	48580
Ġexams	26420
Ġinteg	4132
funded	18246
Ġwaged	34225
ĠSelected	41344
Ġflee	11562
Ġinspector	24110
ĠLol	44841
Ġexplan	6166
Ġoverwhelmingly	21658
Ġignition	37594
Cause	42323
morrow	9201
Ġships	7937
Ġenhanced	13105
ĠNumbers	27797
0002	34215
Ġpeeled	42617
ĠMoose	44833
Ġcaricature	47346
Winner	48056
ĠCapacity	29765
Ġteaching	7743
men	3653
Ġinterpreter	28846
Ġemailed	24315
ilers	34393
Ġconsists	10874
MT	13752
ĠArchive	20816
neum	25668
Modern	31439
VIDIA	13171
state	5219
Ġelbow	22662
Ġfit	4197
Ġaged	9722
Nick	23609
Ġunaff	25312
alan	25786
ĠBlvd	29402
Ġfifteen	17280
CD	8610
Ġ247	30179
Â²	31185
Ġseaw	32085
Ġseq	33756
ĠRomans	22482
ĠGeological	34246
anas	15991
page	7700
south	35782
ĠPsyNet	36130
ĠFeedback	37774
Ġ271	33797
otin	41403
850	25764
ĠA	317
Ġcolonial	17091
Ġ000000	41853
Ġorn	25322
14	1415
Ġmodule	8265
Ġwatched	7342
ĠSloan	43066
Ġgracious	43210
Ġ444	45095
within	33479
moil	25538
Ġowns	12216
Ġmixed	7668
Ġnon	1729
Ġmembranes	43447
Ġconflicts	12333
ĠGener	2980
æŃ	29826
Ġinvalid	12515
Books	30650
]:	5974
ĠUSPS	44640
DERR	49643
ayer	2794
Ġdisplays	11298
Ġtrillion	12989
Ġadmit	9159
cc	535
ãĤ±	41658
Ġfiction	10165
Ġoverload	31754
Ġrefute	45071
Ġmaintained	9456
Ġtropical	19690
Ġdefe	7503
PDF	20456
Some	4366
Ġlistening	8680
IJ	23852
ĠElliot	30451
ĠBrut	30291
Ġvotes	5690
Emergency	48979
iat	5375
ĠChall	10772
Ts	33758
Ġselects	40573
ĠEW	43255
Ġrun	1057
disc	15410
missible	21597
urn	700
onents	3906
NT	11251
Ġassail	29886
Ġ135	17501
ĠSgt	22925
Ġoverlooking	34603
Ġmicroscope	36396
Ġ1951	27937
place	5372
Ġspherical	43180
Ġmanagerial	43747
PRES	48296
abba	48910
Ġmant	24818
ĠRank	10916
Ġpegged	48781
Ġseating	24800
Wisconsin	49097
nit	48825
Ġweep	49671
Ġfantasy	8842
Ġkeywords	26286
Ġdebilitating	41378
termination	41382
ĠDoomsday	45234
Ġbreakthrough	19304
Ġlegislature	15928
spection	31308
Calif	19619
wreck	39238
alde	35885
frame	14535
Ġinflammation	20881
Ġcm	12067
ĠCircuit	13588
ĠFinals	19705
Ġobliter	35722
Ġembarked	36385
URR	31302
Ġprecept	40550
901	46815
ĠKE	47134
ĠSour	47694
ĠAuckland	30422
ĠMadame	43116
ral	1373
Ġpedest	14238
idav	20331
BIL	19676
ĠStats	20595
Ġinterfering	32874
Ġexploding	30990
ĠWald	24261
Ġet	2123
ĠEntity	20885
Ġ42	5433
Ġmagnificent	25023
ĠCros	26942
Nav	30575
Ġflair	37457
ĠYon	46340
Ġkeeps	7622
Original	20556
Ġeight	3624
ĠDil	29328
Ġsil	3313
Ġdeceived	40889
ĠAM	3001
ĠWATCH	16518
Ġclouds	15114
Ġfanc	39980
Torrent	39286
usha	46213
ĠYates	34916
Ġdecode	36899
Ġhomemade	24584
Ġallev	23863
114	16562
Ġwhis	12563
Written	25354
violence	37502
ĠGor	19097
Â·Â·	35147
Ġnum	997
Ġdress	6576
Ġmushrooms	23452
Ġheavyweight	32489
NA	4535
ĠTeresa	34405
Ġremoval	9934
ĠNorfolk	32134
ĠParking	29259
ovie	10739
ĠNora	32561
stru	19554
gal	13528
gae	25002
ĠInsp	25300
Ġdorm	18586
ĠDalai	41180
Ġ1870	37667
ical	605
Ġnarrowly	26167
ĠSkies	39102
Ġguru	35730
Ġlegalized	33071
Ġign	3627
icles	2983
Ġimmigration	6272
urd	2799
Ġthreat	2372
Ġfence	13990
riminal	22157
ountain	18635
Ġemployed	9322
Ġawesome	7427
ĠZelda	22166
393	26007
JJ	32178
transfer	39437
ĠShots	42162
ĠInstrument	42410
304	21288
ĠCod	18720
Ġ108	15495
ĠSouls	18541
NI	22125
net	3262
Ġadherents	46372
OUGH	32632
Sec	6558
ĠCyborg	46114
Ġexqu	33954
ĠLana	47492
Ġ});	14980
ĠGlou	49383
Ġseveral	1811
Ġdecentral	20649
chemical	31379
io	952
ĠMiracle	33292
aly	3400
ĠWorkshop	26701
arge	1376
Ġexistential	28954
Ġreflects	12497
ĠBoxing	35921
Ġlisted	5610
Ġoutspoken	27687
Ġdismay	29793
ĠBrewery	31003
Ġconnectivity	19843
high	8929
Ġrestriction	17504
STR	18601
Ġstakes	21147
Ġcreeping	38598
ĠHutchinson	43792
GAME	47109
Ġdissidents	49913
Place	27271
Ġ1930	15533
bash	41757
wallet	44623
agraph	6111
293	31675
Dog	32942
ele	11129
ĠDownloads	50093
ro	305
Ġspecies	4693
ĠPunk	32592
178	23188
Ġsmokes	44589
ortion	5817
eter	2357
Ġextension	7552
ĠBald	17048
any	1092
Ġurine	18922
ĠClash	33117
into	20424
NH	33863
Ġil	4229
Player	14140
ĠSark	36518
EMOTE	36862
fram	19298
Ġshelling	38406
Ġprick	41409
ĠLU	50168
ĠFurthermore	11399
Ġmeg	17243
Ġdefects	22448
Ġinaccurate	21873
nr	48624
flame	49621
ĠNevada	12087
Ġobjections	21954
ĠEisenhower	35015
ĠCrane	38376
old	727
Ġcyt	27104
Ġovertake	48155
Ġresidues	47185
ĠWii	16591
src	10677
Hispanic	43830
Ġpeanuts	45612
Ġstrategist	25651
Ġcompilation	23340
ĠGenetics	43574
Ġcritics	9188
enium	47477
ĠTrayvon	44037
stic	11268
AUD	48877
Good	10248
ĠOfficials	28244
Mar	7676
ĠAnton	9261
Ġelders	27495
Ġunavoidable	37645
Ġbeyond	3675
Ġclassical	15993
Ġsea	5417
ĠCommunities	35530
ries	1678
metal	28469
Ġinteracting	24986
ĠRegulation	26472
mid	13602
ĠCover	17546
arser	28198
covered	32111
ĠTimes	3782
ynamic	28995
Ġcircus	33125
ĠInsert	35835
Ġundefeated	41445
ĠMode	10363
Ġwildlife	15599
ZE	21211
fair	22043
Ġforecasts	26119
Ġ359	41934
ĠBLM	45188
Ġrecalled	12433
Ġdigestive	34616
Ġie	37941
ĠGuam	39282
player	7829
orporated	40132
RIC	41132
986	49087
Ġl	300
Evil	48477
mouse	35888
mond	6327
ĠJian	40922
Ġabsorption	24774
ateg	2397
estival	6743
Ġhandgun	17849
ĠEid	31022
ĠRemote	21520
ĠLuke	11336
aughtered	32734
Ġboiler	36741
Ġarbitrarily	40647
IRO	43708
Ġsuck	10110
Ġlaboratory	14010
°	108
LAB	48780
Ġbudgets	21011
ÙĪ	30335
Ġludicrous	35214
racted	20216
Ġguessed	25183
friendly	13120
human	10734
Ġcontraction	36246
ĠEight	18087
oint	1563
Ġengagement	12352
gy	1360
offs	8210
ĠDynam	14970
ks	591
920	37128
Ġdissolution	37494
Ġillustrations	27128
fab	36434
ĠWinc	35898
ĠSy	1632
ĠSleep	17376
Ġgenuine	8768
ĠUKIP	37809
Ġdesperate	12111
Ķ	242
Ġps	26692
isSpecial	39714
Ġbyte	18022
Ġenclave	49842
elect	9509
Ġinterrogation	24758
Ġ720	26250
ĠAnother	6023
ĠRay	7760
Ġboon	38181
Ġunfit	39053
ĠDON	23917
ĠRussian	3394
Ġregisters	28441
hetto	35619
Ġdangers	16169
Ł	253
apers	5656
Ġnodes	13760
oba	19981
Ġtongues	39413
ĠStarship	40172
ĠSeek	40749
piracy	8703
Ġguild	19806
Honestly	40817
Ġsake	11060
Ġleaking	25243
Ġestimation	31850
Ġinclud	846
¦	99
Standard	23615
ĠLisbon	41898
Ġ89	9919
Ġqueues	43359
Ġsat	3332
Ġeater	38338
Compared	44669
Fest	45139
ĠGamble	49318
ĠUnfortunately	8989
UGE	41251
Ġcorpse	21304
pres	18302
Ġ432	46393
Ġliked	8288
Ġtiers	33355
ĠIPCC	35814
Ġpreferably	29203
NV	27159
Ġheight	6001
Ġinnoc	7909
Ġcontinuing	8282
Ġchars	34534
Ġpractically	14547
East	25234
Alexander	38708
j	73
browser	40259
ĠCandy	24680
ĠIC	12460
Ġincremental	29497
Ġfunn	36090
eka	38001
Ġalumni	31333
Ġ2018	2864
kowski	26216
::::	24022
menu	26272
ĠCEOs	32938
ĠApproximately	40453
ĠRes	1874
Sounds	40825
grain	48270
Ġsubstitute	15373
ĠVitamin	27533
Ġselections	28224
Economic	48307
Ġshr	10157
ĠCold	10250
ĠAccept	21699
Ġmotive	20289
70710	42877
Ġinsanely	40848
Ġdads	47713
Ġimpacted	20755
Ġlaborers	41075
ĠWarranty	43892
Ġdonations	10976
Ġaccomplish	9989
Ġjuggling	48097
à¦	48071
Ġstocking	49774
Ġrolling	10708
Ġfe	730
olics	19615
Ġlegisl	3560
Ġprostate	26711
Ġcur	1090
Following	14291
akespe	20621
Ġcards	4116
Ġballoon	21190
ĠMiranda	29575
Ġmean	1612
bon	4189
ĠXL	16276
program	23065
Ġinvestigators	10093
Ġib	24283
orean	29456
significant	36591
Fin	18467
Ġgluten	21578
Ġprecautions	31320
Îº	43000
Ġcabinets	43064
Closure	45398
OTS	33472
ĠMau	28931
ĠSunni	18592
Ġroutine	8027
Mail	25804
Friends	36705
IAS	43429
ouble	15270
ĠFut	24002
Ġhtt	1841
acks	4595
Ġguard	4860
Ġconj	11644
Ġintricate	28746
acist	20279
Angel	33246
088	46556
ĠChapel	32939
Ġtuition	18385
Ġâĸł	34252
248	23045
Ġmechanically	47878
ĠTok	9453
Ġlymph	28837
Ġlocom	33334
Ġmafia	44371
Ġbuttocks	50193
ĠEve	12882
Ġpuck	20695
ĠClearly	23730
Ġprosecutors	11947
Tim	14967
Ġexec	2452
Ġcritic	4014
ATES	29462
Ġgag	32261
pull	31216
ĠBig	4403
Ġincub	25543
Ġesche	42833
ĠVel	17378
Tags	36142
Ġinsol	35831
ĠAsked	26220
ĠMIN	20625
aterial	2273
Ġreimburse	25903
ãĤµ	26503
ip	541
ĠFay	35136
Ġinvestigations	10986
Ġgauge	18266
ĠREPORT	39099
Ġkickoff	40532
Ġpredictor	41568
aceae	48319
ĠCanada	3340
ĠIsraeli	6085
ĠZionism	48394
Ġellipt	48804
Ġdispatched	26562
Ġcorn	11676
ĠEnhanced	22104
Ġ1943	21577
Ġreasonable	6397
ger	1362
acking	5430
Someone	28211
Ġoccup	4977
ĠRBI	20948
90	3829
Ġcamera	4676
Normal	26447
Ġmortg	28465
Ġslave	11778
050	28669
Ġsimulator	35375
ĠFeast	42936
Ġhugs	40657
ĠPopulation	20133
Ġinstitute	24224
ppard	43988
Ġshowcases	45064
Ġsling	46704
rison	7426
Ġbehave	17438
ĠCisco	28289
Ġcommunicate	10996
ĠAlvarez	36952
Ġretrieval	45069
Ġseas	21547
Shadow	27447
359	30743
lator	41880
Ġslander	47397
Ġmelancholy	47886
Ġhatched	49353
ĠEminem	49428
ĠBlanc	37544
Ġeventually	4191
Ġwhirlwind	49676
orter	4337
RO	13252
ĠUltra	14563
Rest	19452
ĠMilan	21574
Ġdrones	15382
ĠSasuke	37527
ĠFarmers	34982
Ġopacity	45912
Ġgenerator	17301
ĠDanielle	39808
Ġon	319
Ġswinging	25635
Ġstill	991
Ġsport	6332
Ġthankful	25535
ĠBrick	28347
ocaust	16377
native	30191
Ġ323	38446
ĠReneg	41261
ĠOrleans	12255
Ġinmate	28414
ĠAdd	3060
ifle	8316
irez	31762
Ġvest	19750
Nusra	39294
Ġslew	26891
Ġstag	35251
ĠVatican	19057
Ġobjects	5563
31	3132
Ġattempted	7482
Ġnonetheless	19018
Exp	16870
Ġsoda	20584
Ġtheorem	44728
Ġremembering	24865
ÙĦ	13862
Ġunconventional	34014
ĠUng	44904
fps	29647
ĠPassenger	47239
Tax	27017
Ġsabotage	31983
ĠTokens	47365
Press	13800
ĠBalloon	47821
Vert	42369
rones	9821
visual	41464
ĠAsuka	46649
459	33459
Ġenemy	4472
outing	13660
addafi	32113
Ġoy	35104
ĠPact	41460
Ġ371	47343
orders	6361
Ġpans	36209
ously	3481
P	47
ĠAmmo	31073
ĠOptim	30011
ĠTort	28467
Ġpee	32638
Ġparliament	8540
Ġdesignation	22566
ĠMetatron	38894
Ġexpecting	12451
GAN	45028
Lot	48601
sections	23946
CAP	33177
inker	24275
ĠChinese	3999
i	72
ĠHamas	15767
Islamic	26723
capt	27144
ĠFP	31459
Ġworkforce	16433
Ġeducated	15657
ulhu	36828
itate	12027
Ġnause	24480
Ġoverdoses	49626
rastructure	6410
226	24909
Ġmoderates	47019
eri	33442
Gener	8645
Tier	35252
Ġpract	1970
ĠIre	7181
Ġintensely	31146
ĠRicky	31668
ent	298
Ġepilepsy	35325
Ġreptiles	46617
Elsa	49050
Ġmechanism	9030
bred	36074
Ġevolves	43576
Ġdeliver	5203
lux	22564
Ġnaval	19014
Ġbuffers	39334
ats	1381
Understanding	43467
Atl	25255
Site	29123
ctrl	44755
âĸĪâĸĪâĸĪâĸĪâĸĪâĸĪâĸĪâĸĪ	49527
ĠKyl	39859
otics	23891
rend	10920
Ġ529	49888
ingen	36795
Ġlevy	35783
Ġaffordability	38981
rodu	2076
Ġindust	2226
css	25471
Ġenlisted	30166
endar	9239
ĠOlympics	14935
ĠDun	5648
ĠSus	8932
Ġtutorials	27992
ĠECO	39031
ĠSara	24799
than	14813
Ġskeletons	25612
Ġni	37628
ĠMovie	15875
would	19188
989	42520
Ġroof	9753
ĠRecon	23419
Ġentrants	49117
udder	41686
WAYS	42451
ĠPlans	30305
ĠGarden	11652
ĠGarn	30937
Ġpracticable	44791
payers	45773
Ġremake	28763
ĠOtherwise	15323
yr	2417
ersen	46516
emetery	19785
ĠImages	5382
rax	32040
sson	16528
mb	2022
111	16243
Ġborn	4642
Ġkillers	25542
ĠVog	35421
ĠRepeat	30021
ĠShinzo	43531
ATURE	40086
ĠNOTICE	28536
ĠFifa	49142
group	8094
Ġ320	20959
iken	29943
ĠFitness	34545
atham	37520
Ġresidue	35186
ĠFinger	39454
volent	29078
Ġstaffers	23033
Ġdebut	8886
Ġutil	7736
essional	12743
Ġthreaten	16180
ĠISBN	32429
Ġrelated	3519
Ġ1862	49658
Ġbag	6131
Ġpasture	46753
ĠPlaintiff	41990
Ġ``(	11592
ĠLyme	46401
Ġcorrespondence	22440
ĠWash	22892
Ġpledging	43858
ĠFound	4062
Ġborder	4865
Ġmouse	10211
ĠSyn	16065
way	1014
ĠChampion	15869
owship	23473
Ġworked	3111
Ġcomplaining	18705
Ġproceeding	18788
ody	1118
Ġfut	13294
ĠRoosevelt	19297
ĠSuite	26264
hani	29839
ĠLens	30092
ĠBer	4312
ĠHat	10983
elsen	25328
ĠNOR	25273
Ġdens	29509
Ġdevote	24103
Ġsomewhere	7382
Ġmoons	31093
Ġposters	19379
>>>	33409
OPLE	34354
Ġpagan	36164
Ġreelection	36630
Ġsund	37437
automatic	37800
Miss	17140
ĠGibbs	41071
International	24274
ĠPublished	26372
Ġrestless	42537
ĠGl	2671
gorith	7727
Ġmovements	8650
Ġ1995	8735
ĠMurdoch	30370
ĠDah	44864
VE	6089
esi	46551
ĠMell	32993
Ġ9	860
Ġsunny	27737
ĠMaw	46598
ongyang	20659
Ġkios	46739
Relations	47117
MOD	33365
Ġherself	5223
Ġbelieved	4762
ĠPsych	7562
ĠFuk	22431
overe	33518
PLA	45710
blade	22500
Ġhysterical	46759
Ġstru	2874
ĠCondition	24295
Ġthanking	41892
ledge	2965
Pitt	47627
Ġsums	21784
Ġnewcomers	29661
handed	13638
orset	49590
Ġvoic	40268
Ġcomposure	49994
Ġexpresses	27505
stem	927
ĠCarrier	30252
Ġcasing	39731
ĠKyoto	36298
ĠStarts	50181
rolley	42639
Ġmyst	21619
ĠTony	8832
Ġhalted	27771
object	15252
ĠSoul	8653
Ġbut	475
oren	29578
-----------	32284
ĠiPhones	33845
---------------	24305
ĠWins	24423
Ohio	31274
abor	4820
Ġpatio	39660
IENCE	42589
Ġaboriginal	48328
337	31496
Ġeducational	9856
otherapy	18952
ĠMerrill	40418
Ġ445	48655
ĠLauncher	26385
Ġlivest	20532
jar	9491
ĠEvaluation	34959
Ġwraps	27521
Ġcreature	7185
Ġreceptors	20099
Ġstaffing	36700
mist	37980
ĠDarrell	44882
Ġharb	43560
Ġnegotiate	16674
Letter	45708
Ġguid	10103
Ġrecomm	3045
Ġcad	20603
crop	31476
Ġmic	12314
Ġvisible	7424
Ġsaw	2497
Ġconcrete	10017
ĠSponge	42681
ĠPOP	37586
ĠCyber	15101
Ġmanpower	44803
Ġaft	46088
Arc	24021
ograms	26836
160	14198
ãĥ¼	6312
cil	2856
668	35809
Ġmasturbation	41054
Folder	41092
ĠRw	31641
philis	49613
FINE	29940
igenous	12357
ĠCreed	24299
pmwiki	45321
Ġtransforms	31408
ounced	8918
Ġintellig	10878
Ġrook	10929
Ġdecentralized	26512
ĠPDT	28288
ĠKimber	36015
ĠLip	24701
cont	3642
agram	6713
Ġlearning	4673
reaching	30771
tel	37524
ĠAssoci	3928
Ġseen	1775
certain	39239
killed	42130
Ġadjusts	46094
ĠHuffPost	35130
Ġwaterproof	35158
Ġstopping	12225
Ġunsatisf	39264
Ġengraved	41136
ENDED	49361
ĠFull	6462
ĠRetirement	41863
iles	2915
ĠJackson	6612
ĠSpider	12648
isible	12843
Ġlandslide	36348
ĠExpl	5905
Ġreplacing	13586
ĠTypically	27095
ple	1154
Ġelectors	39259
Ġfuturistic	36701
Ġyell	28946
Ġrolled	11686
ĠMat	6550
Ġtexted	47358
Ġatt	708
Ġstaunch	34700
ĠDupl	49821
Ġinexpl	33199
Ġroy	10611
Therefore	26583
ESA	43279
Used	38052
Ġjuvenile	21904
BL	9148
leted	33342
juries	47496
Ġclo	28050
Ġslain	27029
ĠRelease	13868
ĠHedge	41078
Ġgarner	34679
icker	15799
boat	24482
Ġnerds	47088
ĠTexture	44409
Ġshe	673
253	28592
ĠCorbyn	15673
Ġlocally	15726
Ġdart	35970
OD	3727
ĠBraun	34492
Ġammon	34946
Ġinexperienced	38003
illing	4509
Ġphysic	22270
Ġperpetrators	25185
Â¨	37102
CP	8697
Ġsuits	14803
Ġambiguous	27102
xml	19875
Ġth	294
Bug	25624
Ġleveraging	42389
ĠGER	44186
ĠOEM	29671
]}	48999
ERT	17395
Ġverified	19000
sed	36622
Ġdisdain	31564
hu	13415
ĠHB	25997
ĠFavorite	33992
Ġsen	3308
ĠKare	49396
Ġswe	3490
Ġfatal	10800
Ġnest	16343
Ġliberties	22008
ĠPanel	18810
ĠSUM	35683
ĠHast	33268
ĠPrometheus	42696
ĠHastings	38330
Ġbillionaire	18828
Dun	30128
uga	30302
Ġcorrobor	30220
assador	10623
ĠCBI	47970
strous	22501
ĠProgramming	30297
Ġtables	8893
ĠSr	21714
ĠOriginal	13745
Ġcorpses	26750
Ġapproval	7546
Ġtaste	6938
Late	26302
Isa	39443
Ġsparking	41525
Ġbrim	49943
ĠVegan	34829
Ġannex	22768
Prince	35784
Ġbenef	2204
Science	26959
itism	18937
Ġgy	21486
ĠHard	6912
Ġ$_	40111
Ġchooses	19769
Ġcord	15050
Ġlumin	29763
ĠSecretary	4986
Mass	20273
EMENT	12529
WIN	37620
deen	39060
Ġmeasuring	15964
imens	12117
ĠHoff	21890
Ġcal	2386
Ġconfirmation	12641
ĠMagic	6139
Ġproprietary	20622
ĠSisters	25318
unny	16948
ĠMonsters	21464
Ġachieving	16937
PLIC	31484
Roman	32454
endon	43153
ĠSSH	33825
ellen	40635
Winged	47418
Ġdiner	47519
Ġunconscious	14917
ĠSauce	37618
Self	24704
Ġdetached	30795
Ġguise	34731
Ġsentencing	20565
Ġcurb	20799
OTT	29089
Ġben	1888
Ġpooled	44762
653	46435
Ġvisc	31116
olls	33421
ti	20259
Ġcocktails	34281
Ã¯ve	38776
Ġreleases	10050
.''	13531
Ġappointments	23976
################################	29113
ismo	44126
.,"	44388
temp	29510
ĠHorton	46051
latable	49009
ĠSun	3825
Ġ$\	39280
ĠJol	39329
goal	35231
Ġdismal	39656
All	3237
ashington	2542
Ġrum	7440
ĠBanking	35385
Ġdesire	6227
ĠMage	17323
Ġwives	17743
vey	3304
Ġparts	3354
ala	6081
acerb	22428
Ġprolific	28892
IFT	32297
Ġgoose	37246
Ġauthorizing	42765
Ġagon	26990
Apr	13680
MAN	10725
ĠTip	23095
Ġnutrient	27560
ĠAQ	39514
together	45525
Ġ56	7265
ĠReact	21492
idation	24765
ĠAden	48500
fect	2309
Ġherbs	25411
ĠUseful	49511
Ġsomeday	25580
iago	29601
Ġoutlining	36995
Ġ409	48132
Ġdri	1454
Ġplun	19324
aviour	37716
Ġunfortunate	14855
intosh	37638
Ġremorse	34081
ĠStyles	44963
Ġmidway	37720
Els	45507
ĠSp	1338
Ġcessation	35120
kat	41826
ĠTata	49963
Ġpainted	13055
ĠCreation	21582
Ġrelative	3585
pson	8430
ĠRobin	12325
ĠAmanda	23040
Ġconstituency	28280
132	19924
Ġpostal	30793
Ġmarried	6405
ĠPatrick	9925
ĠEvidence	21259
Ġbuilds	12188
Ġnearly	3016
neutral	29797
Ġvariety	4996
isdom	9350
Ġdriven	7986
uro	1434
Ġinsightful	41696
Ġobvious	3489
ĠBreast	37476
oor	2675
ĠOpera	26049
ĠOffic	6328
Ġtouring	25583
Ġsimplified	27009
Ġ97	10111
ĠNonetheless	27251
Ġfarmers	9818
Ġgeop	30324
Ġperish	42531
ĠGuides	48770
ĠMarines	19586
Ġsubjects	7481
Ġreneg	30780
upp	7211
Ġfict	16878
Function	22203
Ġsouls	15625
Ġarchived	33962
ĠUnlock	39626
ÃĽÃĽ	48396
iques	6368
hattan	12904
Play	11002
ĠDraco	31181
anced	2903
Ġstumble	35174
Ġcalf	31134
MD	12740
Ġof	286
Ġnicotine	21856
Ġchassis	24587
ĠCongress	3162
ĠAppendix	30378
Ġjung	34799
ĠRiyadh	37236
Ġrules	3173
ĠFestival	11117
æ©	43897
ĠSham	27957
?????-	25658
ĠDecker	47170
Ġnegro	47255
íķ	47991
Dex	48875
Ġunf	3684
FFFF	29312
bed	3077
ĠMorning	14410
Ġpromotion	12148
Ġissu	25731
Ġbroadly	18633
mort	30171
Ġdepiction	33016
ĠSwansea	36019
ĠMaver	28870
Ġcrow	37593
leanor	41807
gh	456
opsis	24608
ĠTaxes	42260
MER	29296
Ġlodging	42906
uck	1347
iator	38585
Ġpamphlet	42919
bil	33473
ĠCandle	44973
ĠTelecommunications	48667
adiq	48687
ĠUlster	50026
ĠComfort	45769
eyed	18834
ĠSTEM	34133
Ġconvol	46968
ĠPLUS	48635
Ġfiasco	49023
ico	3713
Ġcrack	8469
ĠPU	24676
ĠRemember	11436
due	23301
ling	1359
ET	2767
host	4774
python	29412
Ġrestrict	4239
pping	2105
ĠMaple	21249
185	21652
adle	35166
ene	1734
Ġflight	5474
obe	5910
urable	11970
Ġleaked	14109
Ġgrim	18288
QUEST	35780
ĠSparkle	41614
ĠHendricks	42476
etrical	34546
ĠThings	11597
ĠBallard	45415
Random	29531
Ġhive	35881
Step	8600
333	20370
vable	23765
Ġyielded	26403
ĠUnderstand	45010
ĠDiver	50137
ĠCD	6458
ding	12083
Ġexamples	6096
Ġsoc	1307
amps	9430
Ġé	16268
ĠFran	12323
ankind	28066
Ġbetrayal	29355
Ġorthodoxy	49371
Ġtricked	42608
Ġ317	37563
fa	13331
Ġinterpersonal	43146
ĠZhao	29436
long	6511
ĠClasses	38884
ĠRC	13987
ĠAssociation	5396
ouls	42033
Ġscapego	42374
ĠRats	44164
budget	37315
ĠPerspective	42051
Ġmap	3975
ĠReeves	41533
Pand	47206
ĠSolar	12347
Ġarchitects	29518
ĠFeinstein	34861
ĠLorenzo	41721
endium	49811
Ġcharacterized	16264
ocalyptic	28339
ĠBinary	45755
Ġgulf	41593
Ġcongrat	19833
Height	23106
Ġgroceries	38464
iasm	16401
ĠâĪ¼	42783
ĠOverall	14674
Ġadjourn	46055
ilet	41550
ĠToronto	6586
Ġtowards	3371
Ġ08	8487
STD	32147
ĠStras	47561
Ġbo	1489
opia	24464
ĠIslamic	5533
Ġ206	27253
JD	37882
ĠMessages	43534
laun	38722
Ġcollapsed	14707
327	34159
ĠTow	24324
Ġsuperflu	48713
ĠMouth	44764
bilt	34508
ĠPredict	49461
craft	3323
par	1845
Ġego	19225
Ġmilitias	28195
Ġseeker	45993
herical	37910
ĠMalaysian	30031
IZ	14887
Ġshelf	18316
Ġtackled	35457
ĠMicro	4527
Ġsynthesis	21263
Ġcatches	17591
Ġunpaid	24268
ĠBEN	44849
81	6659
inki	38799
dy	9892
ĠPH	9370
ĠHel	5053
ocy	13733
,"	553
ĠParad	14853
Ġdataset	27039
Ġvitamins	29091
owler	30014
rupted	31590
Ġdouble	4274
ĠFuture	10898
ĠEli	25204
Ġtale	12838
Ġdiscriminate	28433
Ġreversible	48287
skip	48267
ĠPUR	33079
Ġthrow	3714
Matrix	46912
ĠFernando	31063
Box	14253
ĠApex	49440
ĠCSI	49911
ĠBert	22108
ĠCourts	32631
Ġshameful	34078
Ġshoved	35137
lance	23215
Ġrevenge	15827
Ġsensible	20586
ubby	38393
Ġplanet	5440
Ġcurves	23759
.ãĢį	43735
Sunday	21934
radio	37004
Ġnep	25919
Ġtestament	29210
Ġdecks	13136
ifestyle	42004
ĠRangers	13804
ĠRec	3311
ĠDistance	34600
ZZ	30148
.):	47308
ĠScha	35756
onne	47476
arine	34569
Ġconsidering	6402
ĠMPs	14952
Ġoranges	48389
Ġpredictable	20039
Ġwit	20868
ĠHulk	22860
Ġlook	804
Stock	26207
ĠVox	28035
Coach	40677
%);	49563
Ġopen	1280
Ġventilation	34834
Ġjustices	27818
ĠHun	5900
Ġdictator	26671
ĠMold	29684
Ġawakening	33971
ĠNEXT	39726
ĠTeam	4816
atson	13506
ĠTB	23799
594	46438
ĠMajority	22171
Ġfriendly	8030
ĠGlow	45929
ĠDeity	15081
ĠPodcast	16036
Ġlife	1204
index	9630
pole	36869
________	2602
Ġgun	2485
Ġlamented	40176
checks	42116
Ġdrowning	32249
Ġmiles	4608
ĠAirlines	16712
mallow	42725
Ġjug	45808
Ġbehaviours	38975
maker	10297
Ġparty	2151
Learning	41730
Pocket	45454
ĠMVP	12742
Ġinvisible	14836
Entity	32398
Ġliberate	45521
Ġravaged	47877
ĠLak	30392
ĠHistoric	30426
Ġharmful	13568
Bright	41267
Ġarose	21172
failed	47904
Ġpositioned	19378
alf	1604
ĠBreat	40285
Ġinstallation	9988
ĠPierre	21204
ä¼	27670
et	316
Dis	7279
pleted	16838
Ġlions	31420
ĠHit	7286
Ġjet	12644
thereal	37827
ĠShiny	39657
ĠMelee	21058
NE	12161
Ġfully	3938
Ġanonym	14571
Ġounces	24405
Ġdeny	10129
Ġuploading	33794
Dialogue	41099
885	44230
erenn	31915
Ġexhausting	39663
ĠPants	41689
Ġpus	4192
Ġfur	9230
Ġ3	513
Ġneoc	29938
Ġ",	33172
Ġswollen	37327
Xi	42528
ĠEthernet	31903
Ġdiffere	980
Settings	26232
Ġspeculative	28991
ĠActing	37539
founder	15454
FFER	45746
separ	25512
Ġbombs	12134
ename	12453
ĠEstate	23015
ĠChallenger	39221
ĠAssistant	15286
ĠBattle	5838
ĠExpress	10604
Ġtrusted	13467
killer	32156
keyes	43174
ĠArgon	49974
ĠAFL	25363
Ġmany	867
llor	14127
).	737
Ġskelet	17773
Minor	39825
Ġdifference	3580
Ġlively	29696
ogen	6644
lean	13087
ango	14208
Ġsmoot	32746
Ġcompiling	33393
ĠAnonymous	19200
ĠCompanion	30653
Ġcaptivity	33763
Ġcivilizations	35928
ĠKILL	45257
ĠSeeking	48160
Ġfilms	7328
ĠEnhance	32999
Ġmelted	24178
coll	26000
Ġpardon	27322
Availability	29841
Ġsubsc	5294
ranged	34457
ĠCompensation	39059
ĠFord	8092
mi	11632
Ġgifts	13201
ĠWebsite	15887
(_	28264
ĠRockefeller	32764
ĠRM	29820
Ġneuronal	36347
Ġelected	7018
immune	38345
Ġoccupied	12030
Ġexpanded	9902
EEK	33823
Ġ218	29217
Ġgrocery	16918
amide	37905
achu	32323
London	23421
ĠAlliance	10302
belt	37976
************	46068
actionDate	31538
oming	3383
ishops	21863
ĠKenobi	46217
ĠChaff	46279
ById	48364
ulk	12171
Dep	12156
bass	42933
inis	16661
Bio	42787
Ġjustice	5316
807	36928
ious	699
Ġinterconnected	40582
Ġenact	10865
Ġquestionnaire	28301
Ġtheology	24383
ĠSnake	16705
eas	30412
_-_	31386
Ġeighty	37516
ãĥĦ	41115
Ġ<[	29342
Ġraping	34638
Ġmoney	1637
Ġcultured	45847
ī	231
ision	1166
Ġrebounds	18841
ĠPartner	35532
Ġupbringing	40678
Ġirresist	41111
vec	35138
ĠTR	7579
ĠSize	12849
ption	1159
ĠSomething	13742
Fact	29054
Sadly	36725
Ġstops	9911
Ġcelestial	33258
Palestinian	35969
Ġvec	43030
rak	17716
ĠQiao	45724
Ġdistinct	7310
Ġyield	7800
Ġinvestigate	9161
ĠArrow	19408
458	29334
foundland	42030
Ġelectronic	7914
ĠNguyen	42379
verting	48820
ĠNM	28692
Ġmatte	36908
ĠDRM	31400
ĠStanford	13863
ĠUses	36965
Terror	40194
Ġjustifying	46235
Path	15235
309	26895
Ġtire	15867
August	17908
ĠLemon	27252
ud	463
ĠEmil	44272
Ġunmarked	46791
Ġconstant	6937
ensional	37176
irection	4154
ĠTWO	35288
Ġhorrend	39910
ĠDi	6031
Ġsay	910
Ġpesky	49109
ĠMesa	26670
ĠHHS	45497
Ġmajority	3741
Ġpromoter	32972
ĠGunn	40837
f	69
#$	29953
Ġgar	5482
Ã»	42324
imilation	42963
Ġuncanny	45244
Ġarmed	6936
ĠDeal	15138
ĠAdrian	21462
052	37841
Ġdoesn	1595
peria	38032
zip	13344
emark	47626
<?	47934
ĠWi	11759
":	1298
ACT	10659
Ġbruises	42232
Death	20148
ĠPortland	10727
ĠPCB	28700
Į	234
Ġlar	26371
Recommended	36171
Ġhostilities	39082
Ġbottleneck	49936
bot	13645
Da	26531
.,	1539
ĠStaff	9983
Ġhandles	17105
Ġlimiting	15637
Ġaccepts	18178
ĠSed	22710
Ġdeviation	28833
erness	17447
VAL	23428
Ġmankind	18019
Ġcaliber	28139
Ġhatred	13763
Ġintu	14605
Ġmultip	18540
ĠTrump	1301
ĠAsian	7740
ĠJesse	18033
ĠMyanmar	22815
163	24136
ĠDone	24429
ĠSuper	3115
ARR	26465
ocent	29421
ãĤ¼	30432
Ġstrut	30577
ĠMichigan	7055
ĠZig	24992
Ġpicnic	35715
ĠCivic	31593
889	39121
ĠCostume	40051
ĠHavana	40274
Ġprimates	41316
Ġgren	17236
ĠPetty	41505
Ġuniversal	10112
ĠWaves	42733
ĠYES	21560
Ğ	218
oky	31375
irlwind	32785
ĠEco	38719
Ġcolonists	43430
Ġmotivation	14052
Ġcharms	41700
aurus	22302
Ġarra	44723
Cooldown	45953
Ġfermentation	35115
ĠHancock	39261
Ġloved	6151
238	23721
William	17121
concept	43169
ĠclichÃ©	43973
Tact	45803
ĠTaste	29633
ĠOLED	47463
Ġfragrance	36860
Ġtriple	15055
opath	18569
Ġtails	30514
Silver	26766
ĠResort	28345
Ġlaptop	13224
culus	17576
Ġimpart	23553
Ġmocking	31202
illus	44342
ĠPebble	46041
Ġrend	9851
Ġbookmark	44007
Ġimperfect	23162
Ġcrazy	7165
Ġduplicate	23418
Ġ195	24793
ĠRUN	32494
Ġcollaborators	37886
ĠWeiss	16152
Ġmastering	45116
Ġmitigating	47165
Ġburd	8746
Ġ73	8854
valid	12102
Ġinvade	30419
ĠPresidency	35696
Ġshipments	29311
Ġinvasion	11796
Kay	37247
ĠGHC	46615
enny	11870
ĠLatest	26603
Rus	35313
thought	28895
Login	47790
ĠNiger	23731
254	24970
wagen	29160
antis	20836
Ġadditive	38298
ĠS	311
Ġfeasibility	40460
ĠRational	46863
Ġ105	13343
Ġtotem	49930
Ġdrowned	30859
ĠLing	25116
Ġ07	8753
Ġamplify	47366
Ġgp	27809
ani	3216
Ġnarrative	8689
ĠRome	10598
Ġii	21065
Ġtoppled	48757
Ġcamps	11665
Ġsession	6246
Foot	17574
Database	38105
Because	8128
Ġexposure	7111
ĠAbel	42474
division	21426
Ġvitality	41687
zinski	46394
everything	37814
Ġceilings	45926
ream	1476
atform	3390
Ġwithdraw	8399
ĠTool	16984
iru	35406
ĠPIN	34279
Ġtul	48373
acers	49908
ĠRecover	49107
ĠTrevor	25389
Lastly	37511
Ġnot	407
ĠNigeria	19398
Ġcommencement	32609
VID	11008
........	2109
Ġintric	22588
Ġretaliation	24671
Ġevaluates	47850
acco	8679
ndra	24631
Ġfetus	31076
lected	12609
ĠWhis	28424
Ġprimer	33270
ought	2917
ĠAfrican	5510
np	37659
Ġconvince	11508
Ġwizard	18731
ĠTrend	22836
Ġherald	28783
tell	33331
Ġ+---	40703
Sport	42576
Ġrelating	11270
ĠNewcastle	22410
ĠFunding	35249
ĠFEMA	43575
ĠAdmission	44025
Mus	10694
Ġreminder	15438
Ġencouragement	27529
387	32220
Ġassailant	45800
Ġpies	47199
Ġride	6594
Ġmall	17374
align	31494
2000	11024
ĠRohingya	34016
ĠCalcul	27131
ĠHurricane	16004
990	34155
2002	16942
orescent	35414
ĠCharity	37575
nikov	45451
Ġprinting	13570
Ġacademics	22321
Ġfootprint	24713
Ġejected	38632
Ġaccepting	12598
those	25591
jen	48796
Û	151
Ġhorsepower	36696
Ġrevoke	39041
ĠDinner	34584
UTERS	14974
Ġfears	10251
Ġcommitment	7901
Ġobese	20779
iments	6800
ĠWester	32104
ĠKom	32364
ĠRedemption	34433
Ġappealing	16403
Wars	41508
Ġbabies	11903
boxing	45471
Ġphenotype	47174
ĠBai	40750
imeo	47776
ĠUnder	4698
ĠD	360
Ġnipples	37368
ĠColorado	7492
1986	28054
Ġleaflets	48409
ĠNissan	28190
Ġvast	5909
Ġemitted	31234
oine	42722
ĠPog	48974
057	43526
Ġinfinite	15541
Ġshelters	23629
äºĶ	49390
Ġincidents	10207
Ġcarn	18466
Ġfuture	2003
met	4164
Ġrigs	45932
2007	12726
Ġtasks	8861
culation	14902
ĠFirst	3274
bread	29573
=-=-=-=-	27584
Default	19463
ISM	31125
ĠPerse	31544
Ġult	3789
ĠBangladesh	19483
ings	654
ĠSlash	26616
Ġimpressive	8036
Ġwasted	18359
Ġfetch	21207
ĠScores	44654
ĠTun	13932
Ġshareholders	19195
ĠStep	5012
Ġhers	25144
ĠPyrrha	34386
ĠCoulter	47248
ESSION	47621
matched	31409
ĠNutr	37012
Ġaccessed	17535
ACY	43300
inx	28413
Ġpreempt	38726
Ġcontin	1261
Ġcrucial	8780
ForgeModLoader	24934
ĠYaz	35856
ĠGaia	37471
ĠFisher	14388
ĠFans	24964
Ġcrispy	42807
Ġapostle	46329
ĠBoston	6182
heses	39815
Ġingenious	44207
but	4360
Ġacknowledgment	48182
facing	29532
Imagine	25153
ĠTai	11144
ventures	10065
Ġelectronics	17075
Ġterribly	22121
leave	47408
Ġchalleng	4010
pa	8957
Ġmessing	37241
Ġdeleted	13140
Ġtransferring	26140
ĠSinclair	34927
Ġaust	38132
Ġunstoppable	40181
820	41739
Ġpolluted	42340
Ġcomponents	6805
icularly	22585
ĠJS	26755
ĠAfghanistan	8037
Ġspoiler	34192
before	19052
Ġaspirations	27337
ĠCoke	34723
ĠMerchants	44682
Ġmasterpiece	30669
raph	1470
livion	26018
ĠAnalyst	44600
Ġanimal	5044
uctive	45857
Ġ106	15696
weather	23563
ĠSil	4243
ĠWhole	23431
thanks	27547
XT	25010
ĠReid	16095
IC	2149
1	16
isers	21572
XP	27481
success	13138
Mod	5841
Ġur	2956
itational	22181
ĠShane	24379
Ġprevail	28615
imentary	39051
ĠBrush	39846
Ġdiagonal	40039
Victoria	49898
ĠMcH	49634
Ġgoddess	22215
isoft	29719
Ġspotlight	17838
Ġoutbreaks	35198
ĠMPH	43822
Ġboosters	47949
ĠSunder	31898
Ġinforming	29140
forms	23914
ĠCanon	19507
independent	34750
ocol	4668
ownt	6887
ĠEl	2574
ĠLeviathan	32223
invest	24859
ĠBerger	33337
Ġrelentlessly	37952
robe	25481
Ġlicensing	15665
Ġconcess	18806
Ġimpeachment	30258
Ġnear	1474
reet	2871
zzi	46218
Ġnearing	37242
legraph	16606
Ġbirthday	10955
ĠSpit	48377
Ġlawyer	6853
issions	7717
leton	10565
Ġrevived	28910
778	39761
Ġmerger	24589
Ġresearchers	4837
ĠKilled	13095
Ġturn	1210
ĠRaiders	16120
enza	23674
quire	29782
Ġensl	25563
och	5374
ĠFrie	45890
ĠColumn	29201
aund	14677
Ġfractures	39381
ĠParm	47796
Ġmonument	17757
ĠLondon	3576
Ġasymm	30372
ĠTodd	14377
Ġcarpet	20710
Ġpredominantly	20736
times	22355
orns	19942
Ġstereotypes	22364
iots	16228
Ġinadvertently	29243
Ġskipping	31017
Ġdesignate	32781
ĠMobility	34505
inct	4612
ardy	39124
Ġcirc	2498
ĠBlizzard	20206
ĠMari	29423
Ġnervously	43324
ophys	39665
]).	35944
ĠCrate	37504
Ġclash	19122
Ġdies	10564
1999	18946
Ġbackup	11559
Ġfind	1064
duty	26278
ĠLect	31209
urally	20221
ĠWhitney	34701
ĠGoddess	9488
Ġunde	44192
ĠNYU	48166
rawled	49263
Ġhotly	50180
ĠReligion	21741
Ġvary	7565
Ġwithheld	31453
ĠMare	36989
Ġshouldn	6584
Ġfreezer	30967
ioch	41097
ĠMunicipal	31526
bec	9423
Ġrelief	8259
ĠRSS	25012
/**	35343
anon	36902
Ġ530	40585
Ġallowances	42290
SP	4303
Ġmirrors	22353
Ġpositively	19888
Ġskept	11200
urgy	38140
Ġgraceful	44363
Ġdrunken	26680
Ġauthenticated	44529
gment	5154
Ġpropulsion	38873
ĠMassacre	40602
Ġ1896	46723
Ġdesserts	47950
Ġorganizer	26311
Ġonwards	31719
bucks	18999
Ġ--------------------------------	20368
ĠAlpine	46994
UG	7340
Ġripe	29036
irting	35355
eper	5723
izza	9990
Ġinclined	19514
ĠSw	2451
ĠGin	21444
Ġenergy	2568
Ġfinancial	3176
ĠLincoln	12406
Ġscanners	47059
condition	31448
Ġintruder	48927
ĠSweep	42818
Ġceremony	10542
ĠInv	10001
universal	40082
ĠUniversity	2059
aday	43593
ĠGord	39592
Ġdisconnected	28597
ĠViktor	31096
ĠPaula	36025
ijk	45961
ync	13361
escal	47647
Ġmorbid	34813
Ġconsensus	11529
Ġcorresponds	24866
stein	5714
Ġdischarged	26476
Ġinduct	28948
390	25964
ilater	38601
rights	28046
Ġinjured	6686
Ġsympath	23860
Ġbuses	16893
ĠBehavior	20181
ĠProperties	24946
Ġsolves	39107
bled	9342
Ġshakes	29959
=-=-=-=-=-=-=-=-	46402
ĠConnie	48506
ĠRamos	36692
irled	49376
Um	37280
ĠBel	3944
ĠUNITED	49668
Ġhavens	47450
Ġscan	9367
Ġrelations	2316
Ġconflicting	24916
ĠTask	15941
áµ	39611
ĠCov	39751
èĢħ	38519
ALL	7036
Ġphases	21164
ĠZub	47828
Ġreceipt	14507
ĠBlue	4518
areth	26659
ĠRecap	46585
vised	16149
ĠRays	36199
Ġsilver	8465
Ġexacerbate	49522
atar	9459
ys	893
ĠMeteor	25582
ĠBeing	11204
heart	11499
ĠPride	21735
ĠBristol	25040
ve	303
409	29416
276	27988
Ġhinge	41968
Parameter	36301
Ġconducts	36721
isbury	47967
Ġ[+	26076
,âĢĶ	34976
ĠSebastian	26190
ĠPist	18667
Ġmoss	42853
ĠHydro	32116
shall	49271
Ġeye	4151
Ġcooldown	20869
Shell	23248
ĠDice	34381
Ġstarts	4940
Ġprograms	4056
Ġ275	25829
lethal	46480
ĠTL	24811
Talk	25685
Ġbatch	15458
ĠAthlet	18093
040	36676
TG	35990
ĠExperimental	32286
Ġ191	31009
310	26717
Ġsans	38078
Ġstruggled	11615
Ġtra	1291
Ġvers	1646
ĠAntiqu	47789
ĠSpeaker	14931
Ġwithdrawn	23019
ĠPond	41598
beh	20709
Be	3856
ĠScrib	44469
Ġbowed	35737
ĠReferences	31458
Ġcraft	5977
ĠDesert	18692
verse	4399
Jun	22396
might	44092
Ġbog	22922
ĠBW	37869
itzer	10557
Ġvap	38187
ĠNewsweek	39594
ĠJaw	40863
ĠSpecial	6093
meta	28961
ĠID	4522
ĠHeader	48900
Ġhuge	3236
²¾	39333
LED	30465
144	18444
UA	34970
ãĤ¦ãĤ¹	34103
Ġfact	1109
Ġsarc	40638
Ġcollectively	21329
Ġmisconceptions	45679
ĠMarsh	9786
ĠCroatian	48853
ae	3609
ĠWarehouse	45927
Ġcivilisation	45605
Angelo	45585
ĠUs	4021
enos	28380
ĠUnlike	12101
ĠDancing	31799
Hum	32661
Ġmigrated	40227
mie	44871
ĠHeard	49417
Ġgadget	42892
Ġcomple	1224
ĠWes	18622
Abs	24849
Ġcompl	2299
Ġdynam	6382
ĠEmergency	18154
Ġplumbing	40199
ĠVeh	15118
ĠREG	23337
Ġfaster	5443
eman	8463
ĠZimmerman	24332
Ġhighlights	11330
Gh	41126
Ġovercl	40397
igslist	40704
Ġdementia	27886
ĠEP	14724
ĠYouTube	7444
ĠAlabama	9266
ott	1252
2004	15724
Ġinability	16612
ĠGri	20914
quist	30062
Nic	30403
Ġdealings	29043
Ġaccount	1848
chat	17006
Ġblends	32067
ĠVil	34037
Ġunavoid	34804
Ġ124	19755
ĠShine	41249
Ġpar	1582
gart	41651
Ġfreezes	44389
ĠGibraltar	47403
ed	276
Ġquartz	47969
itent	48324
ĠLub	40753
ĠCont	2345
Ġoffic	1163
Ġoverhead	16965
assadors	33429
Ġartery	37646
####	4242
ĠMario	10682
ĠGoddard	47386
Ġpaired	20312
Ġlandfill	47712
ĠWait	16314
ĠOrient	35275
ĠSo	1406
ĠTrick	30028
Ġdescendants	25321
ACA	26576
integ	18908
Heavy	33210
ĠEnterprises	41253
Ġmarines	45333
Language	32065
Ġtv	31557
ĠPocket	27290
Ġwaivers	35633
Flight	43069
ank	962
esis	9339
Ġmeasurements	13871
Ġyourselves	27012
ĠCf	43216
Ġinciting	47494
ĠRefugees	38550
||||	42210
Ġdestroy	4117
ĠTIT	37977
Ġfool	9192
Ġguy	3516
Local	14565
Ġconvenience	15607
OUND	15919
ĠUsers	18987
ĠCage	27577
accessible	33780
ĠJeremiah	40192
Ġderog	38417
031	43637
ĠPour	39128
Ġmuscles	12749
owski	12079
htar	38672
Ġsimultaneously	11640
Ġrouters	41144
ĠMos	5826
Ġpercentages	28071
l	75
ĠTweet	18752
ĠCU	29369
Ġconvenient	11282
Ġconsecutive	12785
ĠClippers	28564
ĠJuda	24771
ocket	5459
Writing	33874
zek	43130
Ġbin	9874
Ġphr	7607
Ġchief	4039
ĠIndex	12901
Ġ425	36959
ickle	39423
Ġconvers	3453
ochemical	32864
asures	13846
ĠOccup	15227
ĠResurrection	30688
Ġvitri	48950
Ġdogs	6844
tun	28286
rir	29283
organisms	45165
QU	10917
Ġvoicing	47640
"?	13984
uffed	18339
777	29331
ĠKlux	45092
Ġfundra	12663
ĠHolly	7764
Ġmisinformation	32805
Ġscal	16578
ĠCommunist	14884
ĠBerks	45167
ĠDemocr	2459
Ġteens	15508
Ġstyl	22152
ĠWR	11342
Ġmaterially	38858
Ġbone	9970
ibia	41145
Ġinadequate	20577
Ġnorthwestern	48164
Ġlung	12317
educated	27317
CHO	44899
ĠUrug	31021
SG	38475
Ġqueen	16599
ĠSAN	37376
Ġskeptics	37972
patch	17147
ĠAttend	46502
Ġinstincts	26744
Ess	29508
ĠBlasio	36200
Ġ406	45439
Ġforfeit	46548
ERS	4877
Ġhops	29438
ULTS	35342
ĠSHOW	37041
ogeneity	37477
ĠSelect	9683
ĠHarmon	39712
ĠFarming	39831
plement	26908
ĠEsk	47534
ĠCatch	25750
Ġprotections	15018
ĠMcL	18365
share	20077
meat	41495
ĠDinosaur	47808
resa	14625
Ġobedient	41652
Next	10019
Ġpolitically	11889
tri	28461
tale	29429
ĠWeb	5313
Ġline	1627
Ġreassured	48171
Ġ540	38190
hes	956
entle	8651
ĠCoco	48222
Battery	47006
Ġ178	27368
Mission	37057
ĠKiev	22761
Ġsoup	17141
Ġaug	16339
Ġstair	18761
ĠDAM	29506
Ġimmediate	7103
elled	11978
ĠDefeat	41397
jandro	47983
inen	42326
019	30484
Ġgrep	42717
2018	7908
ĠFair	7011
Ġruin	16866
Ġinsulting	27899
nesia	31401
ĠProgramme	35232
ĠHandle	33141
ĠCR	8740
Ġfeud	21419
ĠPresent	21662
Ġmulticultural	34641
Experience	44901
ãĥķ	17681
ĠHeck	31679
ruly	34715
ĠJolly	40276
Sleep	40555
ĠCharlie	11526
lace	27077
Ġinconvenient	37513
ĠPaleo	46840
Ġthyroid	30523
plugins	37390
ĠPennsylvania	9589
ĠMini	12558
Ġdeadlines	36773
Blood	21659
Ġvouchers	41262
Ġpts	43344
Ġchores	46173
close	19836
ĠAnalog	50088
264	18897
Ġprince	19716
Ġstatues	25827
Ġmisconception	43122
Ġwoes	34072
Ġhaste	36797
Ġcaf	19945
Ġmanipulating	29349
Y	56
ogram	21857
ttp	29281
Ġpeacefully	30996
Ġepidemic	18195
Ġbulbs	34122
Ġposes	17313
peer	33350
ĠMarble	36891
change	3803
Ġreplace	6330
ħ	227
Ġroom	2119
ĠPoint	6252
ĠNumber	7913
Event	9237
irl	1901
Ġpromoting	11560
Ġalternate	13527
Ġhurd	22227
Ġdrew	9859
Ġtask	4876
Hol	28115
Ġgrid	10706
ĠHe	679
ecause	3156
ĠClark	11264
Ġcurtain	29461
Ġaccents	39271
ĠMÃ¼	40790
ĠPatient	35550
Ġcoinc	11194
Ġres	581
Ġbolt	18100
ĠUber	12024
Led	42416
ĠFol	30938
ĠAware	32828
ĠDism	44955
ĠProtective	45004
ech	3055
itives	20288
Ġfacult	45101
anasia	45551
Ġhandy	15728
Front	25886
onduct	12920
Ġbillboards	46696
ĠLuthor	47506
ĠBoards	48606
carry	34993
Ġkcal	49504
Ġfanatic	43631
omer	12057
ĠCultural	23897
Ġyour	534
Ġep	2462
Steven	28292
ĠBlockchain	29724
Ġseverity	19440
ĠWine	20447
Ġarist	28631
Ġrecognition	9465
317	34125
---	6329
Var	19852
Ġbottom	4220
ĠMarketplace	36703
osterone	16372
ĠReese	39929
Ġengineered	23371
Ent	14539
3000	23924
priced	30883
Ġwarranties	50174
Ġrallying	36467
ĠDogs	21367
Ġmosques	32240
Ġeyewitness	34316
Ġtechnologies	8514
Ġ1400	36641
KB	22764
ĠPose	37557
Sh	2484
Ġairstrike	46504
jug	31761
Ġwidening	38118
Ġmicrophones	46952
Customer	44939
Ġpolling	13985
names	14933
âĻ¦	41298
Ġminimizing	41366
fighter	24733
Ġdi	2566
ĠMiami	8437
Ġunh	14274
Ġhappily	18177
Ġunderground	11447
IN	1268
ĠDrew	18624
Ġcowork	30521
Ġthereof	15370
Ġhappier	23030
ohan	22436
Ġthorn	38999
Ġtreacherous	45365
cerned	49990
ota	4265
Ġ87	10083
Ġpubs	46972
ĠAvery	29218
ĠKramer	41454
Ġunethical	38486
orously	24882
Ġshredded	37624
ileen	42236
orney	4195
itched	10981
ĠCases	35536
ĠDerek	20893
td	8671
olis	8506
Ġfunctioning	15025
fty	19628
opsy	44522
Ġincite	49225
Ġstellar	25041
ĠKiw	40011
chell	12398
Ġimpacts	12751
Ġcommodity	19464
ĠPix	21642
ugh	6724
ĠHeart	8894
ĠNotre	23382
ĠPatri	9606
faced	24903
ĠDunn	30833
atu	33419
ĠHorror	22732
director	35248
)=(	35793
Ġhorr	12731
ĠVelvet	36271
ossus	36533
CAN	44565
pez	46057
554	44218
Ul	47920
Ġlen	18896
ÃŁ	39683
PER	18973
Char	12441
Ġestrogen	30541
fb	21855
orbit	42594
iuses	44666
ĠFusion	21278
ĠMort	10788
eg	1533
communications	20860
ĠNoel	33905
Ġlash	46967
ĠMiz	29975
ĠAN	3537
uls	5753
ĠEnd	5268
Ġdemocracy	7996
ĠDick	11740
ENSE	24290
Ġunrealistic	31363
Ġputs	7584
Ġinvolves	9018
iper	9346
Gs	33884
Ġthick	6546
iera	41976
wikipedia	31266
hovah	33023
lic	677
Ġpresent	1944
"><	22039
Ġautism	15998
Ġvi	25357
ĠStatic	36125
hazard	37598
Ġstark	19278
ides	1460
wage	21482
Ġnud	26731
Ġcog	43072
ject	752
Ġexploit	14561
ĠTears	40328
Ġwithd	6681
Ġrevamped	43814
Ġgiveaway	39015
ĠPair	39645
ĠYounger	45174
^{	36796
Ġtakedown	33341
NET	12884
ĠClicker	44051
ĠVIDEO	35507
Ġassociations	15814
Ġfurthermore	50002
umps	8142
ĠRatings	36826
diagn	47356
ĠdÃ©	39073
Ġslight	3731
ĠNeb	29837
Ġsuperb	21840
Follow	7155
Ġalteration	35635
ĠCommons	13815
Ġoverseas	11292
Ġ173	28174
Ġ289	38902
Script	7391
Ġrendered	15111
bg	35904
ĠSTOP	44934
ĠPhant	38699
ĠBug	15217
](	16151
yson	19699
ĠOPEN	38303
etr	21879
ringe	38229
ĠHIM	45909
ĠFr	1305
thur	11098
ual	723
stat	14269
Ġoath	17865
Ġaspects	7612
Ġg	308
ras	8847
ĠChem	12870
ĠMog	30926
Ġabolish	35531
roph	10051
241	28872
Ġholistic	42923
192	17477
Ġtransformative	43590
Ġannexation	41329
ãģª	26945
ĠGateway	29916
ĠQur	17599
ĠJordan	8078
376	32128
Ġsod	32581
382	36243
FR	10913
ĠDG	46133
560	34135
Qual	46181
OOOOOOOO	47732
Ġrehabilit	44537
Ġreactor	21905
gob	44270
Sound	21369
ĠCommit	35910
Ġ386	48340
Ġshifts	15381
efer	41027
ensor	22854
ĠBasin	32666
ĠLot	15099
ĠDawson	32801
Ġtoug	14427
ĠRutherford	49767
Ġoccupancy	42498
GBT	9146
Ġcables	18018
OE	27799
Ġmanner	5642
Ġcopyrighted	33696
cano	35490
Ġdepletion	42435
ĠBeng	14964
ĠCelebration	44911
ĠOlympus	42108
ians	1547
ĠFreeBSD	35841
equipped	40617
Ġthreatens	20201
ĠKirby	23965
ĠLatino	20496
ĠPST	28220
Ct	33707
ĠFein	45711
ĠGomez	33231
except	16341
ĠPAC	16741
Ġyou	345
Ġuh	21480
ĠMale	12674
ĠEven	3412
ournals	18408
Ġpreservation	22459
888	28011
¤	97
ĠUn	791
ä¹ĭ	45298
Ġimpover	30956
Ġvending	47254
ĠSouthampton	30035
But	1537
selves	2020
AY	4792
Ġindie	19907
Ten	24893
Ġsays	1139
Ġintest	20183
ĠMON	25000
ĠArbor	30455
ignore	46430
Ġasteroids	43098
Ġinstrumental	21543
Ġfill	6070
modules	18170
015	25150
ĠORIG	43901
podcast	46032
Ġphysi	42087
Ġperpetually	43389
ĠFou	34296
ITNESS	46144
ĠForbidden	46014
Bi	23286
Ġlieutenant	30269
ĠCONS	39537
Ġpacks	15186
ĸļ	31204
Ġbreaches	31523
ĠActivate	33120
Altern	23081
ĠLocation	13397
Ġawarding	46116
ousand	29910
ĠAndy	12382
Ġpharmacies	49661
ĠYue	32854
ĠOrthodox	17650
ortium	25182
Ġsettlements	18573
Ġpaints	32281
requent	46018
ĠProcessing	28403
Ġ2001	5878
ĠLog	5972
Ã¡	6557
ĠTam	11552
Hell	28254
ĠSeym	42543
Ġslack	30740
init	15003
Ġattractions	29156
hidden	30342
ĠWant	16168
ĠVed	36101
lor	4685
Ġlooked	3114
Ġrequires	4433
wik	20763
ĠMamm	39502
Sort	42758
Ġanymore	7471
Ġbought	5839
ailable	1508
ORT	9863
ylum	11183
ĠFree	3232
Right	11028
ĠYa	26421
ĠWarrant	33872
Ġpresume	36059
movie	41364
Gaming	45509
ĠRadiation	47532
aku	8719
Ġgraphical	27831
ried	2228
Ġ326	40660
',"	40264
EX	6369
Ġconsequently	25578
Ġexiting	33895
âĢ¦	1399
ressing	11697
Ġmuseums	30794
umpy	32152
ĠLys	46749
Ġcoloured	34746
Ġnominate	40376
Ġstating	12316
Ġsnakes	26042
Ġguards	10942
Ġsidelined	39632
angering	49470
Ġtherapy	9102
ĠDread	27005
{	90
ĠLaw	3854
Ġthing	1517
ĠAnth	8451
ĠTrainer	31924
Ġconcede	33760
Ġpenned	34989
Ġbrewed	40163
Ó	143
Ġsenators	15469
Ġdelight	10974
Ġcompile	17632
Ġstiff	15175
-$	22799
Ġdrop	4268
Ġtie	9839
ĠNat	14393
Ġteachings	19564
Ġtin	19783
ĠEnemies	24364
~~~~	8728
Ġcontributing	14329
acey	25415
essee	10702
Early	20457
ĠAPIs	23113
ĠDexter	26284
ĠWeber	28137
ĠTurnbull	26445
???	28358
Ġloosely	28845
ĠGoes	31914
Ġvisions	26096
cutting	29753
Ġstarvation	32143
Texture	32742
ĠTuc	33370
ĠMAS	32337
Ġdriveway	33515
ioned	14994
Ġempire	13735
ĠLTE	28519
Editor	17171
Ġtyping	19720
Ġcommend	35695
doms	23686
ĠSWAT	36272
ĠHodg	37480
Ġ=	796
Ġ186	28481
ĠFeather	34501
ees	2841
ieu	22304
DOC	38715
Ġdemonstrate	10176
Ey	36287
Disk	40961
Ġcemetery	27316
gly	10853
Ġont	39585
Executive	43885
Ġcynicism	49509
Ġupgrades	16608
Ġunsupported	24222
ĠFailed	22738
Ġmyths	22886
Ġencourage	7898
Ġchickens	25972
ĠTas	24932
ĠCitizens	18029
cfg	37581
ĠEnforcement	19198
ĠShades	47260
Upon	23792
Ġunleash	33502
Ġspoken	9635
Ġeleph	14695
panic	35843
ĠJuly	2901
ĠHelsinki	47688
ĠDough	48179
Ġcherish	48303
cell	3846
ĠChimera	38399
orry	5152
clusive	5731
Ġsitu	34074
ĠChill	38290
ilege	41866
Ġcpu	42804
Ġinfield	43262
Ġslice	16416
Ġcontributors	20420
ĠÂłĠÂłĠÂłĠÂł	22686
stery	41991
ĠHomeland	17444
andel	33134
ĠLilith	40155
Ġformulations	49971
Ġnewest	15530
ĠDock	36444
ĠMa	6669
la	5031
ji	7285
Ġcruise	20382
Ġhostage	23229
SAY	27358
Ġcrunch	23527
ĠCustomers	36707
Ġpo	745
Ġallowance	24930
mys	28744
ĠCell	12440
Ġcurric	18363
Ġwears	17326
Ġimmun	16217
ĠMorty	30395
ĠSOC	31430
ĠSlim	34199
Ġrepairing	39005
mate	9830
ĠAppl	39100
ĠIssa	47410
Ġunintentional	48398
mut	21973
Ġsoftly	26625
Ġwhistlebl	24516
Ġmono	33361
Ġli	7649
phalt	41942
Ġattending	11969
Ġdictionary	22155
ĠSok	37641
gross	47181
ZA	34892
dim	27740
ĠBASE	49688
Ġoverw	6993
Ġadaptive	29605
ä½¿	45635
ĠFranchise	49924
ĠOperations	16205
ĠPrincipal	32641
Hmm	44217
Ġprimary	4165
Ġcriticism	7734
Ġ>=	18189
Ġtourist	18473
ĠFem	31149
Ġenc	2207
Ġroyal	15100
ĠWerewolf	40261
itch	2007
odus	21878
266	25540
Ġexaggerated	25291
icultural	26823
Ġrestraining	35078
cipled	41296
farious	41504
aird	41620
OSE	14058
Ġsymptoms	7460
Ġunarmed	24270
ĠBBQ	32083
Ġdoing	1804
ĠVR	6453
ande	40004
iosis	42960
Ġbiologically	44479
Ġremembrance	44827
Ġcolonialism	48359
ĠCommands	49505
seeing	42041
Ġkilled	2923
orp	16300
stead	28044
line	1370
Ġrivalry	26390
Ġbloc	24003
Ġblah	33367
Ġnewspaper	7533
Ġteasing	34417
ĠTheNitrome	42089
YA	44947
ousel	48355
Ġevaluated	16726
Ġoperator	10088
ĠHeaven	11225
ricted	20941
ĠSpecies	28540
Ġmetaphor	23094
ĠOpinion	29525
Ġ48	4764
Ġdollar	8872
ader	5067
Ġfuck	5089
Ġreadiness	30618
Ġcompose	36664
ĠReb	15652
roxy	42059
ynt	33567
ĠFarn	49230
Ġleftist	28318
Ġmortgages	30401
h	71
ensable	33447
Ġsplend	32394
çİĭ	25581
Ġlegislatures	38081
iversary	9023
ĠHud	16961
tech	13670
ĠRF	20445
Ġvalve	22580
ĠCas	11294
ĠCoord	22819
Ġcontrols	6973
Ġwhe	483
Ġhumor	14733
ĠDiscovery	23455
Ġinjunction	27439
Ġlightning	14357
arch	998
Putin	17060
ALSE	23719
duino	24493
Ġindividual	1981
Money	26788
below	35993
tub	37995
ĠLiberals	20162
Ġmisrepresent	26521
ĠVid	38965
Ġkitten	42143
Ġabsorbed	19233
Ġcustomers	4297
Hours	39792
Ġharmonic	49239
ĠKimberly	48685
Ġfishes	49765
Fal	41129
ĠBulg	37957
Ġinstallments	49854
iations	40356
ĠTexans	21012
Ġcheaply	45858
ĠUsername	50069
Ġ1886	49539
Ġminiature	28685
ĠNothing	10528
acial	18150
Cat	21979
Ġinformative	30304
ronic	4565
anoia	30661
ĠNigerian	36430
Ġhighlight	7238
ĠEisen	22633
Ġhalfway	19487
Ġdiscourage	27518
Ġsuccesses	23682
Ġplutonium	47901
dr	7109
ĠDon	2094
Ġbare	6247
Ġroadway	35852
ĠTaken	30222
Ġculprit	26581
ĠAlexa	34630
feel	36410
ĠBatt	12350
Ġprojecting	37298
ĠWrit	12257
Dem	11522
Ġsacks	23249
ĠUCHIJ	39253
Override	37961
earing	6648
Ian	37776
Ġanything	1997
ĠWrite	19430
Ġunderstands	14759
Ġlifting	16842
Ġcoincidence	21083
Ġmassac	34622
ĠGau	35094
ĠDT	24311
Ġcollide	46592
Ġmeager	49853
Ġrelay	24248
ĠAerospace	43226
igm	17225
Ġsatell	8983
Ġprope	44408
olla	33011
Ġlull	42858
NAT	34259
Cow	40147
316	33400
Japanese	25324
Ġtwentieth	29112
ĠBelfast	29713
ĠClaud	36303
ĠServices	6168
Ġabundant	23263
ĠCelestial	37231
985	42250
Ġemphasize	21322
ĠPl	1345
ãĤ®	43899
hard	10424
Ġpursu	8238
Ġdisturbance	30497
glas	14391
Ġthis	428
Ġlinear	14174
Ġancestors	18668
Ġbonus	7202
Ġfacilitating	36045
ming	2229
Ġchi	33166
Ġpolio	42664
Ġtold	1297
Ġfix	4259
ĠRoh	32694
652	43193
Ġprotection	4800
pp	381
itle	2578
Mic	25437
Label	33986
Print	18557
ĠRumble	42888
Ġnonprofits	44014
Serv	11838
ĠPi	13993
Ġjer	13665
Ġadolesc	19373
CRIP	36584
Ġtoss	12153
Ġesoteric	44894
Ġinsurgents	31622
Ġmaker	16009
Ġ217	24894
ĠLooks	29403
Ġleukemia	49030
ĠYour	3406
Ġsheet	9629
Ġcalculated	10488
Ġvisceral	38259
ooters	48316
Never	12295
Kh	33155
Ġraining	43079
ĠBeer	16971
Ġservice	2139
ourt	15666
Ġmoisture	20160
Ġdepressing	31193
Ġdex	36017
ĠVend	44220
ĠWage	45874
vil	2991
FA	7708
Ġstreaming	11305
Ġauthent	8323
Ġverbal	17755
otions	36083
Ġaliens	16269
ĠNegro	27115
Ġcondom	33791
Ġfentanyl	47804
Their	14574
Ġitching	48140
ocious	32346
Ġcourtesy	12537
Fast	22968
ĠLane	15016
Ġchocolate	11311
Ġgig	12526
Ġgamma	34236
adapt	42552
outside	43435
Ġbeard	21213
ĠLiverpool	11761
Ġcreators	16294
Politics	43921
ĠTobacco	28603
Ġgrants	11455
ris	2442
Ġdictatorship	26457
Ġhoops	46730
ĠDepression	22483
ĠShade	48747
Ġsouth	5366
Ġdanced	39480
Witness	38670
Ġdocker	36253
HOW	37181
ĠFuji	43694
ern	1142
Ãĥ	5746
alore	40612
marriage	45394
Ġwebsites	9293
ĠBowser	36925
Ġmenstru	27789
Ġsides	5389
Ġke	885
ĠEN	12964
Ġallergies	36665
Ġvomit	44542
ONT	35830
Soviet	40408
ythm	34853
Ġstunt	25756
ĠPicard	36614
ĠGPL	38644
TPS	28820
Ġloosen	40953
Ġ268	36678
âĢ¦."	50248
ronics	20844
asha	14715
tainment	10738
ĠCalls	27592
ĠHeroic	34364
Ġbutcher	38042
ĠPlaint	31313
Ġwob	46867
Ġreferenced	20717
Class	9487
Ġ>	1875
Ġobjective	9432
ĠSicily	49301
Ġinj	2529
ĠComponent	35100
ĠDefin	29589
baum	24738
Ġmitochond	25387
anting	20482
ĠIndustrial	19034
Ġï¿½	20543
SELECT	46506
Counter	31694
Ġdirected	7924
ĠGrab	25339
ĠMara	40124
Ġpecul	18699
ĠInquis	38010
Ġ364	44969
Ġadvancement	27647
Ġmanages	15314
Ġ96	9907
Queen	32466
urus	31891
Ġenactment	28547
ĠMatte	38789
Ġinfringing	43498
Ġdensity	12109
schild	35058
Far	21428
Ġresponsibilities	15171
ĠMercer	38146
Father	34823
ĠâĤ¬	10432
ĠWind	3086
Ġdungeon	18974
slaught	30929
Results	25468
Ġposts	6851
Ord	35422
Ġforb	11747
Ġacademy	21531
Ġordinarily	43605
ĠSak	13231
Ġhalluc	23251
about	10755
hematically	46558
Ġsingled	31958
debian	24689
Ġpowerful	3665
éļ	49694
ĠJP	21331
''''	39115
Ġbeings	9791
Ġprophe	16951
Ġincompet	22929
Ġpreserving	23934
ĠMutual	48807
Ġinstalled	6589
ĠCruz	8742
Ġpremiere	19245
EO	4720
Ġfinally	3443
ivan	13809
leases	29329
Ġbrut	8938
ĠNare	27236
ĠBuster	34452
Obviously	20670
502	35126
è	164
sta	38031
Gear	38141
ĠBloody	30893
gdala	40420
Ġsucked	25669
Ġshallow	19337
Ġrests	24013
Yu	40728
Ïĥ	38392
reader	46862
borough	17913
Ġlaw	1099
Ġstunning	13393
ibly	3193
Ġfame	16117
Gra	46971
Rather	27202
ansas	6618
Åį	13090
Ġgenome	19270
Ġpatron	19686
Ġreferendum	11467
ĠColombia	21291
ĠCars	25277
Ġlounge	31893
ĠAc	4013
Ġcorrespond	6053
Ġ265	32090
Ġchoosing	11236
Ġcaucus	24402
Andy	35314
Book	10482
iliated	31705
hner	22277
ãĥ¬	24186
uge	2217
Questions	35741
Ġstere	10268
Ġintentions	14953
Ġpenetrating	41456
Ġspa	41900
Ġsigning	8415
Ġkicked	12165
LT	27734
agara	38415
Ġrhyth	14405
aqu	36129
Ġchallenger	32127
Ġcreatively	48707
ĠClaudia	50214
Ġra	2179
Ġlas	39990
ritch	46510
ĠRead	4149
ghan	6064
ĠJoyce	25936
Ġangry	7954
Hel	12621
ĠMish	39523
11	1157
Ġable	1498
er	263
pre	3866
ĠAgreement	12729
Ġglorious	21140
Ġff	31246
zie	49746
ĠAnthony	9953
ĠBroad	9765
ĠÙ	18923
Ġpeas	22589
Ġdev	1614
ĠFil	7066
Moreover	24606
Ġthorough	9321
FF	5777
Ġmorally	22388
Ġdrops	10532
Character	27275
ĠKM	46646
ĠAtkinson	49042
032	49959
Ġbou	35833
ĠPhilippe	39393
'"	29653
ĠInvisible	39571
Ġhouses	7777
Ġtraded	14018
Ġsiph	44105
ĠMales	43404
825	47338
Ġdomest	26026
Feed	18332
Ġhell	5968
Ġignor	11477
ĠGarrett	27540
oca	11216
Ġphotographer	16413
Ġcomprises	28800
Ġstren	43071
ampunk	46183
Tank	32978
Ġcreepy	23387
?????	19622
ĠJM	47726
Ġresponsiveness	49815
Ġfox	21831
Ġcard	2657
Ġvalue	1988
Ġmissiles	12798
ãĥīãĥ©	19073
atories	19854
Admin	46787
Luke	30730
Ġraises	12073
Ġbreaching	46837
liest	11318
ĠFt	45231
aves	3080
Ġlets	8781
ĠKanye	27775
Ġnorth	5093
ĠRem	3982
Ġsleeping	11029
ĠAren	9843
ĠHole	24478
ĠMarketing	22137
Ġprivile	7798
ĠVers	18535
Ġmillenn	15755
Ġvariation	12291
illard	32681
ĠOptimus	44863
landish	45626
kiss	41304
ĠUri	46688
Ġ1953	24217
Ġletters	7475
ĠMans	18580
ĠGujarat	30311
Ġworm	23849
DIR	34720
ĠGuards	28135
iance	3610
umer	6975
ĠDeck	20961
MAX	22921
ĠRagnarok	40451
$.	35307
Cho	22164
ĠPublic	5094
Ġglobe	13342
Ġtel	13632
enson	19069
Ġjets	20792
Ġmatter	2300
Ġstreak	15113
Writ	20257
Van	25298
ĠMonkey	26997
Ġlifts	27103
Ġdeadline	12508
ĠCombined	32028
puff	49357
ĠAttribution	45336
Ġ+=	15853
ĠPhase	18983
eling	10809
iffe	22391
Ġmigrant	23088
Ġobject	2134
Ġantenna	20509
Ġexile	24329
Ġmessed	32621
Ġscenarios	13858
Ġanatomy	33449
Ġprincipals	44998
\/\/	45422
Ġoutlandish	47284
ĠTanaka	47825
Ġconsistent	6414
MAS	31180
ĠTele	14318
Ġvowel	48617
Ġsuggest	1950
Ġrapidly	8902
ĠChina	2807
Ġsail	14936
ĠCul	32559
Ġfreeing	35800
Ġ294	41235
Ġposter	11968
Ġ356	44552
ĠCHO	49143
Ġgenerate	7716
ĠInner	24877
ugg	6837
aternity	17094
Ġorchestrated	37728
Ġonlook	47747
ĠHungarian	27304
Ġcasualty	39068
Ġtariffs	29240
baby	40252
Ġfiscal	9068
government	14480
ĠSacred	17380
Ġcans	23916
boys	13202
ĠPalest	5480
ĠBarbara	16685
ĠPretty	20090
Ġsue	20889
levard	22123
ĠWin	7178
Lyn	37207
Ġastronauts	26835
Ġboundaries	13215
asonic	30189
Ġglobalization	39155
ĠEffects	17417
Ġpoured	19036
utics	48063
Arizona	40732
Ġpub	2240
oing	40519
aires	17693
Ġcloak	24117
ĠGW	27164
Ġ311	35592
ĠHelmet	35900
Ġaccomplishment	29340
712	49517
Ġnationality	29835
Ġdecomp	38237
Ġhomer	44155
Ġaccompany	13873
ĠColumb	6845
ĠProvided	29750
Ġ353	47567
Ġidentities	18413
ampton	23427
ĠBuilt	28477
ĠCountries	34906
ĠImage	7412
ĠReds	14703
PATH	34219
aligned	41634
inel	20538
ĠAlic	34745
ĠAMC	36239
Ġcoales	46064
Ġsushi	36324
ĠDiv	4777
295	25710
arial	36098
ĠAthletic	29007
Ġfirms	9611
bub	46176
Ġreached	4251
Ġhypers	45086
Ġapolog	8453
Ġimpossibility	50097
ĠMes	14937
Ġdebate	4384
Ġfestivals	25575
Ġjewels	42701
ĠIdent	11440
Ġcrops	14450
Ġsurgeons	38479
Ġunemploy	8707
ĠQuran	30018
Ġ1991	10249
ĠWD	48963
Ġ};	18083
Critics	36623
lbs	32133
Ġmax	3509
Ġreveals	10069
ãģ®ç	17683
Ġdick	19317
ocular	37320
Ġsharper	41415
ĠDak	11775
ĠAbby	49220
Ġscore	4776
Ġtense	20170
Ġscout	24490
ĠKremlin	19077
997	39647
ĠEF	33685
ĠGiov	36089
ĠShi	16380
ENCE	18310
entimes	43598
Ġ===	24844
ĠAdren	46918
Ġfiling	12180
Ġendot	46710
Ġdifferentiate	28754
ĠGmail	33662
Ġqualifies	37782
Tai	47976
Ġfunding	4918
ude	2507
Ġimposition	38091
ĠGear	10740
upuncture	42223
Ġ291	43336
Ġinformal	22176
Ġgarrison	45416
ĠMil	4460
ivery	6315
ombo	47265
esthes	29678
ĠDim	14048
Ġ179	27228
ĠNixon	16642
Ġextremes	31082
Ġdominate	17863
cess	919
Ġlear	22454
ĠVarious	26386
ĠÂ¶	30581
Ġunbelievably	48943
Rush	49942
Ġ??	19153
Ġjeans	21029
uish	32091
ordering	34555
570	39254
Ru	40464
ĠTIME	20460
Lu	25596
equal	40496
ĠPeoples	41770
another	29214
Ġentrepreneurs	17038
Ġmm	8085
ĠMcD	23394
105	13348
ĠSamuel	17100
Mil	24857
Ġcasts	26217
Ġintoxicated	35344
ĠEconomy	18493
ified	1431
Ġbrushed	31782
Ġcohesion	44182
ĠRobbie	34855
reddits	36581
Ġcue	28381
ĠArgument	45751
ĠFun	11138
ĠReich	24560
Better	28971
Ġpard	41746
Ġdeepen	46409
article	20205
Ġgrap	23360
ĠHussain	47677
Ġwhilst	14590
Ġmay	743
Ġrapid	5801
Ġmidst	15925
mile	18085
ensual	31406
ieval	14671
Ġlips	11914
config	11250
Ġoccult	31587
Ġskepticism	25858
Ġassessments	21837
Ġacad	5790
ĠPayment	28784
Ġ1976	15408
Ġglobal	3298
Ġprofessionals	11153
Ġboosts	31822
Ġimprov	37080
Ġconsumes	37225
ĠNichols	38403
Ġtower	10580
ĠCSV	44189
Ġspiritually	45319
Ġsmoke	7523
brook	19094
ĠStrongh	38653
pathy	16786
ench	24421
steel	44822
Ġadvisable	46511
ĠPav	24081
Ġlecture	19143
ĠNY	6645
ĠMassachusetts	10140
Ġthw	41964
Ġprobing	41034
Ġtortured	22485
dollar	22569
ĠSubaru	30471
âĸĴ	40516
Ġtrend	5182
ivable	21911
ering	1586
ĠRoy	9817
ĠPhysics	23123
Ġtha	28110
ooth	5226
Ġmultinational	28061
Ġdescending	31491
ĠOswald	34374
Ġhelpers	49385
Ġvoices	10839
ĠOle	30093
ophobia	19851
Ġprol	13286
climate	42570
ĠChic	48854
ĠBahamas	45726
usal	6775
Ġunhealthy	27942
prof	5577
Ġgear	7733
ĠGe	2269
ĠInternal	18628
Ġbanging	42028
Ġobscurity	48326
Ġmileage	33935
requisite	27614
entials	14817
Ġconstructing	30580
atoes	15048
ĠWellington	30597
ĠPuzzles	31913
Ġconcentration	10368
ĠLightning	12469
Ġconfinement	28739
Ġunderneath	14638
Ġinitiation	30122
Ġplague	23684
Widget	38300
Ġdehuman	48772
Ġsig	43237
aked	4335
qqa	28794
isy	13560
Ġderived	10944
isol	30152
Ġdepressed	19095
Ġdodge	24885
dose	34436
Ġroutines	31878
script	12048
Ġhigher	2440
Norm	35393
Ġrehearsal	45795
Ġannually	13844
Eat	47659
Ġdictated	34756
Ġoverloaded	50068
resident	8154
Georg	33428
oper	3575
SH	9693
ĠStamford	47604
Different	40341
ĠUN	4725
Ġnotice	4003
ĠFix	13268
Ġcompounds	16439
Ġelic	25487
mk	28015
Ġgenres	27962
Ġubiqu	23861
762	48194
ĠCollections	50004
Ġtab	7400
Ġcats	11875
Ġsingular	18032
Ġãģ	23294
Williams	27869
Ġderivatives	28486
Ġchoking	39302
ĠCarlos	17409
ĠAmeric	1019
emet	19261
ĠToad	42616
Ġfac	1777
Ġquestioning	14085
.).	15729
Ġgallons	23239
Ġ360	11470
Ġrewrite	28183
ĠStill	7831
onial	30752
Ġresear	4027
ĠPotion	34018
Ġsteroid	40762
Ġcheese	9891
Ġbroadband	18729
abilities	5738
Ġstressful	27177
ellar	14203
Ġbeef	12023
Ġgoodness	20437
Ġdich	36638
Ġunexpectedly	25884
Ġvirtually	9826
ĠAnimation	23535
ĠSetting	25700
NZ	37371
ĠAman	42614
Ã±a	30644
formerly	36234
lishes	19724
Ġgir	37370
ĠChromebook	39767
Ġvag	14334
ĠCOP	27975
Ġsuppression	22711
ĠProb	30873
enfranch	39827
ĠWit	40648
Ġrepublican	41477
escape	41915
Operation	32180
Ġheresy	47763
ĠAmelia	49769
Ġfibre	33073
Lind	43410
ze	2736
Ġbox	3091
ĠGins	39083
Ġindo	23046
ĠPRODUCT	41458
osh	3768
Ġexpression	5408
Ġjoking	29711
Ġcharge	3877
ĠElaine	41463
angler	49910
Ġcrystal	15121
Ġraces	9558
Jack	14295
drops	49253
ĠAAP	31518
Ġhood	14263
length	13664
Ġability	2694
atter	1436
Ġbeans	16567
heard	23636
Ġauction	14389
Ġspect	5444
Ġpromise	6991
rentices	34368
settings	33692
Ġerrone	27383
Ġexpl	1193
function	8818
apping	5912
ĠNotting	33615
ĠActs	25528
Ġnuanced	34150
Ġingestion	38382
ictive	45279
ki	4106
atem	23900
Ġsuperpower	47481
ãĥķãĤ©	48457
ĠThere	1318
ĠLIFE	36821
Ġphosphorus	48980
Ġbrokerage	48716
ĠKorra	38463
Ġjihadist	32384
ĠFee	28522
Ġ900	15897
alo	7335
ĠNit	24282
Ġbusiness	1597
ĠFathers	30969
Rap	35230
ĠMILL	49775
1973	40220
the	1169
ĠHacker	34399
ĠMobil	45951
ĠUkrain	5435
ĠJa	13790
Ber	24814
ĠGuys	29899
Ġdavidjl	23282
ĠMajesty	25788
Ġloading	11046
Ġmould	35370
Ġpopulace	39003
comments	15944
Ġtrail	8025
Ġ---------	45337
wagon	41127
Ġalign	10548
ĠCNS	48935
Ġadvancements	47220
ounge	20891
ĠSERVICE	47453
Ġmethodological	47935
Ġexcerpt	20911
Ġperceive	19973
ĠProsecut	26233
Using	12814
HA	7801
course	17319
ERSON	29086
iot	5151
Ġbegged	32946
ĠBoll	43479
att	1078
ĠConsequently	24982
Going	27404
ĠRevolution	9303
rays	20477
wered	8279
Ġdarn	39189
ĠPersona	41581
ĠQU	19604
Ġdiscouraging	48001
phen	31024
Ġlibertarians	35929
Ġbeg	4123
Copy	29881
Ġdissatisfaction	41393
onge	14220
keys	13083
ĠFlow	27782
Ġplaza	42433
Ġarithmetic	34768
ossession	49809
Ġambig	18203
Extreme	36716
went	19963
ĠExpect	23600
ĠBAS	29809
Cmd	40109
ĠStudies	10422
Ġabsor	8256
Mag	13436
ĠCharl	6258
ach	620
fs	9501
Cap	15610
Ġram	15770
ĠWan	33242
proclaimed	39865
lc	44601
Ġfors	46931
ĠWalk	6857
ĠReached	13618
ĠUE	27595
Ġpopulate	48040
ĠFat	12301
washer	45146
ĠPetersen	48604
ĠEzekiel	48742
ĠAnyway	21836
ĠEric	7651
Ġclub	3430
ĠSnowden	15015
Ġassigning	38875
ĠCrest	40072
ucer	48915
ĠHua	43709
Ġwaived	28170
aturally	7436
Ġping	29400
Ġaccepted	6292
fill	20797
Ġentertainment	9739
ĠEvans	13922
ĠBuchanan	36358
Ġcalmly	30180
Ġdomain	7386
ĠFe	5452
hips	5748
ĠPel	12903
Ġegg	5935
Ġsequences	16311
borne	13555
Ron	23672
ĠSilva	23720
ĠVac	25709
Ġtighter	28619
ĠguiActiveUn	29372
558	40486
Ġpresc	10859
ĠAfter	2293
Ġstrategic	10039
Ġaster	18503
Ġasset	11171
ĠMalf	32197
Ġemphasizing	36360
Ġcope	19271
Ġmilitia	21085
Ġfake	8390
Email	15333
Ġmaintain	5529
Ġflexibility	13688
engeance	21364
Ġreplica	30069
çī	31965
Ġdetain	17017
Above	32397
Ġcrowdfunding	33851
ĠUmb	35716
ĠBurn	8942
ĠACTION	40282
Ġcandidacy	24514
say	16706
ureau	6262
Ġtweaks	26957
organized	30280
Ġrealistic	12653
legram	30536
Ġhallucinations	40371
rf	41871
odan	45561
MHz	25983
Ġquarantine	48827
ĠADC	49169
Ġbourbon	41855
Ġrooft	27291
laughs	28124
Ġhath	22027
å®	22522
actic	12009
ruary	3728
Day	12393
ĠMock	44123
estamp	27823
ocally	44190
Ġoutbreak	17645
idi	19830
Ġstuck	7819
ĠiPhone	7133
Ġpreviously	4271
ĠTot	20323
ĠJi	29380
achy	35586
Ġnude	26349
Ġcoats	30720
ĠUruguay	36421
Ġengine	3113
adan	29157
Ġponder	37375
161	25948
abby	42457
Ġwildfire	44508
Ġblunt	19861
Ġath	5782
Legend	21351
ĠDiff	10631
ĠPoles	45631
Ġplainly	30723
Bob	18861
Ġ___	46444
Ġtroubling	20294
ĠTwe	24205
ickson	46381
evin	6830
php	10121
Ġh	289
Ġlocking	22656
(*	46491
Aut	16541
Ġswat	44284
Ġbabys	46711
ĠTakes	33687
Ġantic	47792
Ġoverest	41850
ĠRevival	48095
ĠRhodes	25656
yk	48361
Ġreleg	24542
Ġhump	49779
ĠApps	27710
goo	42469
Ġcalendar	11845
Ġinvestigated	12565
ĠKappa	39553
DeliveryDate	39749
Ġregimes	25879
242	27877
nce	1198
ĠMessenger	24306
503	31938
Ġtrauma	14649
Ġplaint	13371
Ġviolate	16967
182	24294
Ġfail	2038
ĠSJ	31766
Ġsm	895
Ġpredomin	15960
Spoiler	31895
ĠTough	37223
Valid	47139
itionally	8736
Ġinteractions	12213
ingham	25875
ĠMajor	8386
Todd	42817
Ġspring	6076
kernel	33885
Ġcrest	36893
If	1532
ĠFar	6755
ĠNation	8741
Ġsidebar	40217
ap	499
ĠDoll	22209
ĠWeaver	29594
ĠCes	42518
ĠBard	25654
posure	26205
Ġlapse	42689
Ġpuls	22271
ĠCommentary	45465
Ġtick	4378
Fight	27365
Ġvibrant	21266
ĠEvangel	27834
ĠNab	36099
Ġnotebook	20922
Ġnewborn	23856
comment	23893
Ġanarchists	29676
WC	27353
ĠKurd	9778
ĠYouth	17582
Get	3855
idis	29207
stroke	30757
awar	48841
Ġreiterate	49852
Ġ113	17318
Ġpseudo	24543
ĠRPM	32381
ĠOrd	14230
pots	40793
App	4677
Ġcrusade	39856
Ġelectricity	8744
Ġburnt	22999
ĠBrazilian	17036
emale	10144
Ġexample	1672
Ġconduit	44457
Proof	44683
Ġ555	44717
Ġops	39628
ĠLanguage	15417
Ġspecialty	22847
Ġclimbed	19952
ĠIrvine	37277
ĠBF	41646
Ġrant	30993
Ġ1939	24414
Ġtmp	45218
Posts	21496
Ġjail	7356
odox	11430
Ġ1914	26833
ĠMae	34673
tesque	37422
Shift	33377
atch	963
Ġ306	37255
IUM	41796
Ġparentheses	46672
Ġjoystick	49485
ĠClifford	43159
dress	49380
Residents	42347
ĠDeL	49571
Ġselection	6356
acters	19858
Ġvisibility	20742
ĠSn	5489
Ġkale	43497
Ġlogical	12219
Ġspat	15246
resses	16746
ĠTrain	16835
ĠGuant	27772
iders	4157
ĠSurvive	41814
ticket	43350
ĠMessi	36128
Ġtrough	45047
ĠSexy	49131
Ġcircumcision	25513
oved	2668
vals	12786
Ġresearcher	13453
MED	30733
ĠLamb	21114
Ġevangelical	26477
ancial	2783
ĠAncient	13406
ĠLennon	37470
ĠEastern	8345
Ġhorde	43940
oop	11224
Ġtwist	14528
assian	46091
readable	46155
Ġdives	46638
ĠMorsi	41842
ĠBiological	32827
unless	25252
Ġhots	33915
ĠCaucasus	47990
Ġgoodwill	36374
022	44087
ĠAmp	50161
earcher	50194
Ġnylon	36104
ĠSamp	42168
Ġdisadvantaged	36327
SON	11782
Fri	30214
Ġbellig	45957
ĠTh	536
ĠSox	17689
Ġvom	20918
Ice	23709
ĠThousands	30405
ĠTI	31598
ĠShare	8734
Ġprogramme	11383
Ġpotassium	33156
Marvel	38864
ĠCalled	34099
ibur	38616
PDATE	14341
Ġtelescope	24344
Ġconsequences	6948
Ġrounded	19273
ĠSubstance	50021
Ġtracking	9646
ement	972
Ġundefined	28721
abouts	27880
ĠKitt	43670
ĠAndroid	5565
ground	2833
Ġcollateral	27907
;;;;;;;;	25887
ĠAcer	49606
ĠToxic	29274
Ġlosers	29502
ĠNorwich	43586
Ġomega	37615
Ġbitten	38854
Ġcleaners	50102
Publisher	46471
Ġreceivers	19137
Ġmisunderstand	39653
Ġpreach	32950
q	80
686	33808
ĠLamar	26907
Ġoppress	35035
ĠFIN	33642
Ġforestry	37683
Ġwont	28329
ĠClean	5985
Âº	36165
909	44675
Ġsuscept	18163
ĠÂµ	31324
ĠPOV	44604
elligence	3480
Ġpumpkin	30089
atha	30921
Ġlamps	32209
ĠFees	37691
ittee	2979
inqu	18934
Ġtrees	7150
arb	38039
Ġcentrif	41563
Ġgallery	15604
Ġsubscribed	45794
Ġpage	2443
ĠLilly	35134
Ġterminate	23654
ĠBanner	27414
Charles	28711
Ġinverse	34062
Ġattractiveness	43325
izards	14124
ĠVista	25160
Ġroll	4836
Ġprobability	12867
ĠMoves	38213
disabled	47730
born	6286
Ġsec	792
Ġrepl	2186
ĠSas	23771
Ġinterested	4609
æĿ	30266
ooming	30602
ĠTwitter	3009
ĠGon	35371
Ġub	20967
Ġpoking	39048
Ġconcerted	39074
ĠDev	6245
ĠWalter	15819
Ġtampering	42471
ãĥī	13765
ĠJudah	49931
Ġ43	5946
ĠCla	27166
OUP	27755
ĠTraditional	29065
conference	41124
quartered	42508
Ġancient	6156
Ġlifetime	10869
Ġbehaviors	14301
recent	49921
ĠSHALL	50163
Ġhol	6039
Ġmonk	27266
Ġtransporting	32331
onew	44181
Note	6425
Ġexemption	19572
Ġcuring	46053
Brexit	40730
ports	3742
Ġspreadsheet	30117
Ġprocure	23364
development	31267
Ġstrives	37873
Ġcolony	18815
Sense	41166
Man	5124
Ġlifestyles	43644
ĠCardinals	18071
loading	25138
Ġrelic	26341
taboola	10658
sein	20719
hang	33255
æ³	37345
ing	278
tarian	14012
ĠDoug	15115
Ġcrime	4065
ĠWomen	6926
Ġanger	8993
ĠDeg	25905
profits	31504
809	34583
ĠSeventh	31848
ettle	23570
Ġfearing	33188
uchs	37533
Ġreferral	31413
ocity	11683
ĠAppalach	36390
ica	3970
TY	9936
olve	6442
yard	9413
ãĥĥ	14777
ĠDaw	17552
ĠSafari	23298
Ġtime	640
ĠHA	14558
Ġstaring	16143
Ġpassionate	15347
ĠCreatures	34539
Ġresiding	35173
585	38905
ĠHemp	50060
Fa	50110
ĠMaced	25942
ĠProvision	43161
Ġincredibly	8131
Ġassaulted	18513
prem	31605
ĠHarvey	14943
4	19
ĠStru	34887
ĠDirect	4128
Ġ{\	43839
Ġ1895	46425
Ġremedy	21210
Ġvigilant	30257
ĠGPS	15472
guards	33427
ĠILCS	36169
Ġpartitions	43869
Ġdown	866
asi	17053
Fox	19399
ĠComb	14336
Builder	32875
ĠExactly	36819
ĠJudith	39987
Ġincome	3739
pect	806
ĠRef	6524
Ġrecommends	20829
Ġirresistible	45420
è¦ļéĨĴ	23614
Unt	35792
Ġdances	38207
Ġaxe	23272
ĠMarketable	11966
ĠSpy	23688
Ġcommits	23463
Ġshopping	9735
wid	28029
Ġ800	10460
Ġspokeswoman	12262
ĠSinai	33745
Ġcarcin	28164
mbuds	45664
ictional	47273
Ġclassroom	15806
ĠLimits	44943
Ġunwilling	19084
ĠShim	31698
Ġdemocratically	48517
;;;;	14223
ĠTurkish	9663
verson	49589
Ġdangling	47270
Ġcups	14180
Ġeducating	36267
Ġrendering	14837
Ġactual	4036
Ġassessing	24171
ertain	1425
Ġferv	28866
priv	13776
Ġthrottle	29976
ĠWA	16400
ĠHence	16227
å¹	33176
Ġhygiene	33306
rito	39834
addon	48078
ĠXi	21313
for	1640
ĠProf	4415
Ġreign	13580
Ġbalcon	26857
icol	27045
ĠModified	40499
Ġmaps	8739
ĠThurs	48971
ĪĴ	7134
Est	22362
431	50080
achi	14299
ĠQu	2264
Ġoffensive	5859
Ġbattlefield	13480
ĠChildren	8990
Ġtorpedo	39023
614	46841
ĠMont	5575
secondary	38238
Ġdx	44332
ĠKessler	46474
Bride	47148
favorite	35200
544	47576
Ġcome	1282
lev	2768
ycle	39297
ĠMohamed	27469
429	11785
wash	34670
Ġinvaders	39417
Ġlogos	29645
disable	40223
325	26582
we	732
Ġfrig	36780
ĠCarroll	21298
Ġtremend	11039
ably	1346
Ġcyn	19768
idelity	23091
Ġbetrayed	26281
Ġappointed	9899
ozy	31060
stone	6440
naires	43317
Ġwhats	45038
bc	15630
Ġmounts	30790
Ġaccompanied	11791
ĠTories	25098
ĠPred	14322
Ġ1978	15524
XX	8051
Ġtallest	38760
Leg	11484
Ġwaited	13488
ĠArcane	26475
Living	36376
omm	2002
ĠSullivan	18501
Ġobservers	17984
Ġarcade	27210
Ġreprim	41929
regulation	27727
Ġuproar	40741
ĠEstablishment	37132
ĠText	8255
clipse	17043
Ġjacket	15224
Ġcis	33325
umar	44844
*:	47026
Ġcounseling	21951
Ġinsign	24191
MY	26708
Ġspecific	2176
license	43085
wcsstore	12781
194	22913
ĠWrap	41028
Copyright	15269
Gray	46130
ĠDayton	24450
Ġpractices	6593
Inter	9492
Spl	26568
ĠBrent	23357
Ġbreakdown	14608
ĠInstitution	29426
Ġabstraction	34651
Ġcares	16609
ĠTail	21759
ĠCoy	26887
Ġ262	35404
ozyg	49834
iser	5847
Ġunwillingness	47836
ĠEach	5501
urdy	22876
Ġdespise	44351
Ġplethora	35146
uted	7241
ailing	11608
mage	25561
Ġretreated	35622
Ġantioxidants	49148
Ġamongst	12077
Ġstate	1181
isite	16107
ĠPHP	19599
Kenn	39324
Anderson	42991
Ġvanishing	49047
Ġlobbyist	35196
Ġedit	4370
Ġppm	39719
Ġemitting	48143
Ġrh	9529
Ġunto	12722
ĠHood	17233
ĠElliott	22386
154	21526
-,	20995
ĠTill	17888
Ġbuggy	46542
respect	15008
Ġshading	49065
Ġparalysis	35858
Async	42367
eria	5142
ĠExpedition	38076
Ã³	10205
rb	26145
acl	37779
Ġstool	38753
Ġmotions	25530
ĠPROT	48006
ĠEucl	48862
Ġgrown	7334
Ġtorture	11543
ĠNov	5267
ĠEngland	4492
taker	30157
Ġmarquee	50089
ormon	10615
rx	40914
Ġbully	27410
eks	2573
ĠPeach	33230
Ġopposite	6697
Ġ204	26956
activity	21797
Ġvivo	34714
ĠIris	34230
Ġshale	30498
ĠCraigslist	46001
interrupted	46037
Ġadditional	3224
ouched	30075
umen	20080
Ġthose	883
ĠEdmund	35646
Ġoptionally	42976
itive	1800
ĠBinding	38904
Ġbenz	39601
arkin	39027
References	19927
Ġremarks	10252
ĠBD	28023
eeper	41278
ĠLumin	43496
lease	1274
Ġoblig	6263
Ġslee	14368
ARD	9795
âĶĢ	7280
ĠToledo	36026
ĠDimensions	41265
ĠEthan	28926
ĠCor	2744
Ġresponse	2882
ĠGilbert	24023
Ġaccommodating	49389
Ġspoke	5158
itches	9249
tem	11498
ITH	10554
Ġclarified	28464
ĠSho	16509
ĠCheney	31287
ath	776
968	38956
641	42759
Ġpowder	11913
Ġneighbouring	29272
UPDATE	16977
Ġdetainees	25027
ĠAGA	36218
atan	39036
Ġelong	39696
Ġnamesake	49829
Ġwhale	22206
Ġsounds	5238
Ġacquaint	24852
ider	1304
ĠMiddles	46050
Ġreactive	32242
Ġforwards	22052
ĠMurphy	14424
ĠMerlin	32918
Ġdismantle	37890
Campaign	46102
sole	6753
Ġnatural	3288
Ġinnovate	47916
oris	37279
Ġlib	9195
stri	33565
ilation	10520
ĠLarry	13633
Ġ630	44505
ĠBrothers	16055
oley	48437
ĠYog	31604
Ġidentical	10411
ĠContinue	10054
Ġ118	19035
imi	25236
Ġglobally	18309
Ġfilled	5901
ĠPhone	14484
629	48602
ĠWild	6183
ĠPoc	39375
Hold	26807
daughter	29642
query	22766
Ġinduce	21155
ĠLady	11182
Ġnurs	11051
armed	12026
unders	41116
ĠBills	20209
ãĥĥãĥĪ	35799
oka	17411
Ġkid	5141
ãģ§	30640
Ġdismissed	11126
Ġproductive	12973
idge	3130
word	4775
Ġpublish	7715
Ġangels	21981
Ġpermissible	32005
Ġfigur	31474
ulu	15712
Ġpreview	12714
ĠLiberty	14734
Ġvolcan	17516
ĠEag	9789
heast	9522
Ġmedal	18279
Ġapost	18584
ĠIon	36404
planned	36800
Ġcasually	27793
ĠFunk	37299
orio	40974
134	19880
Ġcrimes	6741
Ġ//	3373
Initial	24243
vari	25641
174	22985
ĠBib	43278
ĠAdditional	15891
Ġ348	44084
enth	7944
Ġgets	3011
hash	17831
On	2202
uces	26873
ĠYi	26463
Ġgrounded	22804
ledged	37436
SIM	48913
July	16157
ived	1572
Ġcomr	20677
780	40873
Ġsystem	1080
Ġ512	22243
ĠPrograms	26179
Ġacres	16051
ĠHis	2399
Ġhipp	18568
ĭ	233
ĠBMI	22456
Instance	33384
âĢ²	17478
REP	35316
ĠMov	44795
completely	46699
lik	46965
List	8053
Ġliqu	14756
Ġmanifold	48048
Ġinsur	49741
Ġconstrued	30816
ĠIvanka	31002
phones	9708
Ġlegitimacy	22726
ĠLucas	15257
Ġ-=	48185
language	16129
ĠDepths	21903
Ġhealing	11516
unker	21705
Ġleased	40352
alist	49845
ĠBiol	38637
frac	31944
ĠGott	39451
ĠDot	22875
ĠNotably	45683
inventory	24807
ending	1571
Ġorange	10912
Ġstartled	36249
Introduced	37143
ĠDund	37921
Ġcoincides	47387
rought	2909
ĠWaste	35304
buck	27041
comes	8988
edit	19312
Ġspending	4581
Ġorganised	20325
Spons	43522
arms	8357
Ġgateway	24308
Ġrepresenting	10200
Ġpetitions	32890
GHz	23741
Ġdips	48904
Ġparameters	10007
ĠArmen	17303
ĠAluminum	35859
Ġovershadow	35562
7	22
urion	40956
mingham	17737
ãĤĮ	39258
Ġanthrop	17911
Ġmandated	28853
Ġrural	10016
Ġbranching	49526
ĠLength	22313
Ġprotester	34678
sav	39308
Ġobjectively	35721
ocrin	39913
Ġâī¤	41305
Ġyoutube	35116
Ġ[]	17635
auto	23736
ĠPrinciple	40921
Ġtranquil	46944
Pie	48223
ĠWARNING	39410
Ġcaches	50177
Offic	12710
omach	10806
cember	3273
ĠOst	38919
Ġnihil	49413
Ġcooler	19346
546	49489
ĠNev	9873
Ġgraduate	10428
uid	27112
America	18165
5	20
Ġanalysts	13440
Ġlev	23145
ĠZeal	8417
ogs	18463
ĠTerms	17637
ĠDefence	16721
ighed	12570
ĠMeat	19145
Ġunequ	21149
gd	21287
Ġhistorically	15074
Ġbombers	26127
Ġbleak	30942
Ġsplendid	37196
ĠGrave	36424
Ġracists	40681
ĠGupta	42095
Ġfermented	44543
Ġderail	33749
ĠKash	20578
inar	22050
kish	31501
rick	5557
ĠEat	27574
ĠCOR	23929
orable	10475
enter	9255
Ġsworn	20990
ĠBaz	47099
ai	1872
Ġleft	1364
ĠSe	1001
Ġ__	11593
ĠPast	11303
Ġ("	5855
ĠLimbaugh	43306
arding	13493
Ġvent	7435
Ġwillingly	30981
ĠBrawl	31871
324	33916
Ġneedles	25209
ĠParadise	20494
ĠObjective	37092
Come	16773
ĠAgility	43406
Ġpassenger	11849
assium	26663
Ġtightly	17707
Ġboo	22513
Ġweak	4939
610	39132
ĠABOUT	33478
Improve	47531
slave	36341
Ġpedals	42563
eking	18754
wealth	14298
ially	1927
Ġaccommodate	15550
gb	22296
Ġacquired	9477
'';	44648
Saudi	36939
Ġcour	1093
who	8727
ĠHuman	5524
Wal	21902
ĠHundreds	32636
Ġ241	35150
iner	7274
inson	7899
ĠLauderdale	45577
Ġembattled	49118
Ġresponsive	21802
busters	30181
Those	9627
ĠRoger	13637
Ġappet	16422
associated	32852
args	22046
Ġwaging	41747
Ġ2007	4343
manac	46870
Ġarteries	45894
Ġvelvet	47750
Ġrgb	46140
ĠRodrigo	46198
fee	39071
ĠFacebook	3203
Ġrecover	8551
Ġtray	26473
Ġawful	12659
ME	11682
ij	2926
rice	20970
alse	2820
ĠETH	35920
Ġstaffer	29685
Ġslow	3105
ĠProtector	37138
remlin	17244
ĠProvidence	28319
akery	33684
arta	34202
ĠContra	46243
bad	14774
Ġdemolition	30164
Ġbirds	10087
central	31463
Ġanticipating	40807
ĠAppropri	29857
dash	42460
ĠFed	10169
ĠGlad	28442
Ġbrow	4772
storms	38563
Ġcd	22927
Ġgrave	12296
ĠADV	43685
Ġalbum	5062
Ġaffiliate	17375
ĠPanic	34478
Ġfuzz	26080
problem	45573
ilded	46158
Ġverify	11767
blogs	49096
Ġbolted	49647
Ġenthusiastic	21848
ĠWidow	39061
UST	7759
channel	17620
ĠShah	18381
Ġslaves	13384
ĠWoody	37684
Ġfilters	16628
rite	6525
OA	23621
ĠMarathon	24828
Ġashamed	22461
obic	20803
Ġperk	34407
ĠCreator	21038
ĠBeans	49740
Ġ1200	24938
Ġscrub	27268
pared	29190
orn	1211
Ġshares	7303
udes	8401
ĠFifth	19383
Ġrespir	21483
ĠAdolf	35333
Hig	36124
Fear	37798
Ġshock	6380
×ª	42064
Reviewer	35407
ater	729
ĠChero	37156
REF	31688
)",	42501
elfth	44659
ĠUbuntu	14949
Ġimped	26795
Ġsmuggling	29529
annot	34574
ĠIsabel	41838
ĠDEAD	42533
Ã´	27083
CHAR	38019
upper	45828
moderate	47189
Ġtort	7619
band	3903
Ġ2017	2177
ĠNelson	12996
ĠATI	38344
Ġnewsletters	16983
ĠMedia	6343
Ġtrailing	25462
ĠABS	29950
ĠMMR	41362
Ġparcels	49796
crazy	50112
cloud	17721
Ġdiffers	24242
at	265
ĠRescue	17285
ĠManufacturing	32760
ĠDangerous	29892
ĠNess	41606
Ġvari	5553
ĠSuicide	27695
copy	30073
Ġwing	8539
ĠYas	25957
ĠAdinida	46600
!.	43179
Ġcarb	13265
PET	47731
igure	7047
si	13396
ocamp	26047
Lenin	49036
Ġ129	20248
techn	23873
ĠCannabis	28838
ĠDarth	31152
Ġcharging	11642
surface	42029
Jay	30568
Ġsteer	27401
Ġnoteworthy	30902
Ultimately	27212
Ġcontains	4909
Ġchose	7690
iances	16097
avanaugh	19872
ĠGy	18488
ĠWalsh	24104
Sm	7556
method	24396
ulet	25132
ĠGerry	42196
590	36993
uin	48441
assion	11857
urban	32679
Ġpregnant	10423
Ġexhaust	12142
Ġallowed	3142
asses	13978
Ġtheoret	12376
Ġtravellers	37217
Ġcardiac	26077
iet	1155
Ġviewed	9569
ĠDaryl	44385
Ġintestine	45426
Ġ680	40554
ranked	28282
Ġmild	11607
ĠMartha	27243
ĠSister	26553
STE	30516
2001	14585
ĠBelarus	33368
ĠVance	40154
ĠBrus	15507
ĠBrist	23072
Ġinterruption	41728
ĠALP	42674
Ġ27	2681
Ġpractice	3357
Str	13290
ĠAnything	21035
ĠNvidia	27699
Ġslogans	31139
cong	36801
ummies	39578
ĠRiding	36032
PF	42668
sighted	44068
ynthesis	44411
iao	13481
Ġpictured	17915
Ġtink	44569
YL	45448
Ġbatted	45754
ukemia	43505
agy	46671
Ġsed	10081
Ġdeportation	24031
Ġobsc	10666
CEPT	42006
ĠBeard	41698
ĠITV	49188
ĠHM	25904
fashioned	28776
ĠDou	5728
idates	37051
Ġlegally	11119
Ġdiffer	13238
Ġproport	7601
raged	18312
Ġclock	8801
ĠPok	8175
rar	20040
mAh	28142
ĠJou	45538
Ġadopt	11206
ĠView	3582
Ġhandling	9041
etts	9357
Ġmode	4235
onian	27625
Ops	41472
ĠHazel	42805
ĠFuck	25617
ĠOaks	44781
ĠCPS	32084
rehend	23979
Ġbiologists	43149
Ġgiving	3501
Ġwal	6514
Ġinnocence	24211
oves	5241
Ġprimarily	7525
Ġyeah	10194
WA	15543
blems	22143
Ġ249	34620
Ġflowed	35456
Ġnonexistent	42601
ENA	45510
ĠZo	31645
Ġinaccur	47283
').	27691
Ġlif	3868
ĠCapitals	40707
igrant	9893
ĠAES	34329
Apply	44836
Air	16170
ĠCyr	40399
ĠConvention	11680
andal	7642
Ġcloves	45025
Ġexplicitly	11777
apor	12687
Ġcoefficient	35381
drivers	36702
Ġcock	7540
Ġexemplary	40690
Ġleftists	45224
ĠRash	27620
Ġcustomize	24184
Ġthous	3207
posal	40007
Ġwhat	644
ĠUntil	14303
Spain	45355
trigger	46284
necess	10789
lighting	43351
Ġclips	19166
ĠHmm	43352
ikuman	42889
Ġhardness	49604
Machine	37573
Ġwalks	11114
ĠPerth	29913
GM	15548
Ġcaptains	37551
lis	27999
Ġvis	1490
umeric	39223
Ġtractor	38278
"}],"	42785
Ġnegate	44328
ernels	44930
Ġupt	18529
Ġanalyst	12499
ĠGamer	19576
Ġsuccinct	46263
ĠLatin	9133
ĠHello	18435
Ġpilgrimage	36068
Ġmobilization	46762
Ġdetails	3307
whelming	36433
ĠReverend	47042
ĠEconomist	36619
Ġlarg	2552
ĠFRI	48167
ĠFreeze	34917
Ġairflow	45771
ORN	30649
cipline	34647
Ġwelcome	7062
Ġrobes	32970
Ġsubur	13150
Ġdop	22340
eon	23277
Ġinjuries	6821
ĠHelen	22695
Ġpurportedly	40891
Ġeyed	45320
ĠSaber	40506
House	18102
existence	41084
Florida	31135
ĠAlly	43039
Minnesota	45670
igi	25754
erto	13806
iar	12571
Ġdevotion	25808
Ġ313	35897
Ġobservations	13050
job	21858
ĠKap	27344
dj	28241
Ġvisited	8672
Ġcommissioners	33020
ATS	33586
Ġsalts	37056
Ġshotguns	47392
Ġfeathers	27400
Ġbreeding	18954
Allows	34934
Ġhailed	27052
ĠAffairs	10665
Ġoceans	23744
immigration	47620
ĠFlat	21939
uing	4250
Ġincurred	23436
Ġmang	45663
Ag	10262
Ġqualification	28587
Ġcalibration	36537
ĠTiny	20443
Ġkidn	12668
mson	24996
ĠLife	5155
Ġsucking	27904
Ġstomach	11384
Ġbroke	6265
Ġmoments	7188
Ġsecurely	30835
ĠStaples	44419
lins	21602
collect	33327
Ġthriving	27723
Ġfutures	25650
Morgan	47184
Ġwater	1660
atherine	15289
Ġcriticised	23894
ĠSAT	29020
Ġogre	47656
Ġperched	49264
ĠTerry	14286
ĠInternet	4455
Ġstandardized	25713
Ġ180	11546
ĠSyrians	26648
legates	37061
ape	1758
eller	12368
ĠCosta	18133
ĠHarley	27440
iction	2867
ĠOFF	18562
ĠAuthent	31885
ĠStrikes	37836
ĠChampionships	24782
574	46900
ĠHal	11023
Bah	47514
AMI	43870
Method	17410
Ġcontinental	29843
Ġbraces	47241
nw	47516
ulla	47972
Ġstare	24170
ĠChristmas	6786
ĠButler	17389
ĠHobbit	43877
zi	17027
ĠSeriously	27777
Crystal	43752
Ġbegan	2540
ãĤŃ	25084
ĠPul	21624
398	31952
ĠSELECT	33493
Ġrecal	42653
wat	47261
bp	46583
via	8869
ĠDeluxe	21907
Ġass	840
Ġshift	6482
edIn	20801
ĠIb	21089
Desktop	36881
Ġreligious	4158
ĠHollande	33590
resist	35119
Ġaviation	22548
ĠNa	11013
Ġdisgrace	27690
February	21816
Ġuneven	30690
ĠSynd	19148
umat	27798
ĠSovere	36851
Ġbeware	40600
Ġassassination	18898
Ġproxies	41775
ancock	37077
Games	24474
ĠPuzzle	23966
ĠAllies	32430
ĠMe	2185
Ġanybody	9599
ĠPokemon	14878
ĠObserv	19243
ĠHank	24386
DOWN	41925
Ġcampus	7611
ĠNON	44521
Ġcorrection	17137
Ġimpat	28189
avage	33757
ĠRAND	46920
ĠTest	6208
Ġsew	34249
thood	12951
OM	2662
Ġremoved	4615
illon	23027
dimensional	19577
ĠNOW	20229
Ġpronounce	28942
ĠSlav	34314
Ġtc	37096
Ġlove	1842
Ġplotted	37515
æĥ	46349
ĠThin	40487
ĠVIEW	49880
ĠHope	13408
Ġcapital	3139
center	16159
Listen	23061
Ġpledges	31241
Ġopt	2172
ĠQuinn	16109
Task	25714
Ġdrained	29738
Len	30659
ĠPolitical	14611
ĠConsumer	18110
ĠShard	32822
sc	1416
Ġ211	28714
Ġexists	7160
Ġsw	1509
Ġrehe	22891
Ġinsignificant	32081
ĠPrinceton	23173
Ġscholars	9123
Ġbeneficiary	33867
ĠLiam	31684
Ġasking	4737
Ġfaire	37063
Ġrisking	37234
Ġcontemplate	39248
owsky	47223
Ġunimagin	37656
ubis	46676
T	51
ĠNathaniel	49536
Ġroomm	26255
Ġv	410
ĠHolder	24210
irts	9682
Ġmethods	5050
repre	10353
ĠÃł	28141
Ġconc	1673
Ġexist	2152
andise	18888
ference	4288
duc	6077
ĠWat	12242
Ġpel	16176
Ġlinebacker	18961
Ġprompted	12053
ĠPCI	17976
ĠCarn	19659
Ġpasswords	21442
ept	19598
Ġbattle	3344
athering	25545
Ġprotein	7532
Civil	32610
Ġaperture	32729
ĠVT	32751
Nobody	24795
TT	15751
Ġ286	39697
Ġinstances	10245
ĠBoh	44366
folio	13652
loads	46030
Leary	48487
Ġprobable	17939
Ġaccessing	22534
Ġfavour	7075
ĠFruit	22826
689	40523
Ġ421	49294
Ġawkward	13006
Ġphysique	48226
ctuary	15258
Ġtyped	25683
Federal	24099
harm	29155
jin	18594
Ġupheld	24816
Ġblocking	12013
ĠRasmussen	46549
ĠBombay	48918
Ġhandlers	32847
inky	29246
fuck	31699
Ġtiles	19867
Robert	19156
ĠMahm	31556
ĠDrawing	40027
Ġindustry	2831
Ġdreaded	39229
election	14300
ĠResource	20857
ĠStockholm	29679
OLOG	33462
research	34033
Ġbug	5434
FILE	25664
ĠDebate	41029
ĠCutting	40152
croft	36714
AV	10116
display	13812
Ġbourgeoisie	34562
lain	34277
Ġbees	17002
ĠSequ	24604
352	33394
ĠMc	1982
Ġsacrificing	32698
's	338
ĠTyrann	38401
Ġlab	2248
Each	10871
ĠHour	19123
ĠSneak	49475
Ġvalley	19272
Ġlosses	9089
ĠSarah	10490
Ġpunishable	30124
Ġswelling	29844
Ġbroadcasters	38716
Unique	40257
Ġannouncer	49032
ĠGF	34977
Nazi	31343
ĠTiff	35775
endor	18738
Ġmyth	7918
ĠManafort	26351
×	147
Ġburning	9482
ĠAstral	34496
æĢ	45250
ĠMcG	11130
Ġantique	38504
Ġally	12525
Ġlaun	2698
IU	44958
Ġprophes	48897
efficients	41945
STATE	44724
ĠInf	4806
Russ	10020
ĠLocations	41277
roma	42902
ĠSodium	47942
537	46096
rem	2787
aples	28624
Ġtodd	23646
atche	24809
Ġearliest	14555
ĠMash	30870
ĠSail	27783
Ġpowdered	41642
zero	22570
Ġdimensions	15225
Ġslang	39306
Ġadapter	21302
Ġtomat	23414
otle	23556
Ġwind	2344
ĠWheels	37416
Ġejac	39426
arin	17714
ĠMIDI	33439
ĠLIA	43031
ĠBie	31700
Unless	28042
É	133
Ġregrets	30090
46	3510
aliation	22885
rique	33865
enforcement	44976
ĠAndrea	23174
Ġcohorts	40182
ĠFreak	45328
ãĥ³	6527
arella	45494
ĠDiversity	36188
Ġapex	40167
CHQ	47831
Ġremedies	29604
ĠInfo	14151
Ġbigot	25015
ief	2086
on	261
safe	21230
Ġplayground	24817
1027	40403
Ġverses	24752
Ġeducation	3707
ĠMu	8252
Ġmistaken	16011
vance	19259
ĠEquip	47636
Ġindepend	3485
proc	36942
Ġreinforcement	37414
Hay	31306
ivering	35598
Mem	13579
Ġfl	781
ĠHungary	19562
ĠJudaism	26976
ĠSections	37703
ĠFasc	41467
Ġchess	19780
Ġsorts	10524
Ġfly	6129
ĠAe	37532
Ġenemies	5775
umo	43712
Ġjoints	24039
Ġdelusion	40969
Bytes	45992
Ġthanked	26280
Ġinvoke	26342
Iran	23798
omal	18048
Ġrecollection	41285
Ġleverage	16094
layer	29289
ilian	35824
Ġbelieve	1975
ĠHeritage	18518
encrypted	43628
Ġconsulate	44369
rius	48969
IV	3824
Ġdocumented	12395
ĠBh	16581
ulnerability	40920
atcher	34734
Save	16928
Ġminor	4159
because	13893
Ġobserving	21769
ĠCust	40619
ideon	42381
ĠLoaded	42485
Esc	47051
ĠLeap	33927
Ġsimple	2829
6000	43434
ĠCOMPLE	49269
Ġembrace	12553
ĠBuffett	36611
£ı	6408
Ġalleg	2868
Ġdisinfect	48511
editor	35352
umatic	16735
Ġpile	14540
Ġtechnician	33024
ĠCopyright	15069
ĠTu	16749
seys	27717
Ġhacked	19957
Ġchips	12014
ĠBloomberg	15689
Ġpamph	31461
KR	30758
Ġarticulate	32154
ilst	11750
ĠObviously	16263
ĠHUD	30219
Ġendlessly	33903
Ġreporting	6447
iter	2676
Ġcompletion	11939
container	34924
ĠSwim	35953
ĠPf	38477
Ġregistrations	47997
ĠTechnologies	21852
ĠCampaign	13718
ĠMayhem	35450
528	49351
stories	50164
ĠEVE	32356
Ġrenamed	25121
utra	35076
Ġtells	4952
Ġparticipate	8277
OSH	45704
Ġshortfall	41688
Ġdescript	12145
Ġdeclass	42794
Ġknown	1900
oct	38441
Ġpunish	6878
Fun	24629
Ġinev	9026
Ġeternal	15851
Ġcomparisons	17909
respective	36990
Ġecc	21399
Ġpoorer	26647
Ġneuro	7669
Ġexplorer	39349
Ġhabitual	46020
ĠCa	6488
Ġhealthy	5448
ĠDestroyer	30414
Ġrecre	11027
Exception	16922
ĠMonitor	18289
ãĢĳ	31817
Officers	34059
Ġstarred	31636
mit	2781
Ġcharacters	3435
Ġimpossible	5340
Ġfamine	31261
ÙĲ	44208
ĠTriple	19817
Ġrace	3234
Ġsuc	6522
wich	11451
Ġcruising	44339
ĠChili	47107
Ġmaking	1642
Andre	31258
Ġapprehended	41979
Ġsmoking	9216
ĠAMD	10324
ĠAcceler	29805
community	28158
yne	39547
Ġorg	8745
Ġacidic	42987
Ġtyrant	47167
Ġilluminate	38407
scribed	47495
ĠAppears	31254
ĠXie	48989
ĠFG	25503
ryan	29038
Mask	45195
Ġbuild	1382
Ġsitting	5586
Ġfather	2988
Ġput	1234
ĠLu	6026
Ġmamm	13418
)?	19427
ĠBent	20421
Ġtack	6331
rett	11489
thinkable	37510
ĠBUR	45604
Ġsources	4237
ryce	28169
Ġarrogant	28868
venient	48109
ĠCVE	24640
Ġstreaks	48356
Ġresembled	37657
ĠBuild	10934
Ġreckless	22053
PLE	16437
Ġfacilities	7291
Ġproc	13834
ĠXML	23735
phant	33959
Ġbuckets	38674
ĠTHEIR	47278
Ġreceipts	29946
Ġannot	24708
Solution	46344
Ġviolently	25856
!'"	49296
Ġguts	31875
ĠTermin	15527
ĠYs	43740
ĠEarlier	20635
ĠOh	3966
urrent	6657
ounce	8652
ĠCustomer	22092
ĠPACK	47035
aleb	32100
Ġcrust	20048
Ġobsessed	21366
ĠRab	28559
ĠBeth	19223
Ġturtle	28699
ilyn	38020
ĠLivingston	47717
Ġstartups	21685
Ġtestimonies	49904
Five	20029
396	34107
ĠChecks	47719
Ġanim	2355
Ġhits	7127
Ġ410	32921
Ġproceeds	15740
Ġpriorities	15369
ĠLum	18348
ĠWonder	12902
Ġachievable	47729
ertodd	36481
Ġinventory	13184
stated	21989
Ġcertification	18094
ĠTess	39412
ogens	26612
Ġpriority	8475
Ġcalam	35765
EVA	27881
Ġpeg	41350
Data	6601
ĠMitchell	14526
extra	26086
ĠTDs	42873
Ġdash	14470
restricted	49343
Ġalliances	29614
Ġ327	36203
Ġnort	17605
Ġswast	47923
219	28896
Ġamazingly	32513
Ġcollabor	6967
Ġanch	12619
Ġomn	22284
Ġprioritize	32980
ĠFrankenstein	45738
Ġpuzzles	24367
Ġvisiting	10013
ore	382
metic	15103
aching	8103
Ġlowered	17788
th	400
ensitivity	40545
Ġinsin	43553
AGE	11879
ĠBulls	18075
micro	24055
ĠPandora	28518
ĠAngeles	5652
Prev	36854
omin	6351
ĠAccessories	44171
çĶ	18796
girlfriend	45189
ĠMic	7631
abuse	47158
Ġangle	9848
ĠPony	30377
ORY	15513
ĠKut	40323
ĠRosa	27994
Ġshortest	35581
ĠAddress	17917
ĠHighland	39874
Ġhammered	41223
blog	14036
Ġcorrupt	10622
medium	24132
ĠOg	25686
Ġassistance	6829
cised	37168
avier	19492
ĠPremiership	47435
GRE	28934
884	40353
Ġchicken	9015
ĠCONT	22904
ĠDrag	12697
moral	41996
Jeremy	35623
ĠLuigi	39139
ĠDOI	40722
Ġhost	2583
Ġantibiotic	29883
Ġmanipulated	25036
ĠDaly	43692
¥ŀ	13945
witz	28155
Ġprofoundly	27377
econom	13926
Ġtrophies	21732
Published	24492
pe	431
Ġcripp	20971
Ġdestro	11411
Ġtattoo	18785
Ġremind	7101
ĠChristie	16929
Ġspecifications	20640
ĠOC	24775
ĠExperiment	29544
ĠAmer	33391
Ġknees	14475
Ġpopulist	26815
ppings	37840
Plex	46383
Ġlingu	20280
ĠEggs	40433
Ġchipset	49013
ĠSantana	49067
Ġkits	19183
Ġprobation	19660
ĠIN	3268
innie	49708
Ġkissed	27946
ĠPepe	49761
onica	32752
ãģ	2515
Ġcontaining	7268
Mont	26031
Ġintervene	22432
ĠJosÃ©	36997
Transfer	43260
Ġdisgruntled	48967
Bad	22069
ĠFri	19480
iggins	23567
Ġthriller	32251
Ġshoulder	8163
Ġtan	25706
Ġsubscript	32891
Ġupd	2325
Ġprocess	1429
Ġbase	2779
Ġinadvert	25373
ĠNepal	27026
Ġspokes	4212
ĠBeta	17993
ĠKonami	49531
Ġdisl	19621
Ġforgot	16453
Ġinflicted	27010
ĠBronze	19461
iem	26597
atics	23372
Ġmagistrate	38620
documented	47045
728	48524
ocations	20968
ĠDefinitely	33562
Inv	19904
Ġportions	16690
ortality	28337
Ġslam	21158
ĠTrying	31165
Ġpartic	1344
Ġcounselor	31928
Ġdudes	34578
Saharan	40461
ĠDesmond	41045
Ġwisdom	11501
ansion	5487
Tom	13787
how	4919
Ġfrowned	32198
Ġleading	3756
SB	16811
omnia	37340
ĠDesk	39246
Ġrooted	19459
ĠAuction	36071
changed	40985
ĠLive	7547
Ġhtml	27711
Ġadjusting	22000
Ġtip	8171
Ġsingers	39113
Ġoccupies	38985
ĠHealth	3893
ĠReceived	20557
Ġvanity	39609
ĠNottingham	39802
ĠPenal	42836
ĠFeng	18164
Ġembod	13968
innon	45067
Ġreserve	11515
ĠNorway	15238
ĠPOWER	40295
ĠSau	23167
Sup	40784
Ġgeneric	14276
Ġhardships	44618
Ġrelatives	12772
Ġbearded	42634
Ġunaffected	35290
Ġcircled	48149
Ġimpair	17253
Ġcommit	4589
ppa	44989
Ġserve	4691
Strong	33004
åį	39355
ĠRou	13876
ĠDominion	28098
451	36330
builder	38272
Ġapparently	5729
ĠReceiver	39106
âĨĴ	39310
Ġentering	8218
dated	8715
Ġcontacts	13961
Ġus	514
ĠConnor	27599
Ġgriev	21634
ĠRonnie	40892
ĠCASE	42001
ĠAerial	47475
ĠMinister	4139
692	46589
Ġ1907	41435
Ġcriminally	46657
ategories	26129
Ġmanipulation	17512
ĠRowling	41558
Ġidentified	5174
Ġpresupp	45077
Ġthreads	14390
URES	29514
Ġgubernatorial	45265
Ġcandidates	5871
Ġsurprised	6655
ĠClemson	27801
landers	32358
ctl	34168
angling	27499
ĠAD	5984
Ġendless	13079
ĠDustin	37616
ĠÂ°	22074
Ġconstruct	5678
Ġterritory	7674
Ġminors	21423
Ġgloom	30338
Ġcontributed	8639
CC	4093
Ġsup	7418
Ġbiased	21925
ĠNose	47880
setting	33990
Ġoutright	15828
ĠHome	5995
Ġpipes	19860
igators	25975
ĠIX	22631
ĠNarc	31987
DIV	33569
TRUMP	42473
Ġscroll	10743
Ġcontrollers	20624
ĠLiquid	21020
beans	44749
Ġgranting	21787
Ġowes	29264
Ġflatt	27172
hetically	31786
Ġfounding	16636
Ġsuspect	4099
395	31010
oc	420
ĠQi	21924
Ġcomplained	13832
cam	20991
een	6429
Ġmanag	2358
Store	22658
Ġ242	34353
,'"	16078
Ġconquer	23875
Ġdancers	35837
Ġcasinos	39855
sche	15952
Ġenchanted	42282
mary	6874
MORE	23346
ĠTue	30030
ĠEquity	35659
Config	16934
enburg	37036
Ĥİ	43518
sett	17744
ombie	9081
ĠNoah	18394
ĠGross	21796
Tuesday	26133
ĠCr	3864
Neither	27270
ĠCaval	21753
centric	28577
ld	335
ource	1668
ĠAnat	28880
Ġprominently	31015
Driver	32103
Ġcomplementary	32150
éĥ	32849
Ġcourageous	34010
Ġdraining	35939
ĠBR	11177
Ġmisplaced	43746
Ġwaiting	4953
Ġbillion	2997
ĠHiroshima	42922
Ġdissatisfied	44455
ĠParas	45020
Ġindecent	45400
Ġorganising	46729
technical	47944
Ġexpand	4292
Ġthousands	4138
ĠMyst	32347
ĠPumpkin	36724
timeout	48678
Ġdef	825
coin	3630
Ø§ÙĦ	23525
lab	23912
Ġimprovised	36146
ĠKazakhstan	34474
Ġpresenter	39597
ĠPhantom	14407
Ġreprodu	8186
building	16894
itude	3984
Progress	32577
ĠALL	11096
Ġseniors	23481
Ġmindfulness	35502
Ġdescriptor	43087
ĠInferno	32458
anium	15776
Ġshack	32772
ults	8376
ĠDrop	14258
ĠGuardiola	46990
adies	50192
Ġorche	17771
Ġgrabs	22378
Ġmaturity	24841
Ġsucks	22523
Ġdeposition	32553
Ġrapes	37459
bet	11181
ĠTrooper	47438
Ġpromising	11781
Ġdoctors	7519
Ġunpopular	24166
Tour	39152
Ġcleaned	20750
ĠLuffy	48147
Ġnarratives	26274
Ġplayback	16388
Ġmonthly	9651
ĠLimited	15302
ĠVoting	30061
Ġthird	2368
Ġseparation	14139
aska	8480
Ġoverdose	27357
Ġlobby	10866
1959	45403
Ġtranslations	25231
anu	42357
Ġchau	46901
liga	38910
ĠAus	27545
Ġdoors	8215
ĠMarty	29876
auld	30406
ryn	29441
ĠInterface	26491
imir	13057
ĠWeeks	33259
Ġ1938	28017
league	19316
Ġplains	36149
ĠThieves	40392
Ġ1908	40417
ĠTes	10696
ria	7496
ĠOdyssey	28032
ĠCedar	36758
unning	16596
Ġdign	13469
ĠAlc	43757
icho	38720
oubted	15973
bum	4435
ĠCoordinator	36831
CHAPTER	41481
ĠSimpson	20531
Ġ[âĢ¦]	23834
ĠOpportunity	32675
Ġstimul	11591
Ġunic	28000
Ġpounded	49162
Ġweight	3463
Ġparanormal	47525
û	183
Ġsadly	21098
Ġpassions	30477
Ġoverly	17698
ĠÃĹ	13958
Ġcane	33009
araoh	33766
Peter	19727
appy	7774
ablishment	25380
Rs	31273
black	13424
aws	8356
ĠTreat	11217
654	39111
ĠCaliforn	37704
Ġhelm	18030
Ġexerted	48322
Ġprofessional	4708
ockets	11603
rowth	13046
ack	441
Elizabeth	43568
ĠâĢ¦	3926
ĠTRUE	26751
ĠPath	10644
proxy	36436
ĠKon	17431
ĠPruitt	39637
ĠCherokee	39476
ĠJuventus	40912
Ġhomicide	19625
ĠPCIe	41825
ses	8448
stairs	17617
ĠUCH	34340
ĠHMS	44247
ulation	1741
Ġ282	41810
weapons	33999
pdf	12315
funding	25032
pause	32125
ged	2004
ĠEverything	11391
Ġsticker	27735
ĠGarner	37383
FG	30386
ĠSTATES	47023
Ġproxy	15741
Ġcc	36624
Ġcartridge	26904
iegel	28210
Ġdrifting	38193
âĢĵ	1906
Ġdaring	27939
Ġbullied	33632
Ġstripping	37727
ĠEarthquake	45591
Ġhurried	31662
ĠKub	24921
ĠOutlook	30096
Ġmissions	10566
ĠPetro	36863
ĠXuan	37746
Ġloyal	9112
ĠGodd	8935
anish	7115
ĠFormer	14466
Location	14749
Ġaligned	19874
Ġredd	14688
works	5225
itutional	5677
ptic	17459
Ġincorporated	16560
legal	18011
Ġbullshit	20041
Ġinstall	2721
Py	20519
ĠHorn	13549
Ġauthoritarian	22612
ĠTrack	17762
character	22769
Ġeasy	2562
tical	22869
Legendary	24524
Ġafforded	28109
Ġallegations	7636
Ġfertility	21573
plex	11141
Texas	21607
Af	17584
ĠAllow	22507
ĠCraig	13854
Ġused	973
Ġwrongly	31238
ĠDSL	32643
Ġconcession	33130
otten	4728
Ġcheered	34767
ĠYankee	36514
Ġtraverse	38138
âĢĶ-	44839
Ġbeforehand	27091
Ġdelivery	7585
Sel	48767
ww	1383
ĠSelection	29538
Ġbamboo	37252
wk	43021
ĠAzerbai	29830
Ġheal	12035
fat	17359
attered	10228
Ġnond	30745
Ġtreasures	29561
Ġbombard	35285
96	4846
Ġuncertainty	13479
ĠHumans	27411
Ġchrome	32030
gement	16025
Wing	35612
0000	2388
incial	13744
Ġrespondent	31282
ĠNept	21974
Fixed	13715
Ġcommunists	40938
Bench	44199
idences	44845
Ġsatirical	40557
Ġreply	10971
Ġdominance	18648
Ġpending	13310
Ġredef	34087
eli	43733
Ġautomakers	47296
conscious	16796
ĠGroup	4912
ĠOct	2556
ĠPub	8525
Ġagg	4194
Ġseeks	12932
orting	24707
ĠRenaissance	29396
velop	1091
ĠCous	27456
Liber	31199
ĠSmoking	39801
ĠPurple	17265
atomic	47116
offer	47895
ĠDominic	36401
gery	7076
Ġascend	34800
Christian	20298
Ġ______	44435
healthy	22796
ĠRoad	5567
bler	43400
Ġalgorithm	11862
wp	24142
Pract	49515
cock	21517
Ġprefrontal	43118
ĠMH	20752
Ġsideways	35303
Ġwillful	47860
arse	17208
ĠMars	8706
immers	36904
inburgh	22222
ĠSchmidt	24740
Ġ`	4600
Rail	44631
Ġdazzling	41535
portation	10189
ĠNatasha	41875
ampions	4350
Ġtestimony	9709
olicited	47607
Ġgiveaways	50020
Ġ92	10190
flo	48679
tx	17602
example	20688
ibling	27448
ittens	34978
Ġlia	35388
OVA	41576
ĠIsn	25110
essen	44483
Ġclicking	12264
Ġoffices	9730
@@	12404
ĠNuggets	33978
weet	7277
Ġ153	24652
ĠRES	15731
ĠScouting	49716
ITED	22061
Ġacadem	15574
ĠSyri	3030
creen	32060
incinn	15020
ĠStronghold	40092
Australian	38036
Ġknocks	36539
ĠBid	43484
Ġdespicable	47034
Ġfounder	9119
Ġbudding	44194
ĠRight	6498
Ġmartyr	28009
ĠBCE	37078
Ġgrids	50000
Ġamulet	38335
Ġpsychologists	30842
Param	22973
think	14925
ĠTim	5045
Ġresearch	2267
OWN	14165
Real	15633
Ġbubble	14310
Ġprompting	21550
patrick	29615
ĠFrench	4141
ansom	22011
ĠRising	17658
RGB	36982
302	22709
elligent	32940
Ġingredients	9391
Ġunfolding	34502
ĠSwift	15608
ĠEh	31480
Ġchicks	43803
647	33981
ĠClancy	46255
Ġconfront	7239
427	42363
igious	10956
ĠDele	42226
Ġsave	3613
Ġinfluenza	29491
ĠBasic	14392
dict	11600
Ġprag	23864
Ġrole	2597
Ġcomplexity	13357
StreamerBot	37574
Ġmultif	43543
GP	16960
Ġrib	12183
Measure	47384
ĠFires	47702
ĠRacer	39359
ĠProtestant	25310
ĠSix	9699
Ġ212	23679
querade	33357
terior	14172
ĠClarks	35931
011	28555
ĠAuthorities	30756
ĠSlovakia	36839
Ġturns	4962
Ġmeasured	8630
ãĥł	25795
ĠSchwe	40430
ĠLoud	41520
discrimination	42723
ĠMMA	19055
Magn	48017
umm	13929
Ġunlaw	16148
372	36720
Ġmoot	41264
ĠDJs	48644
ĠAlternatively	25929
687	39925
Ġsubway	19612
Ġinconsistent	18326
Ġclothes	8242
stitial	18167
Ġsheer	15163
angu	2303
follow	27780
fiction	24046
LV	30976
ĠDrink	32906
ĠFriedman	25865
Ġdiplom	8003
arah	23066
sle	26738
Ġengages	32902
Ġpolitic	31723
ĠBridges	41839
Ġ],	16589
Ġsplitting	26021
ough	619
Ġ=================================	46111
Ġbrace	22581
Ġperceptions	23574
rep	7856
isc	2304
Ġhollow	20596
ĠArms	18368
edom	3836
Ġshooters	26191
Ġsinking	27141
Ġancestry	29171
Consider	19626
new	3605
Title	19160
Ġultr	23212
Ġanthem	24577
Ġmanifesto	29960
Ġconspic	30034
essel	7878
alli	36546
ĠMankind	44231
aths	33148
Ġ($)	45491
Ġdecreases	20638
Ġchurch	4928
Ġskysc	37885
District	44857
ĠPlayboy	43995
Ġfund	1814
ĠLieutenant	21586
jp	34523
ĠDID	35697
Ġtheoretically	26787
Gameplay	43241
ĠPresumably	48800
Ġforgive	20927
Ġquitting	34161
ĠSophia	39953
Ġassailants	49690
Ġinterpreting	35391
Ġfailings	46622
","	2430
Ġserpent	33727
terness	34697
celer	7015
Ġ152	24848
ĠDesire	41042
ĠBah	13081
Ġsow	45125
Ġforefront	26401
pressure	36151
qus	45260
Ġtranqu	31882
Ġhun	5494
Ġcounters	21154
irable	13194
Ġliberalism	33108
Ġtwin	15203
ĠAssociate	22669
Ġjerseys	36354
../	40720
ENS	16938
Ġnineteenth	29666
Ġrewarding	23404
Ġlandsc	25227
effect	10760
ĠAirways	40020
ĠExcellence	42525
ĠSind	44830
Ġtranslated	14251
Shar	40201
ĠGou	46531
ratch	36722
student	50139
ĠCarter	10831
Î½	26180
ĠNE	10635
Ġenabled	9343
Ġtriggers	20022
ĠPione	27507
ĠBarrier	32804
Ġcoherent	24870
Ġbatters	42442
Ġsect	15951
Ġterrorist	7417
oyer	35301
ĠGorsuch	38465
Ġborrowers	31617
omedical	35914
Ġimmersion	36375
ĠSV	20546
Ġweddings	37377
Finally	11158
Ġeh	32622
NES	37379
Ġcompensate	21392
ĠLDL	37654
Ġpaternal	38082
finished	43952
eval	18206
endish	48442
parse	29572
Ġtemple	12505
fx	21373
ĠMot	6543
Ġthighs	30389
Ġwhipped	30712
ĠEpisode	7922
ĠVessel	44734
AC	2246
Reward	48123
Ġfeasible	23498
Ġseem	1283
Linux	19314
Ġcannibal	39904
ãĥ©ãĥ³	48204
ĠNico	39360
ķ	243
Ġdropped	5710
ĠTour	9852
Ãł	24247
Ġtapping	24435
ĠAdvance	25170
Ġcat	3797
ĠManual	17969
Ġexercised	25805
ĠLunar	31947
Ġantis	33064
ookie	18055
Ġplanner	42351
Ġhistorians	21262
Ġcontem	7887
Moore	40049
ĠDef	2896
ominium	46134
Ġoutnumbered	46673
colour	49903
Ġdefeats	29234
outed	18534
ĠLar	25577
Ġchests	34572
nin	35073
Ġcatering	39211
description	11213
Ġtoday	1909
Ġinevitable	13203
Western	24227
Ġfracking	25441
ĠEnlight	30564
ower	789
Ġalbeit	18244
verett	33395
Ġconstitutional	9758
Ġantagon	23775
tails	26404
Ġvaluation	29115
Ġpipe	12656
Ġflashlight	38371
ĠWallace	17161
Ġalive	6776
DEC	41374
ĠSVG	45809
lol	47288
Ġteam	1074
Ġshook	14682
bered	9451
ĠMinority	29980
ps	862
ĠWidth	38807
Ġincomprehensible	47757
Ġprofiling	31582
View	7680
Ġheard	2982
ĠMaterials	24310
ĠElement	11703
ense	1072
Ġpow	7182
ĠSab	9910
Ġregarding	5115
Ġhorm	12241
Ġpointer	17562
ĠUsage	29566
ĠYak	30254
ĠSort	33947
filename	34345
ĠWeight	14331
Ġknocking	21500
Ġforge	28325
enance	36368
Ġ6000	39064
ĠSupports	45267
Ġrider	17876
dis	6381
Ġpermission	7170
Ġdangerously	33247
]-	45297
Ġlov	42900
Ġprohibition	19548
erek	18238
Ġnationals	22970
ĠOss	45397
ĠShowdown	46645
ãģĹ	22180
hun	20088
ĠStudent	13613
Ġrel	823
Crash	47598
Ġintangible	47734
Ġrefere	6773
Ġinland	37874
Ġmin	949
Ġbolstered	48677
ĠShed	49340
ĠPolk	49292
ĠConquer	40963
ĠTIM	31742
ĠDillon	40057
ĠServing	49208
ĠÂ£	4248
iliary	28129
Ġpa	14187
WOOD	49466
ĠMerge	39407
Adapt	48003
29	1959
Light	15047
Ġequality	10537
ĠProfessional	18612
Ġaesthetic	19713
ĠSouth	2520
Ġregain	21509
yt	20760
rier	5277
Ġbegun	9258
rosso	21074
Ġpatrons	25720
adiator	33716
Ġbumped	38034
ĠWinchester	40868
Ġmodified	9518
ĠPixie	46687
ĠÃ©	38251
arette	14758
Ġillustrates	21290
yles	24327
ĠFate	20341
ĠLack	38289
Ġ341	43155
Ġsnug	47032
ĠSQL	16363
Ġeventual	19657
bird	16944
ĠChance	11809
Cloud	18839
Ġtrusts	31976
545	45326
439	47106
Ġdiffered	36337
ĠLeo	19632
ĠEmpires	35102
ĠStab	49726
Fake	49233
Ġrepeat	9585
Ġhauled	43423
Ġantiqu	27233
ĠHirosh	35763
ressor	44292
Ġpartisan	19666
Ġhateful	30367
Ġwards	32710
ĠWing	13405
Ġfishermen	34955
lift	26282
ĠForgotten	28586
Ġpregnancy	10241
ĠCrime	10003
Ġcensored	43847
ĠDisorders	37966
Ġiso	47279
Ġ292	41569
skinned	41412
gif	27908
reens	5681
Ġ72	7724
Ġtomato	24240
ult	586
Ġconformity	39974
aren	5757
ensitive	18464
Ġrespectively	8148
Ġslated	23488
onite	46285
Ġpat	1458
Ġregulations	6647
Ġrevised	15556
Ġrolls	14088
Ġ560	38089
endered	30398
Ġcou	2284
rated	4111
)."	21387
ĠBunny	28683
Ġgard	16985
ĠHG	48698
ĠAgg	19015
Ġcarving	39510
Ġeasier	4577
RS	6998
turn	15344
ĠBoulder	27437
ika	9232
Ġconviction	11375
Ġpeace	4167
cohol	4857
Ġcamer	3676
Ġ305	32747
ĠKemp	44198
Ġprogramming	8300
pled	10137
787	41019
Ġparcel	25232
ĠRadical	38352
ĠLima	41578
backs	10146
sel	741
aints	6003
kers	15949
Ġterrible	7818
cut	8968
355	28567
ĠKah	38798
ĠBoys	17528
Ġdefund	47613
}\	32239
Ġboasts	22103
Ġrespectable	27721
bitcoin	35395
enn	1697
Ġobtain	7330
Ġstun	7991
ĠCommon	8070
ashes	7465
102	15377
theme	43810
Ġpeac	41961
Ġswoop	38527
.]	8183
Ġmerge	20121
Ġunforgettable	45504
IER	38311
ĠVe	8016
Ġdepression	8862
Ġfreshman	18621
Ġfree	1479
ĠAging	44581
pected	7254
ĠAuthentication	48191
Haunted	46979
Finish	48658
asus	40895
ĠAch	26219
Ġprofitable	17967
Ġmotherboard	32768
ĠCloak	36558
ĠThames	42521
bledon	49258
ĠPE	18468
Ġsteadily	18434
pieces	34154
Ġtournament	7756
Ġfocus	2962
aunder	21118
ĠCooking	33774
igl	38686
Ġfrown	22002
Ġate	15063
Ġpause	14985
Password	35215
Ġprovoking	45625
Ġred	2266
ĠLuckily	24262
login	38235
Bot	20630
Qaeda	19058
Ġwins	7864
nesses	47556
Ġdialog	17310
Ġinfographic	48033
Ġthwart	36162
arent	1580
ulent	15288
ĠAF	12341
oph	2522
adi	9189
Ġbiotech	47693
Ġlegit	6984
cellent	5666
Ġje	11223
Ġexamining	17247
ĠCubs	21562
ĠDesc	39373
ĠFinder	42500
ĠCSS	17391
ĠDex	16750
="#	25698
Ġig	45329
ĠcafÃ©	40304
ĠYellow	12550
ĠCan	1680
Ġ1972	16101
Summary	22093
ĠPhelps	40587
Ġbasket	7988
¬¼	45539
Ġflushed	44869
ĠContrast	47011
ĠCoconut	46943
Ġpatient	5827
ether	6750
orge	3643
Ġalmond	26948
Ġprinted	10398
ĠBible	9111
Ġrapp	29106
ihil	20898
rained	13363
Ġunderpin	42185
Ġcontraceptive	37832
ĠLook	6803
ĠVolume	14701
ĠFollowing	14207
ĠFalls	17930
ĠINC	19387
iving	1412
vant	4520
Ġdefending	11749
ĠFSA	42894
blers	43022
Ġagain	757
Ġpassport	17981
Ġpurposefully	45136
otropic	46084
etta	15253
ĠSouthwest	24320
Ġrequisite	37088
bh	34369
ĠEmpty	33523
treatment	42487
Reporting	42159
212	21777
To	2514
Ġvalidity	19648
vc	28435
akens	31627
Ġfuriously	44896
Ġpredatory	35341
Ġpose	12705
saving	29336
ĠCitation	42317
Ġmembership	9931
Thomas	22405
uth	1071
Ġspices	27952
ĠDing	46980
Ġmunicip	11076
Ġ5000	23336
Ġpad	14841
Liverpool	44232
interpret	27381
leased	14684
ĠLif	21073
Ġphysically	10170
ker	6122
Station	12367
Ġvel	11555
Ġheadquarters	10043
ANK	15154
ĠIndigenous	24033
google	13297
Ġselected	6163
ndum	11021
Ġtolerate	21923
ĠAbdul	23547
mt	16762
Entry	30150
ĠGIF	24984
Ġenrichment	36513
ĠQuadro	48447
Ġpac	23503
Ġdetecting	31521
ĠWITHOUT	42881
Mon	9069
ĠSeg	31220
Ġdeclaring	18684
Ġintending	38939
Ġrefer	3522
ĠVerizon	18062
Ġoffenses	18514
Ġaisle	28960
Ġchosen	7147
AM	2390
Ġregress	50252
ĠOutput	25235
graduate	17680
Ġlimp	42102
Ġabrupt	19363
Ġnumerical	29052
262	29119
657	37680
ĠEMP	38144
Ġexplained	4893
Ġgri	11120
raine	23440
sky	15688
ans	504
ĠSage	28733
Ġnpm	30599
ibility	2247
Ġfields	7032
quick	24209
Ġliberation	22256
Ġreplay	24788
ĠPastebin	29582
Ġjournalistic	35227
ĠShak	35274
ĠAlaska	12926
focus	37635
Ġnose	9686
>]	37981
Ġmosque	18575
regor	32288
ĠFully	40234
Ġidentify	5911
awed	36825
Ġplagiar	42054
Ġaborted	46847
oom	4207
Ġprevalent	21854
opolis	47575
greSQL	47701
Ġvim	43907
Ġreinvest	50135
Ġventured	44716
Ra	21762
Coming	30804
know	16275
ĠLoving	39202
ĠÂł	5624
ĠMom	11254
ĠAshley	20899
inch	8589
Ġgarden	11376
nl	21283
Ġscanner	27474
DonaldTrump	27674
Ġæľ	42164
ĠCerberus	42593
Ġcorrectly	9380
ĠAfghans	48336
leg	1455
":[{"	32509
ĠBanks	19566
ĠWindsor	31561
Ġdiscreet	38724
Ġsituation	3074
Ġitem	2378
ĠBuffy	27438
Ġbabe	42666
ĠÃĸ	43307
ĠProblem	20647
regate	49373
ĠConstruct	28407
kn	15418
Ġdatasets	40522
holder	13829
Ġschedule	7269
chedel	24015
Ġlithium	28444
ĠKKK	42907
Ġcrimson	46153
Ġ(	357
leground	28272
Ġstripe	39858
Ġmethodology	20411
LP	19930
ĠSin	10884
Ġdaddy	35822
ĠPompe	36103
Ġstatic	9037
ooked	46288
Ġrom	9267
Ġamazing	4998
airy	13021
ĠShips	34844
Fresh	35857
910	43234
iever	47818
Ġducks	39694
tw	4246
ĠRecommend	30361
ĠRodgers	19947
ĠLaurent	39734
Ġpreparation	11824
cur	22019
ĠFields	23948
ussian	31562
stood	6501
ĠBrendan	26134
Pierre	36910
480	22148
Firstly	49709
uly	2062
ĠSwiss	14780
address	21975
Ġtechnical	6276
mom	32542
hedon	46086
Engine	13798
ĠOT	21676
Hist	13749
Ġprey	15974
notes	17815
ĠTorn	31940
ĠOption	16018
Ġbribe	40879
Ġquarrel	41998
Ġrat	4227
ĠGit	15151
atern	9205
288	25270
Ġ\(	16792
Ġindisc	30735
Ġinsidious	43732
ĠLIB	45651
ĠFlask	46947
Ġundermin	16303
Ø±	26897
Ġdeforestation	48152
Ġcateg	4253
Ġunsurprisingly	49619
Mand	49846
Ġstand	1302
orship	11094
ĠTaiwan	14119
Ġintens	17509
ames	1047
Ġsync	17510
assed	21390
deep	22089
Ġmillennials	30418
ĠEffective	29455
Ġcoy	34003
ĠEzra	36999
ĠDuty	18104
ĠDV	29854
versible	37393
ä¸į	38834
ĠTitus	49207
Ġservants	17523
Ġcess	30173
wm	26377
Ġdenouncing	45041
Chest	45170
ĠBrett	18726
Ġmissile	10105
erc	2798
Ġblog	4130
pure	37424
Ġrichness	46792
ĠSack	49175
Ġgrapp	21338
Ġundertaken	21846
married	30526
hesion	32582
ĠDecre	36400
ĠAer	15781
hers	7084
ĠVenezuela	16666
ĠStark	20956
aration	10186
ewski	46151
Sum	13065
even	10197
Ġvampires	35299
create	17953
ĠHIS	33700
Ã¨re	35979
Ġapt	15409
Ġreload	18126
Ġnegatively	22533
Ġhaving	1719
ĠWei	29341
Ġ2100	38123
ieth	19235
Ġsizing	47016
ĠGong	47142
Ġsighting	42110
Ġfunds	5153
Ġuncontroll	39483
Ġafflicted	39785
Matt	13448
ino	2879
Ġquit	11238
omed	12657
ĠFerry	42609
alin	14414
ĠFinnish	26838
Ġmales	10835
ĠYOUR	16592
Ġvoucher	40621
ained	1328
Ġslavery	13503
Peace	43445
Ġpolled	37698
ĠSasha	32151
Ġritual	12146
und	917
ĠDelaware	19603
ĠHeads	34838
Ġtri	1333
ĠEthnic	48021
Ġnominal	26934
ilaterally	39707
othermal	49723
080	33057
Ġmultim	43104
kay	5568
Ġmothers	12289
itable	4674
Ġunp	8593
Ġelites	21887
\	59
016	27037
vertis	3346
Ġbeneficiaries	28237
Ġcrackdown	22671
Ġfish	5916
ĠSold	12324
Internet	28566
ĠAR	5923
Outside	30815
elsius	32495
ĠParish	35240
ĠFallon	36503
Ġboost	5750
Ġhorrendous	42613
adows	9797
Ġbos	37284
Ġdragging	25046
vantage	38815
ĠParaly	47552
ouncing	18155
Ġrecreational	18136
Ġideas	4213
in	259
Stop	19485
expl	20676
ĠNaturally	30413
actor	11218
COL	25154
Ġclassrooms	32579
ĠHex	22212
interface	39994
ombs	33273
ĺħ	11805
Ġnobility	41748
ĠWRITE	44423
Ġpoverty	8098
ĠMaryland	10769
Ġschizophrenia	22794
pers	19276
Ġdownload	4321
Ġjudged	19589
adeon	12424
Ġbooklet	42702
ĠOp	8670
ak	461
Ġrobbers	46988
ĠAlone	28043
Ġrestricts	47075
colonial	49787
ĠCelsius	34186
Ġacron	33898
ãĢİ	40493
AP	2969
Ġcurly	45731
ajo	34944
Ġcollege	4152
ĠPer	2448
ĠResolution	22406
Ġattest	44477
utic	18089
Ġillustrated	18542
ift	2135
Ġpolished	23895
ĠLloyd	22361
opping	33307
runtime	43282
ĠAna	17639
ĠCox	18014
uh	7456
ĠAng	2895
Ġcomputing	14492
agnetic	25145
joice	41026
scoring	46536
arden	5872
aj	1228
ĠBehind	20787
Suddenly	38582
Ġ1840	47784
Ġprompts	36454
Ġphysician	14325
ï	171
Ġintersection	16246
ĠNeighborhood	37914
ĠDino	39430
anmar	21708
Ġcompressed	25388
ĠProcedure	34997
Ġaer	9551
Ġtentative	38358
ĠSensor	35367
parser	48610
thus	26239
inders	29700
Ġseeds	11904
ĩ	229
9	24
ãĥŀ	20115
Ġanalytics	23696
Ġsciences	19838
ilde	44725
ĠTempest	34367
Ġmislead	42154
ĠAWS	30865
Ġbargaining	23189
*.	24620
Ġworthwhile	24769
Ġsupplementation	30306
:	25
Ġ37	5214
Ġmatt	23963
Sign	11712
Ġdisgusting	23374
alloween	50107
azine	4994
ĠAccountability	37159
acio	48711
ĠKore	3374
ĠMalone	40735
ĠCause	24228
ĠMacDonald	37131
58	3365
ãĤ·ãĥ£	39467
Ġportrays	44771
Ġcollects	26609
ĠAbraham	16660
Ġcongressman	29545
ĠCobb	31868
izes	4340
minent	19669
Ġneighbourhood	19495
ĠCDC	20434
ĠCharter	23006
Chain	35491
ĠScriptures	41622
á½	45495
Failure	50015
Ġvariability	25364
ĠPIT	49040
Ġgoing	1016
Ġsource	2723
store	8095
IONS	11053
ĠSecondly	34276
imen	19027
ĠMovies	27151
Ġcompliance	11846
Ġfatalities	30091
Ġinitialize	41216
Ġ210	20064
Ġrpm	37542
Ġparams	42287
Ġtrash	13913
borg	23297
Ġ276	38147
itect	5712
ĠLoans	33063
Ġâľ	14519
Ġhides	30768
ĠJon	5966
Ġburgeoning	38935
ĠOnt	9463
Ġtorrent	24458
utenant	15340
Ġunnecess	11689
po	7501
Ġorth	29617
Ġsouthern	8372
ĠAlter	32770
ĠWillow	33021
Ġwithholding	34180
ĠYourself	42132
Remember	16676
ĠKot	21702
Ġshooter	14273
Ġanimations	22407
Ġevapor	28959
ĠCruise	29147
Ġnoticeably	33752
ĠWelcome	19134
Ġnursery	41326
Ġyoungest	18887
orous	9610
Ġsimpler	18599
addle	37382
se	325
Ġhistor	3752
Ġbitterly	40608
ĠLA	9131
Ġquality	3081
Ġpellets	43677
Ġ620	45469
ĠRules	14252
Ġconstitutes	19300
Ġrarely	8365
Fre	20366
ĠNW	21966
Scot	37559
Ġreject	4968
CLUS	28332
Ġdynamically	32366
ĠDeals	38299
pins	49556
ĠBrill	33335
Ġepidem	24574
225	18182
Ġgentleman	22427
ĠCait	34118
Ġgossip	30914
Ġrecruitment	19624
Final	19006
reve	36955
ĠLOOK	48045
Ġclothing	9528
Ġn	299
ifest	8409
theless	9603
uania	29743
addr	29851
integer	41433
ĠMedicine	11558
ĠSimulation	41798
Ġ<+	42496
Ġlimestone	48520
ruby	49137
ode	1098
Col	5216
EY	22348
Ġmsg	31456
Ġhonoring	38276
grade	9526
ener	877
ĠRex	17853
Ġimperialism	30988
Ġcommute	31099
ĠMinerva	39367
Ġnavigating	35210
ĠDenise	43596
'-	29001
ster	1706
gon	14520
ĠMal	4434
Ġteeth	9941
Rated	15322
agonal	27923
ĠGan	23207
ĠNEED	36465
ĠAbandon	41105
ĠLose	44927
udeau	16229
Ġdisconnect	22837
ĠWillis	32748
Ġalienation	44984
×ķ	27072
results	43420
ĠkW	50223
å¾	36181
ftime	31387
Ġfuss	34297
Ġskip	14267
ĠPvP	25576
Commun	30813
pool	7742
Ġfacilit	10410
ĠPittsburgh	12767
Ġbitter	12922
234	24409
ĠHipp	33812
Ġbulky	39392
oliath	43009
Ġangled	48719
onis	43524
Ġplenty	6088
Ġlur	20605
Ġdup	32597
Ġlosing	6078
Ġthou	14210
tes	4879
Post	6307
ĠVermont	16033
Ġshocks	32392
ethyst	44166
undrum	46859
uvian	50013
mans	16221
1993	24465
Gro	42921
ĠCLIENT	45148
177	22413
ĠKlopp	43461
ĠBluetooth	19263
æĪ	22755
Thread	16818
Ġsimplify	30276
ĠRobotics	47061
ĠCould	10347
Ġcultures	13817
Ġrupt	31580
Ġprotagonists	39558
ĠLag	21003
Ġwoman	2415
ĠDOS	43036
Ġfertil	19078
Ġsummers	43285
Ġrelativity	44449
Ġcomputational	31350
suit	6063
Ġconditioned	31964
ĠPEOPLE	36388
Ġ411	43184
Inside	24441
ItemTracker	47198
Ġamend	13582
ĠSpring	8225
Ġcycle	6772
ĠRobert	5199
Sing	29974
Combat	38667
Ġseasoning	46794
ĠPVC	46377
FC	4851
ĠMonteneg	50008
ĠSle	19498
665	36879
Ġmans	25045
ACTED	38542
Ġ>>	9609
ax	897
ĠPall	39651
Ġincess	41106
Ġunanimous	28085
Ġbriefed	32664
ĠSergei	34724
location	24886
ĠSporting	31790
ĠPin	13727
ĠScout	22529
imes	999
Ġcontributes	22625
757	39251
does	22437
Ġleader	3554
Ġglasses	15232
Ġchords	34211
SPONSORED	37190
Ġhumanity	9265
Ġoutcome	8055
Ġ);	5619
Ġinstitutions	6712
Ġcommonplace	33488
ĠINT	17828
ĠForty	38223
Ġpod	24573
Ġ2009	3717
VG	43490
mire	47004
Ġdigits	19561
letes	40676
Ġ*/	9466
Ġskins	25873
Just	5703
panel	35330
Ġ343	37290
ĠWend	21042
ĠDemocratic	4390
performing	37440
Ġcarc	36756
ĠVeter	13525
Islam	16991
âĶ	6552
ursor	21471
Ġduck	22045
ĠParticipant	29880
Repeat	40322
desktop	41375
Ġpayoff	43843
flake	47597
anos	40015
ĠNic	8377
ĠAth	13548
stanbul	24179
ĠGiving	35603
Ġtease	34691
Ġreckon	43851
586	29796
Ġast	6468
ĠAustin	9533
hibition	24108
Leaks	17874
ĠOri	17954
Ġthin	7888
Ġmasturb	22938
Ġplunge	32669
renheit	34032
Ġmodifications	19008
Ġhose	31489
Ġbook	1492
ĠAnimal	13792
476	35435
Ġcells	4778
Luck	35498
Ġfelon	46849
agos	48215
phone	4862
ĠGap	33899
Ġare	389
estic	4699
ensibly	28508
Ġpurity	25590
ĠAdministrative	30048
Ġlane	11193
ĠDetect	35874
blue	17585
Ġecho	9809
Ġcongressional	11702
olesterol	16743
iban	14278
thereum	17733
emp	45787
Ġenshr	46919
ć	195
ĠCovenant	25489
Ġprescribed	14798
Ġhinted	27388
ĠPeace	12689
Ġris	6106
ĠPF	28223
Ġalternating	39623
written	15266
ĠDifferent	20615
ĠFerrari	23502
bound	7784
Ġcement	20534
Ġtyranny	29977
Freedom	38885
ĠSOLD	48671
ĠChr	49369
ITY	9050
xit	10198
ĠPasadena	41010
Ġorganizations	5745
ĠTax	9241
Ġlocate	17276
ĠCt	43166
Ġsniper	26160
ĠFeature	27018
Ġ224	26063
Ġleaps	37312
gars	25821
ĠFurious	41018
Ġtexture	11743
foo	21943
ĠNHL	9481
Ġsemi	10663
Ġobserve	12414
Ġconstraints	17778
Simon	35475
spell	46143
Ġname	1438
ĠAtlantic	10596
685	35978
ĠRwanda	38507
Ġunequal	37334
appers	46629
Ġiii	46955
ometric	16996
Ġstabilize	32411
Ġharmony	22471
Ġabuses	19544
Ġeleg	15361
42	3682
agement	5082
uliffe	45228
Ġdisappeared	12120
ĠShipping	24147
account	23317
Ġblessed	18259
ĠKits	40297
gru	48929
Ġpulling	10427
ĠSustainable	45276
321	36453
rises	26064
nie	11952
Loader	17401
zz	3019
Ġwhales	24635
otomy	38385
ONS	19213
Ġsimplicity	21654
Ġunknow	39472
ĠTHEM	44788
Ġencompasses	38932
Ġpromotes	21068
lene	29466
eeks	32201
ĠÎ¼g	44415
ĠPlayer	7853
Ġultra	14764
Ġadjective	43441
Ġhem	16869
spawn	48183
ĠBrexit	11435
Ġdiagnosed	14641
Ġgigantic	24804
Ġrunaway	39732
Ġauctions	48043
ø	180
Ġatmosphere	8137
ĠCI	14514
ĠKB	14204
Ġlocations	7064
Ġprepare	8335
Ġdistur	11239
ccording	2941
anyahu	15966
Pen	25553
Ġpresum	9227
insured	28409
Ġsynth	33549
mons	11567
Anthony	32697
ichen	41437
Ġtravelling	16574
super	16668
deals	14302
wra	29988
ĠPis	42021
ĠOff	3242
Ġforfeiture	32075
Ġtranscript	14687
Ġcommemorate	40243
Ġdisguise	27487
Council	40940
Ġencryption	15835
ĠRig	24666
ĠTanner	43544
Ġdynamics	17262
ĠTalent	29505
Ġmarqu	44054
scrib	40075
Ġecstasy	38903
ĠBosh	42776
Ġgoalie	31071
ĠSeen	34310
Ġstrap	23016
image	9060
ĠDerrick	32979
Stand	15480
Ġbios	37140
ï¿½	4210
Ġparaph	38624
ĠLovely	44383
gay	22744
now	2197
inally	3289
ĠChan	18704
Ġdiverted	35673
Ġloneliness	37378
Ġoutings	47280
Ġexhibitions	48130
ENG	26808
.............	44274
geries	30230
Ġcommun	1316
ĠLat	5476
ĠOrig	6913
iameter	13173
anked	14076
Ġmes	18842
DIS	26288
ĠLinda	21776
ĠBrunswick	32211
ĠWilderness	40432
ĠNicaragua	38252
omial	49070
Ġplum	22802
ĠCaps	23534
ĠWy	12958
Ġlun	14678
Ġunearthed	41562
Ġroaming	31665
Vers	34947
ĠOutside	22151
Ġargues	11673
Ġgenesis	48861
ional	1538
Nevertheless	29011
Ġdye	30121
Ġexpedition	22817
Ġconductor	39206
Bir	50091
ason	888
WE	8845
Ġinclude	2291
Ġparadox	22226
Ġterrorists	10509
ĠTab	16904
Ġaggro	44082
Ĥ	224
Scan	33351
Ġaddress	2209
Ġstabil	14349
Ġoverwhelm	43334
OOOO	23803
ĠAjax	46362
Ġstereotypical	46112
ĠLange	47579
rawdownloadcloneembedreportprint	30906
ĠQuit	48887
ĠBourbon	41638
Ġinexper	31830
Ġ74	8915
Ġcorrectness	29409
Ġscores	8198
angered	19041
Ġobserves	34526
Ġsynthes	24983
Ġinteroper	48817
Ġhappened	3022
Ġacquire	12831
Ġpur	1308
Ġwaits	28364
Ġirrelevant	18046
ĠMace	48925
Ġsolder	42809
ĠMartinez	20741
ĠChild	5932
ĠCourt	3078
ynam	4989
ĠNish	48438
Ġpurely	14177
REAM	32235
Vice	47910
Ġunexpected	10059
ĠScots	33860
Ġeligible	8867
pur	14225
Ġfruits	15921
Ġcompulsion	48672
ĠErnest	34705
Ġcomplicate	45058
Property	21746
Ġutter	10517
ĠMcCain	14264
aic	18452
Ġ))	15306
bf	19881
Johnson	25378
ĠYorkers	38244
Ġinfiltrated	43862
Ġavoidance	29184
lems	46367
Ġconv	3063
Ġbathroom	12436
Ġann	1529
Ġrockets	20293
Ġcan	460
verages	23118
ĠMoonlight	39951
Ġusable	24284
efeated	36807
process	14681
Ġtofu	40108
ĠMask	18007
print	4798
Ġpsychedelic	34490
ĠBangkok	35007
ances	1817
lessly	8613
fe	5036
rene	25924
ĠCutler	37194
Ġthor	41899
Turkish	42872
ĠHurricanes	39419
ĠRico	16707
Ġwelcomes	35481
ĠDwell	42979
alyses	43710
Ġwiden	45676
Ġextravagant	45997
Ġfreeway	39042
ĠVanity	46584
rogens	48686
ĠStrategic	24999
ocal	4374
Ġeasiest	16638
lishing	20020
ãĢ	5099
Ġpediatric	29775
Ġregion	3814
search	12947
ĠBelle	31974
nova	38438
ĠRobo	39702
iquette	40387
DW	42955
ĠDisplay	16531
adobe	36752
rt	17034
Ġrealize	6537
UID	27586
ende	38396
earchers	16604
Ġconclud	5392
ĠDLC	18068
Ġreplicate	24340
Heart	28541
Ġsimulate	29308
Ġgetting	1972
ĠSad	14668
ĠFey	39775
Getty	6633
Ġabandon	6871
Ġshrink	22085
arnaev	42311
Ġfranchise	8663
ĠTall	22676
Ġbraking	36682
attribute	42348
Ġprominent	9208
plan	11578
Non	15419
================================================================	23926
ĠSergey	36106
ravings	42335
ĠWyr	45988
Her	9360
Ġspite	15275
Ġsunk	24790
thening	20563
ĠCena	46625
ĠGru	25665
Ġballpark	40598
Ġdoesnt	46701
Ġconsolation	45194
Ġcollected	7723
Ġ155	20708
ĠBUS	43949
ĠSurvival	20303
Ġclasses	6097
Ġupper	6727
((	19510
AST	11262
OB	9864
o	78
Ġfundraising	18066
crypt	29609
ordial	31223
Ġabdomen	32956
ĠAlv	33414
ĠRh	10323
Ġ(+	11502
abortion	32396
oin	36743
ĠFlake	39727
Ġblinked	40360
Ġbool	20512
ĠBroadcast	44244
ĠSovereign	44964
Grey	49141
529	49721
Ġplus	5556
GY	31212
EEEE	35039
atism	26185
Ġmade	925
Skin	42455
Ġdomin	7462
Ġequity	13598
Ġaccording	1864
Ġcontexts	26307
Ġsongs	7259
callback	47423
intensive	38096
alysis	8767
ĠCable	20249
osi	21707
Ġquir	26575
AAAAAAAA	43488
Ġ257	36100
Ġcrooked	45571
Ġunim	28418
pet	6449
Ġer	1931
bourne	12544
Che	7376
ĠMonaco	31630
Tr	2898
Ġstuffed	22259
Ġconflic	4183
Ben	11696
Ġaver	9076
Ġdiverse	10084
vest	4223
Ġcompiled	14102
insula	16495
ada	4763
teenth	20283
ĠTuesday	3431
Ġasserted	21635
ĠBottom	24530
Way	25309
Ġbureaucr	13515
ĠUnt	26970
JUST	25008
ramer	29172
ĠKnown	29454
Ġtolerance	15621
ĠVince	22376
?????-?????-	31666
spl	22018
ĠAnthrop	32898
Ġroyalties	36506
iring	3428
Ġpearl	43836
Ġrotated	38375
ĠDeposit	44158
Ġserved	4983
Christopher	38025
617	47941
Ġtruly	4988
Ġlipstick	41429
ĠBash	15743
ĠMo	4270
Ġacknowledging	25937
Ġrisk	2526
Ġpurch	3040
STEM	25361
ĠStarfleet	43583
À	124
Long	14617
ĠMug	25841
anges	6231
ador	7079
Ġdisbelief	29894
ĠWen	31164
Ġvolley	32967
Ġriddled	47655
Ġshri	35064
Ġjunior	13430
Ġsonic	36220
Ġpreliminary	15223
Ġreputation	8507
Ġpromised	8072
rock	10823
ĠDeputy	15110
HTTP	40717
Ġvou	25211
Ġbats	19553
ĠForms	39196
Ġembro	27623
rification	38763
erk	9587
linger	33550
ĠCharm	30225
ĠECB	36285
caliber	43288
Ġoperatives	27269
Ġuser	2836
ĠOrche	30369
dest	16520
pace	10223
Ġcush	24736
enced	5864
Ġcampaigning	22264
Ġcompress	27413
Ġcovenant	28173
Ġremem	8572
import	11748
requently	37971
ĠLessons	46885
Ġwil	39716
Ġconsulted	26889
amina	18891
Ġwaterways	47518
698	39357
ĠKob	23403
ĠPetersburg	27051
Tomorrow	49488
ĠShea	42368
Ġninja	37049
Ġretina	45804
ateur	15093
Ġfabulous	28294
Ġignores	24245
ĠNorthern	8342
Ġoptimal	16586
Ġdemonstrating	21135
Ġepid	12851
Ġdipped	35300
atched	14265
Ġrecovered	11911
ĠRoss	9847
ĠOur	3954
Ġbody	1767
Ġromantic	14348
Ġpointless	27158
mitter	37974
Ġgly	13874
Ġcomput	2653
ĠTeams	24690
"]	8973
808	28362
Ġbothers	46293
ĠCouch	48225
Ġvicious	17686
Ġmentioning	20862
ink	676
Ma	21467
Ġreaction	6317
sem	43616
eneg	46495
ologne	30520
ĠIndy	26023
Ġbinaries	38640
ĠWORK	30936
Ġgather	6431
Ġ2500	33507
dden	4742
ĠKl	14770
Ġseals	29718
ĠMata	45332
tools	31391
ĠÂ«	21110
Ġdiss	6249
ĠDrone	38959
ĠArticle	10172
ĠCly	29133
main	12417
Ġsu	424
").	11074
Ġfools	37323
Ġexpansions	36383
Ġpoll	3278
ĠZionist	29390
.","	41424
Ġtutorial	11808
ĠTao	32120
Ġbeaut	3566
ĠCannot	26003
Ġmedically	35031
Ġairs	37112
PLIED	49094
ĠAmb	12457
ĠMel	5616
Ġcommanders	22576
yy	22556
CB	23199
Ġfelony	14544
ocial	9402
ector	9250
Ġsubversive	49685
Ġamalg	45541
Ġdisposition	24665
Drive	24825
Ġsimilar	2092
Ġrespects	19410
Ġfinalists	43736
okingly	48343
yrs	48489
Ġta	20486
Ġcounted	14789
Ġcigarette	17779
Ġhuman	1692
Ġsure	1654
igh	394
Ġphenomenal	28187
Ġ?)	41349
ripp	14602
jack	19650
ĠMET	31243
Ġmourn	25722
150	8628
ĠGree	5251
exec	18558
Ġgrape	30777
iva	12151
ĠPear	11830
Ġ1949	24977
itt	715
BUS	45346
Mary	24119
ĠCheck	6822
613	47512
ĠDirector	5890
ĠSic	28799
ademic	49113
Ġvariance	24198
608	28688
Ġhit	2277
hyd	15511
AI	20185
icient	11373
ĠCarb	20453
Ġtorch	28034
inflammatory	32272
Ġhalves	37192
ĠCrash	23653
Ġoriginating	37962
Ġmoniker	45237
Ġsizes	10620
ĠWeed	43912
Ġtreason	32204
rugged	21901
ĠTable	8655
HD	10227
ĠSheffield	33496
Ġabhor	42934
Ġshirt	10147
ĠEc	14003
Hello	15496
Ġvoluntarily	22295
Ġsurvival	9441
Ġtill	10597
Ġdirty	11841
Ġuniforms	22551
ep	538
ĠHighlander	24567
Bu	38374
Ġracked	41503
Ġfinding	4917
ideos	4921
1000	12825
Ġsurveys	16255
kaya	35372
mode	14171
Ġrm	42721
ennett	48151
Ġpersonal	2614
ĠSUN	35329
Nich	46489
Ġlanding	9581
Ġhug	16225
Ġrhythms	39804
Requirements	42249
Limit	39184
Ġcere	6736
ichael	40302
Ġcompute	24061
Stra	41347
Ġag	556
cks	4657
rom	398
ĠFacility	29118
Ġfunky	42958
ĠGUI	25757
HS	7998
Ġcruel	12177
ĠGU	19348
notice	42138
rose	13698
ĠPain	15627
Ġtransfers	16395
Ġsessions	10991
FB	26001
cients	35611
Ġstandby	42020
Ġapparent	4156
Ġadvice	5608
Ġhandshake	42231
ĠYou	921
ĠBaptist	21724
Ġshalt	36258
Ġlatter	6846
Ġhikers	47961
JOHN	47118
yn	2047
ĠTarget	12744
ĠGarr	46619
ĠBaird	48503
izzy	40593
Ġcurrently	3058
ourage	32885
815	49503
Ġclose	1969
Jones	25784
strings	37336
initions	50101
Ġofficials	2828
atown	41079
Ġprefix	21231
ĠCrisis	18660
ĠTemporary	46042
Ġcomplying	39076
Ġchuckle	43355
ĠSure	10889
ĠBeauty	20774
Ġplummeted	44282
ivalent	29540
Ton	35416
en	268
ĠLori	43741
Another	6610
Marcus	35110
Ġrelational	50126
Ġ"""	37227
wana	49484
Ġelement	5002
ĠStat	5133
Ġhover	20599
Ġcerts	27802
Ġapologies	32920
return	7783
aders	9972
ĠJose	5264
ĠRemastered	22773
Ġurged	11643
ĠCamel	43281
Ġentrances	43818
izon	8637
Icon	19578
Ġscreen	3159
Ġboxing	21576
Chinese	23604
Ġ86	9849
Ġintox	21275
TIME	34694
Ġsmaller	4833
Ġremovable	35973
ĠExplosive	48178
lived	24489
ĠSec	1882
Ġmunitions	39586
Ġusual	6678
Ġinterfaces	20314
ĠMadden	38920
Ġformatted	39559
Ġclamp	29405
ista	12523
ĠPra	21127
Ġdictates	35054
ermott	46187
Ġonto	4291
Ġstandard	3210
Ġ%	4064
Ġflavor	9565
ĠPrime	5537
Desc	24564
Ġvoyage	31505
Unity	35955
Ġconservatives	12471
ALE	21358
Ġsexism	24953
weekly	45291
Ġimprovement	9025
ective	13967
Ġslashed	34930
Ġpersecution	22839
Ġgritty	39679
itled	7803
izu	47775
Ġofficer	3818
Ġrevisit	32302
Ġed	1225
Ġtool	2891
ĠQuant	16972
result	20274
itcher	23640
ĠFactor	27929
ISION	42446
~~~~~~~~~~~~~~~~	27156
ĠAtari	35884
ĠAshe	36318
ĠHoms	47778
Ġundermining	30340
ĠSHA	25630
ulpt	13327
henko	30161
Ġboiling	24372
Recommend	41248
Ġworkflow	30798
Ġdisqual	31901
Ġaccessory	28207
raught	44451
oxic	18047
Ġ82	9415
ĠDragonbound	17900
Ġ['	37250
Ġdesert	10326
ĠDakota	13336
ĠâĢİ	24398
ĠAbbas	28354
BUT	47526
Ą	192
cÃ©	32682
Ġindistinguishable	43649
play	1759
Ġglands	42093
EGA	33146
Professor	25031
ĠVanderbilt	38684
merga	44739
Ġexpense	10907
ĠTemp	24189
ĠEVEN	45886
Europe	16112
ĠKnow	9365
ptions	8544
ĠNewfoundland	43867
ient	1153
Ġnurse	15849
Ġpenetration	23271
ĠNickel	38398
Ġunsett	29286
Minecraft	39194
Ġindisp	33321
Ġautomation	22771
ull	724
ias	4448
Main	13383
Ġ240	14956
1992	23847
Ġgalleries	38462
confidence	39745
Ġresponsibly	43493
ĠArmory	45388
wood	3822
Ġbiome	48493
Ġjam	16853
ĠChrys	27856
ser	2655
ĠFloating	49768
298	27728
¯	107
ĠTRUMP	42953
Ġpersistent	16218
escap	50141
haired	29972
ĠWHAT	25003
ĠPut	5930
Ġrelat	48993
ĠPrel	28887
ds	9310
Ġpressured	32098
Ġpetty	25229
worms	49617
Ġlawn	21133
aed	8432
Ġdual	10668
ĠComments	19502
ypes	9497
Ġurgency	25615
Ġscattering	45765
ternally	30262
vation	10473
Ġflooding	17448
Ġrabbit	22746
Ġbiases	29275
ĠFlorence	28537
Query	20746
ĠJacobs	27593
228	23815
Knowing	45648
umbnails	13668
Ġabsurd	12986
ociated	19293
Ġ148	22613
Ġquickly	2952
Ġeverywhere	8347
Ġdishes	16759
utsu	36567
ĠGrizzlies	40669
Ġsubdiv	45944
INTER	41358
Ã§a	50041
",	1600
igree	41233
Wild	25946
Ġonboard	25863
Ġapproves	43770
Ġartist	6802
Ġpoignant	45516
Ġongoing	7044
Ġjuices	35919
Ġluc	17115
bury	10711
Quest	12166
Ġcalibr	33801
ĠInnov	43405
ibaba	37541
ĠConce	44530
em	368
ĠCPI	42103
ĠCoh	47222
ĠSAP	48323
ĠRegarding	38687
****	2466
ICT	18379
Ġsuddenly	6451
,-	12095
Ġadoption	12695
Ġpleasing	28790
olutely	16780
Ġcontradictory	29096
ataka	48088
traumatic	41521
Ġpsychiatrists	49218
ĠRealms	35974
ĠVisa	27645
ateful	11850
Regardless	27894
roach	28562
Ġincumb	19742
amn	34684
aptop	45007
Ġuterus	41303
Ġbree	20780
Ġquestionable	18269
arry	6532
Ġdetectable	44187
Ġmarrow	44173
ĠTwice	41217
ĠHot	6964
Ġruined	20484
pie	21749
ĠHob	17073
jury	21871
ĠSyd	11415
ĠSask	23541
Ġmanifestation	30566
resy	33000
usher	34055
Ġfurious	21799
iger	8254
det	15255
istani	16688
Neill	26538
Beat	34979
Ġhook	8011
Jenn	35994
Ġfixed	5969
ĠMarian	37919
Blu	38676
Ġabstinence	40683
analy	38200
Ġsupers	22754
machine	30243
Ġpineapple	45540
Ġsample	6291
Ġvaccinations	46419
Ġhabitats	35308
Ġrefinement	47517
Ġseats	8632
ĠHaz	17064
Ġpowerfully	48745
ĠAgency	7732
ĠRubio	15476
Ġpropriet	38090
Ġpractise	44811
nov	37302
Ġ(/	50247
ĠDai	39604
Ġ122	19409
Ġstable	8245
ĠMinimum	26265
Ġentertain	8204
ĠJam	9986
pass	6603
PI	11901
bridge	9458
Ġsprite	33810
ĠCompetition	27348
Ġsoaked	33657
Ġrepercussions	34056
Ġtraitor	35731
ĠSummary	21293
ĠNTS	43754
finals	32089
ĠOber	33753
Ġbathrooms	32601
Ġequivalents	40255
yi	48111
Ġfps	32977
Ġspotted	13489
steamapps	31881
ĠTelecom	44021
reys	46703
body	2618
ati	7246
campus	43842
ĠProv	7518
ĠStuart	22559
rets	8004
Ġfastball	38287
Ġupstairs	26148
ĠMK	20553
Ġspice	25721
ãģĵ	46036
Ġrhetoric	13214
Ġclauses	31485
ĠAg	2449
Ġzeal	27689
Ġspoon	24556
Ġagendas	37611
paralleled	37859
ĠOrganization	12275
zanne	38395
ĠPly	36526
Ġrip	18344
Ġ402	42622
Assistant	48902
Ġquint	28533
Ġdecrease	10070
Ġthrown	8754
Murray	49998
ĠChristy	50058
Ġsings	33041
Ġwardrobe	35593
Ġfatig	46291
esome	5927
Ġavoiding	14928
perture	27286
Ġpartnered	29806
acked	6021
Ġgraz	32703
Ġindicating	12739
Ġdisbanded	47302
forced	12072
ĠOilers	35004
Your	7120
Ġscratched	37468
Ġplagued	27909
Ġey	1926
Ġescaping	25071
ĠApparently	18626
unk	2954
Ġretire	8058
pixel	32515
Pinterest	35767
Ġdiarr	30409
ĠFargo	28125
ĠDahl	41471
Ġpurs	8012
Ro	15450
Ġperformer	26960
ĠSymphony	33195
ĠGry	33958
Ġeld	18441
part	3911
Ġlatency	24812
ĠDortmund	36888
ĠAsgard	41008
Ġpositives	38548
ixt	6346
kept	45089
Ġgui	11774
Ġpassionately	43136
Ġexported	29050
Ġguest	8319
ĠHarrington	48334
Ġmilitants	13162
Ġlaud	28907
ĠLibyan	28661
627	49856
ĠRoz	41334
uzz	4715
umbn	10269
ologue	39795
Ġ374	49020
ĠKeep	9175
ĠL	406
Ġhistorian	18026
Ġdislike	23109
Ġmocked	29180
Ġrebuke	45830
plom	7302
Ġtrop	14673
reporting	49914
Ġcollisions	31998
ĠZa	44210
Ġ350	13803
Ġopponents	7691
ction	596
Ġindividually	17033
tg	25297
Ġcautiously	39640
ĠTactical	26984
Ġrating	7955
punk	30354
ĠEmerging	48297
Ġoperation	4905
iamond	8446
nt	429
ĠForces	12700
ĠElder	15624
ongh	19757
Ġwealthiest	35817
Ġcred	2600
ifying	4035
identally	23961
many	21834
Ġvisual	5874
aleigh	30729
currency	34415
ĠElena	37254
ĠMum	38367
ĠAkira	46910
ãĤ¨ãĥ«	46948
Ġengineer	11949
inction	9438
Ġaunt	25949
ĠPOL	20634
Ä	128
YES	43335
Ġoutlets	12527
Ġfixme	45199
Ġreadings	24654
Ġfeeble	46299
Done	45677
Ġocc	1609
ĠSuc	47352
Cond	25559
ĠCriminal	15531
Craft	14467
Maximum	40541
365	24760
Ġculmination	41089
Hunt	47663
grey	49502
Ġlinux	32639
ĠHuge	35225
ributes	7657
ĠTrotsky	32706
Ġcrushing	24949
sell	7255
Ġintentional	21391
ĠLok	36861
Ġidea	2126
stantial	41321
ĠMinnesota	8919
CHECK	50084
Å	129
asper	32981
Ġmembrane	25019
ĠRobots	39096
Ġcontribut	4076
ĠGN	15484
Ġspearheaded	46766
Ġnab	47822
iol	1669
WithNo	35992
ĠDE	5550
Ġsovereignty	18582
ĠMiles	20404
cht	21474
abling	11716
ĠCompos	29936
ĠVolunteers	45646
Instant	49933
ĠKaz	16385
Ġhydro	17173
Ġbatting	23761
85	5332
umption	24098
accompanied	42588
Ġemploying	26490
ursions	42394
Ġliberty	12354
Ġcomfortably	24341
Ġmemorable	18078
ulum	14452
ĠCompare	27814
ĠGuantanamo	34378
Ġcoping	35326
Ġremnant	49332
Beyond	24102
Ġprice	2756
Ġvolunteer	13904
ĠArtemis	36137
Ġstorms	20228
ĠBelieve	32018
ĠREM	22657
Ġwished	16555
omo	17902
GD	45113
Ġcam	12172
Ġcontract	2775
Ġfierce	14800
Ġperipheral	25514
ĠVeterans	18950
Ġcarniv	41919
continue	43043
ĠErdogan	20065
Ireland	49752
Ġlow	1877
rawling	18771
Ġconsequ	4937
Ġcommunal	26757
ĠSanctuary	27036
Ġmedals	28057
ĠFah	27361
plings	47093
Sometimes	15468
ntax	41641
shop	24643
Ġlaboratories	35650
Op	18257
agging	16406
100	3064
ĠReaction	39912
ĠWent	29866
ivil	2464
NUM	41359
ĠReaper	29245
Ġperpendicular	47190
Ġsafely	11512
ĠHernandez	24687
Ġgene	9779
oot	1025
Ġ310	28947
ĠCN	31171
Ġregister	7881
ĠSaid	23885
Ġ188	27778
Ġscholarly	31950
İ	236
asant	8775
Located	43525
Ġjohn	45610
ĠRoe	34904
Ġeducators	30770
ĠTransformation	49127
summary	49736
Ġdependencies	20086
ĠBundesliga	44323
Ġtablets	17255
ĠTrout	42542
Ġponds	47339
Ġincred	4878
utive	8827
authored	39351
JB	47858
ĠREUTERS	15862
Ġpointed	6235
ĠBung	40646
ĠHemisphere	42811
Ġhelped	4193
heddar	44937
Ġgasp	47440
Ġcoma	33658
Ġmarketers	41064
Object	10267
ĠHelic	48574
recorded	47398
Ġpriceless	49083
ĠHurt	42566
Ġamended	11412
Ġcook	4255
Ġinfants	18775
Ġauthorize	29145
Ġconsecut	12358
Ġorganisation	12684
Ġinfluence	4588
344	33535
Ġtrendy	44493
itary	9331
ĠArticles	22698
ĠKun	22673
Ġannouncement	8009
Ġdiscriminatory	27200
165	20986
Ġtornado	33718
Ġscratches	37627
Birth	38480
Ġslaying	45183
Cla	47404
ĠBord	48335
ĠInvasion	25484
Ġhypothesis	14078
anni	31296
inence	18386
geoning	31614
ĠVeteran	32733
ĠCompatibility	46021
Ġsimulation	18640
offset	28968
Ġtactile	48896
Ġdeflect	31685
ophon	48982
Ġtherapies	29596
Sem	13900
ĠGoPro	49789
TABLE	38148
ĠBrigade	26012
HM	36905
ĠInto	20008
atinum	16881
Ġprosecuted	23086
Ġpracticed	19893
calling	44714
ĠLieberman	46524
251	28072
mp	3149
ĠEle	15987
Ġnost	18216
Ġflesh	11222
Ġwanting	10291
ĠException	35528
ĠGothic	38845
Ġsleek	33143
nsics	49242
elta	12514
verty	8077
"},	25719
Ġpaved	31285
arthy	18270
Ġgain	4461
Ġattribut	24548
ĠScully	47953
Ġsuccession	22435
Ġreddit	18374
Ġblades	20784
Ġflashback	41963
Ġtraumat	38510
Re	3041
Ġreforms	12506
Ġjournalism	14033
Ġshorth	39147
ĠTrance	47215
algia	47111
Again	15316
Ġspree	37386
Battle	24064
ites	2737
Ġexpressed	6241
according	38169
Ġfloors	18570
ures	942
ĠGo	1514
VD	8898
Ġdisabilities	19358
over	2502
ĠHind	17099
Ġcanceled	19994
ĠEVENTS	22399
Ġsituations	7445
Ġsector	6567
chens	29937
sac	30584
331	31697
Ġstrikeouts	36431
umped	27073
Ġthunder	18355
quila	43652
Chart	45488
ĠCoast	8545
Ġmog	32985
ĠZel	40071
reetings	46648
Herm	48523
ĠBayern	30683
Ġsubstitutes	44234
ĠSk	3661
Ġclans	38501
åħ	17739
Ġgrouping	36115
nesium	27619
aby	3930
emo	41903
Ha	23303
Ġpatrols	34141
ĠInsect	36652
ĠSNP	25632
ĠMaurice	32839
1100	42060
ĠQian	44696
Ġsimilarly	12470
ĠSigma	31669
ĠJericho	47782
izz	6457
Ġreactors	28502
alks	23833
obbies	41372
Ġcortisol	41547
Ġtelevision	5581
af	1878
ĠPhilipp	9844
ĠMoss	19935
Ġsatellites	20372
ĠBACK	28767
articles	26845
ĠCharleston	26070
USER	29904
Ġen	551
ĠMor	3461
Ġourselves	6731
ĠReleased	28728
racial	33001
oft	11205
Ġtorment	33378
Ġgeometric	38445
pal	18596
Ġrodents	41093
ĠMany	4650
Ġfactories	17590
Ġforbids	44114
Ġpossession	7797
Exactly	47173
virtual	32844
abre	46241
ulator	8927
bart	16575
Ġfiercely	33285
Laura	43687
ĠDB	20137
ĠTuring	39141
ĠEqu	7889
Ġtyres	40498
vere	4119
aw	707
ĠCross	6372
ĠTHIS	12680
Ġwar	1175
ĠOrigin	19349
Ġcele	3879
Ġincumbent	23526
Ġtriggering	26555
Ġspecimen	31674
ĠCooldown	39742
ĠInjury	40883
ĠLouie	48352
requ	8897
aters	8605
essors	23295
itness	3659
Ġvend	10817
Ġcategor	17851
odor	30530
Ġrainfall	25807
Tex	17005
Ġcit	15433
Ġamendment	11326
Prof	15404
ĠBak	17466
Ġmarginal	14461
Getting	20570
olved	5634
dog	9703
697	40035
ĠON	6177
Previous	21448
Ġrubbish	35022
ĠIronically	37731
adata	14706
Ġdep	1207
Ġanthropology	45424
Ġspecs	25274
Ġcounties	14683
ĠSomeone	17877
ĠLaos	45919
Ġhumans	5384
alties	10355
Ġspecial	2041
ĠWalmart	20355
Ġmisunderstood	33046
Ġpsych	3795
ĠAtl	5234
Ġfu	14035
pects	38046
ĠJung	27134
Ġstrongest	12841
ĠSaiyan	33725
star	7364
Ġneon	25988
ade	671
ĠLewis	10174
century	14792
Ġvegetarian	24053
Ġ52	6740
Ġnewsp	6043
ĠSOU	30065
Ġutilitarian	48239
Ġtemplates	24019
leasing	48764
Ġ747	45600
ĠScar	12089
ĠDuncan	18625
Ġbrakes	23746
ĠExplos	33022
ĠHell	5783
ĠWorldwide	33140
Ġinitiating	40150
ĠInstallation	32588
XXXX	24376
ĠDirt	49124
Ġcompat	8330
Ġclinically	36688
angular	21413
Ġpollutants	41824
ĠInquisitor	46741
Ġ412	42215
Ġaquarium	33868
don	9099
Ġconsolidate	38562
Frank	17439
Ġthinks	6834
Ġcoordinate	20435
Brother	39461
Ì	136
Ġsuspected	9885
des	8906
Ġ187	27649
ben	11722
ĠInvestigator	49499
ĠWas	8920
Ġchildcare	42857
Nev	43555
Ġamput	40338
POST	32782
endez	41913
IL	4146
usercontent	43667
Ġdeductible	42161
Ġdiarrhea	36004
Ġll	32660
dirty	49075
icka	29873
Ġlead	1085
Ġexerc	4208
ĠModest	42810
c	66
Ġbesieged	41680
Ġscanning	21976
Ġaccomplished	13013
collection	43681
Ġimpact	2928
Ġfirsthand	37318
ĠShining	23136
ĠWelch	41524
ĠRamsey	30552
ghazi	21775
Ġnegatives	42510
Ġorphan	26051
Ġinherent	11519
Ġabyss	37678
Virgin	34674
ĠSanford	42862
469	42947
ĠSurprise	47893
Ġtremb	29868
Ġgenerates	18616
CA	8141
reat	630
Ġparticular	1948
Ġconducted	5952
ĠTrash	48161
abet	8380
Ġmisled	38796
Ġdemon	3222
abin	6014
Ġpages	5468
ĠIPS	37632
Ĭ	232
Ġaltitude	20334
ĠKenny	22102
ĠHonda	20059
Ġtitles	8714
Ġwillingness	16826
Ġfacade	43562
ĠLG	17370
wh	1929
ISS	16744
ãĥģ	31090
Ġprize	11596
al	282
engine	18392
Ġpounds	8059
Ġwest	7421
ĠResist	36136
aggressive	49639
Al	2348
RAFT	44700
Euro	14398
ĠPlus	8227
Ġdesk	6915
Ġfug	31497
Ġtraces	20675
Miami	41191
Warren	43464
Ġstudied	9713
Ġrecons	23898
905	44928
Ġupholding	46004
Ġdisagreements	37990
ĠVerse	38641
ocused	13073
ĠFraser	28059
Ġappease	47316
ercise	23697
Voice	35708
Ġinterpol	39555
Park	25478
Ġ38	4353
Ġtherein	27258
Ġchoked	39283
Ġpure	5899
rah	11392
ĠEst	10062
tha	12898
ĠStreaming	43124
TER	5781
lr	14050
Ġnovels	16122
Ġlengthy	16452
pn	21999
Ġrule	3896
Ġfired	6294
EF	25425
Ġcapitalism	12129
ĠHeavenly	29035
Ġfungi	38467
Ġviability	32141
Days	38770
REDACTED	45999
Ġshortages	28791
Ġadj	9224
attery	16296
Ġavoid	3368
ĠâĪ	18872
Ġstaging	29475
Ġunheard	36511
Ġtemplate	11055
umerable	30831
ĠCompliance	40536
Ġbanquet	47600
text	5239
Ġcontrol	1630
Ġmarg	6145
Ġratt	27263
ĠLyft	38928
Ġnick	14428
ĠMonetary	34112
ĠDover	46578
functional	45124
(-	32590
ĠGeorge	4502
379	29088
Ġinfections	16079
Ġaccumulation	24106
zilla	16496
Alan	36235
Ġpedigree	46895
ĠEnh	15860
ĠKennedy	10401
Ġserver	4382
Ġignoring	15482
years	19002
Ġreprint	26589
ĠNaj	37135
Documents	38354
Both	10265
ĠElixir	42652
ĠÂ»	13355
ĠJury	48705
TOR	32961
LINE	24027
ĠSOL	36817
Ġwhispers	37806
ĠSaturdays	41703
clamation	20931
Ġinformational	21524
Ty	25492
Ġtips	9040
etry	11973
iffin	42022
Ġfinest	18822
Ġtubing	43128
ĠDreams	21527
Ġbear	6842
Ġhij	16836
ĠMd	39762
ĠThro	47854
Ġrefuted	49402
umping	25218
Features	23595
hours	24425
Ġdeciding	14615
Ġgoodbye	24829
Ġinsertion	36075
ĠWitt	38005
ĠSD	9834
gu	5162
ĠSenator	8962
ĠStars	10271
mic	9383
zone	11340
Ġmaterial	2587
flower	25547
ĠCheese	27601
ĠStefan	28842
Ġbreakout	31661
ĠGoldstein	45655
ĠBrock	20501
ĠTexas	3936
ĠHUGE	48068
icted	5722
ĠMcLaren	33017
Ġexcise	47547
ĠFeel	18571
Ġprophecy	28322
ĠCanter	38183
ĠAlcohol	21051
Â¯Â¯	5367
ĠBonnie	39203
Ġlegal	2742
Ġbol	11572
ĠBiden	21010
Ġrandomized	23925
Ġsarcast	36543
Ġpermanent	7748
Ġchemically	49966
ĠHeath	25846
Ġgallon	26860
anded	12249
Ġmanuals	41371
Ġinner	8434
Ġbother	11393
ĠHeld	44584
uttered	46322
Ġinterviews	9299
ĠFant	8751
ĠReasons	44923
Ġprovider	10131
penter	26419
Ġsensibilities	50222
ening	3101
ĠSTAT	15486
Ġdownside	25320
Volume	31715
selected	34213
ĠNIGHT	37707
Ġwaive	40307
Ġir	4173
chapter	43582
ĠVIDE	45748
whether	25356
utters	46973
Ġinsomnia	47104
Express	38839
Ġalmost	2048
Sharp	44336
ĠAntarctic	33149
ĠClover	41154
Ġnaive	24354
ancel	21130
ĠBirds	27124
Ġorgan	1618
Snake	49795
ĠEmerson	41886
fits	21013
ĠDO	8410
Ġov	19643
Ġcompr	12084
Ġtriumphant	44005
Ġsend	3758
Ġrecognise	21817
estro	47692
berman	34591
Ġconform	17216
Ġsadd	17766
ĠguiIcon	30211
Ġcontroller	10444
Ġimplant	29016
Ġpercept	34953
payment	37301
Nar	40059
Ġhooks	26569
apache	43073
Ġlasts	20374
Ġlacked	19989
Ġweek	1285
ĠRep	1432
Ġ199	1594
ĠSaud	6746
otted	8426
ificant	17294
Ġyouth	6205
illa	5049
ĠRa	7567
ang	648
Secretary	38541
ĠLisp	38593
ĠHL	38312
Downloadha	41551
Ġsmuggled	46738
iosyncr	48702
sense	33819
Ġmarkup	41485
Ġwhom	4150
asp	5126
error	18224
à	156
Ġaffecting	13891
Ġfrequencies	19998
Organ	26121
itions	1756
Ġsensation	18098
Ġtaller	25242
Ġchimpan	36064
Ġpersuaded	25562
Cam	21701
ĠGundam	32467
talking	48186
ĠJACK	45586
Ġstore	3650
Ġentrepreneurial	39365
Ġpassing	6427
VC	15922
Ġrevisions	33315
sama	33843
Ġ})	32092
iping	34690
Ġactu	43840
Ġvictorious	31956
burgh	9228
hya	48812
Andrew	20508
Ġbean	26394
ĠDaniels	28162
thinking	28973
Ġconsciously	30410
Insert	44402
ĠGrenade	47951
ITAL	40579
Ġtrimmed	40325
Ġluck	8458
Ġmagnetic	14091
ĠRussians	13234
Ġvapor	20199
Ġlaid	8104
Ġlogistics	26355
growth	27922
ĠPOLITICO	39817
KA	25123
TEXT	32541
feld	16265
Ġforthcoming	21220
Ġpoet	21810
Ġsynchronization	42133
frog	49956
cule	23172
ĠPresidential	17471
ĠFif	12830
ĠManila	31721
Ġfolds	38744
Ġhotels	18505
¿	123
vern	933
Ġstabilized	44945
Ġhas	468
âĻ¥	39908
ĠIreland	7517
Very	16371
Ġ1918	25859
Ġuncle	7711
required	35827
amorph	37670
Philadelphia	42349
Ġaided	28310
Ġglide	48089
Ġobser	7961
WHERE	47357
Ġintrusion	34396
bj	50007
amate	36754
orph	13425
UB	10526
ĠBack	5157
Ġconstitution	11784
Ġcass	30606
Ġconnected	5884
Ġclosest	11706
Ġcops	14073
Ġ0000	17643
elfare	27122
Ġ(%)	11509
Ġverge	27373
Shock	31646
Ġmalf	27750
Ġ980	32614
ĠArbit	33619
aturdays	39724
Ġtest	1332
OPA	43345
Graham	45821
Ġge	4903
bably	11921
Ġundermine	16637
cond	17561
Ġsatisfactory	29962
Ġagre	2477
RM	29138
ĠGREEN	47606
Ġ1070	49616
ĠArmstrong	21166
118	16817
amed	2434
ĠZucker	27629
Snow	28974
Python	37906
Changed	31813
ĠChoice	18502
Ġsexuality	16641
ĠGrim	17525
Ġsurprises	24072
rica	30997
ĠDeb	8965
ĠLime	43503
ĠCathedral	32536
Ġexpiration	28385
ĠSpect	13058
OTOS	33291
Ġbreweries	31247
practice	39541
ĠAlibaba	41992
Ġfi	25912
Ġmobilized	50166
ATIONS	18421
IBLE	34563
ĠPeg	31084
ĠWeapons	18944
ĠAdam	7244
Econom	28489
ĠLeone	30399
Ġsightings	36242
ĠTournament	9595
Ġflashes	29227
Ġstares	38806
ĠâľĶ	28497
893	49682
Ġglanced	27846
cha	11693
Ġlake	13546
Ġsuspicion	15123
coon	20912
-)	25106
Ġharm	4419
ĠThink	11382
ort	419
Ġsoil	9260
ims	12078
Ġgmaxwell	31886
Ġcentr	27435
hetti	33392
OTUS	39205
ĠFF	18402
Ġrefugee	12540
Ġrainy	37259
Ġhugged	41130
Ġpulls	16194
ĠCurtis	25157
Ġactivist	11276
Ġmalaria	33917
ĠLaurel	43442
ĠJavier	44492
ĠELECT	46323
ĠTemper	48125
ĠTBA	48591
Ġareas	3006
Ġtents	29804
onet	36823
ĠSimmons	22553
Ġporous	48242
ĠMember	10239
Ġangst	48973
Ġmajor	1688
Ġpenetrated	41847
Ġ201	580
'?	30960
ĠJoel	18623
Ġpancakes	47008
Ġdeparture	12928
itely	3973
Am	5840
Ġgraveyard	27672
Ġmastermind	41353
awn	3832
"},{"	11919
Ġabund	12467
ipolar	49133
arma	10961
ĠWWE	15247
Opt	27871
ETS	32716
Ġbeside	13970
Ġregional	7915
Ġjust	655
Ġlakes	24768
ĠMining	29269
ows	1666
Ġcheerful	37999
anian	38336
Michigan	40610
Ġviews	5009
icator	26407
bryce	32524
Ġnonviolent	42582
Ġendured	24067
ĠDonald	3759
usions	15880
Opening	43093
Ġfunctionality	11244
ĠHy	6707
ĠShang	45797
United	17013
gemony	38953
Incre	15562
);	1776
ĠPublisher	28045
ĠMehran	42558
gui	48317
Ġminimized	49491
Ġante	29692
eker	28233
Ġchewing	36615
ahs	39095
Ġcrossed	12606
noticed	31696
Ġupward	18644
Ġtou	2819
Meat	35620
Ġarranged	14921
ĠHalo	18597
Ġ2004	5472
ea	18213
ĠCastle	11312
rawdownload	30905
str	2536
Cert	37608
74	4524
models	27530
ĠGPIO	50143
Ġgrade	9559
Ġintervening	37294
Ġsmelling	48090
Ġwra	7917
Ġdip	19550
Ġforgiveness	26027
Ġoral	12886
Ġfixation	48785
Ġbes	7284
just	3137
Ġcredential	49920
efficiency	45888
ĠARTICLE	48301
ĠStatue	43330
ĠCurrently	16888
'	6
consumer	49827
wings	48819
Sch	14874
Palest	32570
riend	1289
Really	26392
Personal	30228
Numbers	49601
ĠRutgers	30595
Ġmemes	32905
ĠChomsky	41057
ĠThornton	37519
ĠCabin	16804
Ġpdf	37124
UNCH	47461
ĠBucks	29751
ĠIncluding	41461
ĠOld	5706
undo	41204
aston	45966
errilla	31859
Ġaccessibility	28969
ots	1747
ĠKeeper	26335
mA	42646
kins	5331
Ġcertainly	3729
ĠSecret	3943
ĠLoc	15181
Ġobtaining	16727
Ġstigma	26695
ĠLuxem	29017
rency	5227
Ġwww	7324
ĠUAE	29367
Ġtrek	30784
ĠAllan	31908
Ġdemographics	30084
Ġupgrading	25485
Ġticket	7846
Ġpostponed	33922
Ġfeats	35664
onding	42703
Ġfragmentation	42965
Ġsulf	22443
Ġfaults	31025
Ġmatters	6067
ells	19187
ĠColleg	34890
Ġ'[	44438
enty	3787
apses	45903
Ġembroiled	46767
ĠCommissioners	48053
errors	48277
ĠNeuroscience	38917
Ġsuicide	7341
ĠAwards	15434
Out	7975
197	24991
Ġversion	2196
Ġcolorful	20239
duct	2359
ĠJosh	8518
Ġhiring	12965
Ġlending	20983
Ġdelta	25979
Dist	20344
Ä±	30102
emis	30561
ĠIDs	32373
antically	31589
Ġprosecuting	38242
ENGTH	49494
Ġ..............	44912
ĠManning	15281
ternal	4358
ĠMcN	22586
Ġhydra	25039
Ġdifficulty	8722
ĠSteph	39644
sov	47272
Ġundeniably	47589
Ġglucose	15701
ĠBattery	23490
umann	40062
igil	27187
Ġredistribution	41425
ì	168
forest	29623
Ġfingers	9353
Ġaccelerated	23312
ĠRosenberg	40827
Ġdetectives	24304
ĠASCII	37101
ĠGoodell	41648
ĠServ	3116
lost	33224
Ġcautioned	34105
ĠPipe	36039
ĠMSG	49064
Ġparody	29695
Ġoperate	8076
Ġpipelines	31108
Ġ260	21148
Naz	37235
Ġpreached	38737
Ġpatronage	49753
ĠWorse	36855
Ġwandered	36036
Ġnerv	8660
ĠMountains	21124
Ġvisitor	21493
Ġbowling	33564
two	11545
fed	19082
Ġplanned	6027
ĠRogue	16432
Ġbelonging	16686
Ġaids	31378
ĠRav	28146
ouston	6526
sold	24120
Ġimportance	6817
Ġlac	31123
armac	32813
Jane	41083
ptroller	44913
Ġwagon	31860
Ġjoin	4654
Ġcapacity	5339
ĠOmar	24980
ions	507
ifles	16063
ĠBaseType	31783
Ġsomething	1223
onductor	40990
based	3106
jamin	13337
Ġconverted	11513
ptr	20692
Ġbreeze	28633
Ġjumper	31118
Ġspecify	11986
ĠDeveloper	23836
capacity	42404
ĠAdvisory	23943
Ġvolcanic	31513
Ġantidote	50131
ĠBall	6932
Ġbombshell	48714
ĠDemon	7814
ĠSkype	25254
international	45609
andre	49078
ĠLexington	39540
Represent	40171
ĠSlack	36256
ðŁ	8582
Ġtonnes	26840
Ġmash	30407
Ġmostly	4632
here	1456
apper	11463
Ġtheater	13766
trl	14859
ĠIncreased	25944
ãģ¾	30159
Joy	41338
ĠFleming	42439
ĠASC	25400
Ġtert	48358
rican	37189
ĠAram	39026
Ð»	30143
izen	33977
oni	14651
tra	9535
ĠTennessee	11287
ĠAssass	16722
Cons	9444
ĠRip	29496
fixes	42624
Ġtrainers	28514
During	7191
Ġalcoholism	46526
Ġtame	37812
Ġpartial	13027
Ġneatly	29776
yo	8226
ritis	27398
Ġoft	28639
Ġexc	2859
Ġgroundwater	34573
Ġfrankly	17813
Ġdrilling	19747
Ġatmospheric	20938
ellectual	29706
nery	35865
Pg	31743
qi	40603
toe	44579
ĠAudit	46450
Ġtighten	31833
523	49803
Ġchased	26172
uses	2664
Ġsens	3054
sts	6448
border	20192
idan	27610
Ġ(<	38155
Ġreluct	12869
Ġplugin	13877
rag	22562
ĠSurve	28095
ĠMetroid	45430
Ġtroubles	14979
Ġtipped	28395
ruction	2762
Ġimplement	3494
Ġphosphate	46926
ĠSac	9295
Ġ140	12713
ĠMelissa	24164
moving	31462
Ġozone	37170
ĠUm	21039
Ġhabitat	20018
Ġvoiced	21346
Ġcoached	31764
ura	5330
ĠsrfN	42586
Color	10258
icit	3628
ĠRita	42605
Ġchained	40682
roud	5493
lined	10837
ĠArmour	23752
ĠFernand	26366
USD	29072
ĠVolcano	48380
Ġperformance	2854
Ġadvocates	11009
ospons	35952
Ġrankings	16905
ĠPure	17129
Ġaggrav	20072
Ġamphib	38255
Fed	42268
Ġspurious	49062
ĠGerrard	49314
Courtesy	31825
Code	10669
optional	25968
ĠWife	34188
Ġdoorway	32439
Ġbegin	2221
arth	11999
ison	1653
Ġ2008	3648
Ġcryptographic	40705
Ġdeteriorated	44525
Ġdemeanor	40309
ĠManagement	8549
akers	3979
Ġspawned	29013
Ġhovering	33627
ipher	10803
Ġslept	21256
Ġcontrasting	40737
Ġenlarge	27475
NECT	48842
Ġcongestion	28014
my	1820
ĠAlberta	15555
ĠScrolls	28859
Bird	42562
Ġexpected	2938
Ġwarehouses	43675
ĠMoons	48432
arlane	49344
Pop	16979
ĠAdds	34333
Ġcolossal	41197
Ġ1987	12923
ĠParticularly	47674
Ġ405	36966
Crunch	49384
ĠLyn	10350
ĠShutterstock	37356
Ġthief	25906
Ġemit	27588
ĠHispan	13600
Ġevacuation	24663
ĠOvers	29425
Ġsyndrome	14027
iso	26786
ĠNano	33504
Ġprevented	13351
1080	24045
Ġrepeatedly	7830
ĠKING	32957
FP	5837
Ġsucceed	6758
Ġstraw	14787
Ġsodium	21072
Ġchannels	9619
Ġencountered	12956
Researchers	25606
Ġsurreal	28201
ĠPhotoshop	29153
Ġtheat	23776
Ġhint	9254
Ġdiscs	31014
lez	36858
Ġsemin	36870
ĠCycl	28007
Ġorbits	37015
ĠTaco	40129
anova	40993
eta	17167
ĠConsumption	42158
Ġsnatch	43388
ĠTowns	40752
Ġcanoe	47434
Ġtimet	35732
ĠMetropolitan	21609
Ġstars	5788
Ġassurance	26202
Ġcommunist	20555
ĠUTC	18119
Ġignorant	20109
itic	16233
Ġdeceased	20117
JECT	23680
Ġtx	27765
Ġobscene	33390
iminary	38429
ĠPes	38434
Ġ408	41247
ĠJA	41722
ĠBooth	36389
Ġmachines	8217
uffer	13712
Ġconfronts	42650
Ġtariff	36427
')	11537
Ã°	27214
icus	24552
Ġfilmmakers	28303
Ġaudit	14984
Ġcaste	30747
Ġemotions	10825
ĠBiblical	31752
Ġairborne	32726
yan	4121
ĠCursed	29492
Ġorganise	42386
Secondly	44276
Ġhorizont	13736
ĠAlz	21535
ãĤ§	24806
Matthew	25372
Ġ........	20004
Te	6767
Ġunicorn	44986
english	39126
.?	40791
Ġfruition	41675
ritic	46015
Ġwarriors	17119
Ġspam	18084
Ġoccas	7782
Ġunl	9642
Ġconventions	21396
Ġfidelity	37744
Ġarchitectural	27070
conf	10414
ĠReduction	33396
vir	37040
ETF	22274
ĠDrug	11095
ĠHH	47138
ADS	47149
foot	5898
ĵ	241
ĠPractice	19939
________________________________	10221
Ġcleans	20658
ovich	18198
522	49542
population	39748
Ġappetite	20788
ĠHond	27040
Fax	46512
Ġreviewing	17217
Jerry	43462
ĠMusk	20119
ĠHW	44884
ðĿ	47728
orescence	48699
sat	49720
Ġtoddlers	50142
ĠFrank	5278
ĠET	12152
Ġadmin	13169
ĠPAL	40795
Ġmedian	14288
ĠWah	35893
Ġrebirth	43446
Ġimpressions	25885
Ġhorizontal	16021
ĠBat	6577
ĠMyth	18900
Ġknight	22062
Sat	20245
Ġhugely	22641
Ġspe	693
Ġtable	3084
oru	27786
Spr	38454
Ġresolves	38709
Ġnuclear	4523
Ġpropri	15159
DVD	39218
oud	2778
ML	5805
Ġadamant	36009
Scroll	29261
Ġpacking	24157
christ	43533
Ġvehemently	42327
ĠLudwig	44476
ĠDetroit	8488
Ø§Ø	34247
year	1941
Ġleaving	4305
ĠEugene	24532
ĠWeekend	30537
ĠZurich	43412
670	43798
ricting	42870
Ġutilize	17624
}	92
ĠThank	6952
clusion	4717
Ġletting	9616
Ġwidespread	10095
Ġinvites	27671
ĠVolunte	28935
Ġamph	30139
ĠMun	12107
Ġsubjective	19088
Aaron	34451
Ġadversaries	35177
ĠSaskatchewan	31346
ĠVolkswagen	32991
Ġmarches	36963
Ġglued	39783
ĠOECD	33802
ĠBreath	26988
Manchester	40744
ĠBrussels	16445
ĠReplay	23635
Ġlifeless	46443
Ġdivision	7297
ĠShakespeare	22197
Ġaptly	47166
aser	6005
Ġpedal	26667
ĠOdin	19758
Ġpsychiat	19820
Ġhasht	20267
TH	4221
ĠThrow	22481
Ġturnaround	34217
Ger	38069
Ġdiets	18977
Ġconcentrations	14587
ĠHP	6574
naire	24042
ky	2584
Ġranks	9803
Ġphen	6566
ĠBO	16494
Ġpersecut	32072
jer	44009
anan	27870
law	6270
created	25598
oleon	25637
Ġlandowners	44868
Ġtimeout	26827
fl	2704
ĠShinra	47981
Ġbadly	11234
eston	19115
Ġtransformed	14434
oster	6197
Ġshrine	29981
Ġ"$:/	32047
raw	1831
ĠHallow	15400
Ġpeninsula	28080
Ġ10000	33028
Ġspecials	38102
Ġscrib	44661
Ġhighly	4047
ĠNom	21198
Ġhobbies	45578
Ġdevelopment	2478
pen	3617
ĠFloor	22343
ĠJes	4804
ĠSuff	24974
Ġbehaviour	9172
Ġscreamed	25421
Ġopposes	28928
630	30005
Seriously	42338
atro	47756
Ġspiritual	8557
aval	9226
Ġcalories	14653
ĠSoon	15894
Ġclutching	48281
Bone	49580
ĠDuck	21867
Ġmight	1244
illas	25314
Ġkidneys	41395
PHOTOS	42709
Ġeditors	15719
quet	21108
ĠContemporary	38698
Ġaren	3588
ĠQuality	14156
ĠGovernment	5070
ĠMechdragon	35579
ĠPHI	48121
ĠSecondary	29521
Select	17563
stream	5532
Ġfootage	9640
ourn	1798
Ġsomew	4209
Spec	22882
ĠRim	29542
Ġcelebration	14395
orkshire	29918
Ġrebate	49099
ĠCob	14828
ĠLord	4453
Ġreference	4941
ct	310
ĠAcad	7116
Ġvillain	16687
urtles	25195
Ġsettling	25446
Ġprog	1172
Ġacre	31244
ĠPik	26025
ĠAvg	33455
Ġstuff	3404
ĠHundred	40531
ĠJudd	49554
ĠWarm	25692
Ġbranch	8478
emption	11221
Ġplotting	29353
ĠIndividual	18629
Ġscreenshots	23322
ĠXIII	35302
Ġcanal	29365
Ġshuffle	36273
Ġoriginate	39779
ĠKelley	34560
ÅŁ	46481
Ġarrays	26515
Ġ383	49814
Pac	18844
ĠTV	3195
our	454
nah	40909
Ġoptic	43151
bian	12210
verts	24040
Ġfeatures	3033
Chapter	14126
435	40064
utory	17957
Ġengulf	30443
Ġcompetition	5449
cycl	15539
Ġjournals	22790
pta	32283
âī	35705
Fs	42388
Ġautomatic	11353
iley	9618
VR	13024
ĠPadres	40188
ĠCON	7102
ousing	12752
Ġallow	1249
Ġunderstood	7247
Ġhelpful	7613
Ġpremature	19905
roleum	21945
Ġcomputer	3644
useum	6744
Running	28768
ĠLOVE	27889
ixture	9602
à¥	24231
mass	22208
Ġlords	33200
ĠCommander	13353
Ġlist	1351
ĠExcept	18181
Ġbeasts	21930
Ġsubstance	9136
255	13381
bows	25435
ru	622
Ġkidding	26471
yards	33750
Ġrelocated	34233
Ġmerchants	21779
ĠPatent	34830
tek	35424
flu	35522
ĠMarin	36384
ĠTours	42998
Ġunresolved	43264
ĠWalker	10120
Ġwee	43671
Ġcalculator	28260
zy	7357
Article	14906
Ġupside	17196
nz	27305
Ġinvestigating	10240
Ġmined	35959
plet	37069
ugi	45659
%%	16626
Ġrac	3444
asion	4247
achers	17892
ovies	20526
Ġdru	37215
775	34483
worst	41430
akov	44715
Ġflattened	45096
Ġtow	6094
Ġnarrator	32339
ocusing	45743
519	47785
ĠHay	9075
Ġbirth	4082
rious	32527
Adjust	39668
Ġpotatoes	18821
Ġexternal	7097
Ġwin	1592
usters	13654
164	23237
ĠAG	13077
ĠGEN	24700
Ġsponsorship	27418
Ġinvading	33827
Ġcliffs	41724
hai	44488
indal	44644
ĠSug	13691
oos	16426
ĠNobel	20715
Ġleast	1551
Ġtimes	1661
ĠPale	21706
Ġswapped	37245
Ġsprayed	35729
Ġflaming	39518
ĠInflu	46631
Maps	47010
ĠByr	24437
ĠKnox	27633
Ġsuccumb	33505
ĠCluster	38279
Normally	43625
Ġtir	48965
Ġparasitic	49238
Ġreturn	1441
Ġlockdown	47955
ominated	50251
Ġsubmitted	8948
Methods	46202
ĠDeadly	26991
Ġsolicit	25063
ĠSteam	9094
Ġvaried	15641
ĠAllen	9659
Ġevolutionary	16673
Ġfolding	29909
Ġfamilial	48376
mediately	23802
imon	20473
Ġresidential	12420
ĠSpaceX	26549
Ġ71	9166
Ġchampionships	27459
ĠBruno	31045
ĠSoda	43006
urized	44796
vt	36540
Ġnext	1306
ĠJune	2795
Ġladder	18002
*)	28104
Ġenrol	34311
Ġadmittedly	33603
Ġ1961	20510
Ġuneasy	34644
rupulous	46272
atory	2870
Ġstrains	21245
ually	935
Ġtrajectory	22942
ĠSakuya	37545
Ġcharter	17422
asty	7833
Ġcocaine	15144
ĠScholars	26381
Ġoperative	28609
Ġassigns	46974
ĠHOR	48345
Ġliable	17583
Ġhemp	28246
gorithm	42289
ĠSimpsons	34376
ĠAlzheimer	22434
gets	11407
ĠVit	18271
Ġomitted	22532
Ġenergies	27598
Ġpoisoned	29419
Ġfederally	33710
Ġseemingly	9775
Ġ314	34085
Ġpotato	21219
Ġthat	326
ĠStephan	20800
Ġsecular	14589
commun	10709
ĠSuperman	14951
ĠTy	7039
ipt	10257
ĠCord	21119
550	22730
Ign	32916
ricular	41001
ederation	9748
tenance	8219
amic	18127
Ġdogged	44443
Ġdepictions	44528
Ġget	651
ĠPrest	24158
Ġaversion	41608
ĠIchigo	44547
Ġdone	1760
typically	48126
Ġrescind	39091
Ġiodine	50047
usually	23073
Ġirritation	35164
Ġregistered	6823
Ġbon	5351
RY	18276
Ġgreatly	9257
velt	18065
ernandez	18092
Ġstrikes	8956
Gal	26552
Ġpass	1208
Ġcontracts	8592
walker	20783
ĠAbsolutely	28416
ĠSubway	38923
Ġupset	9247
Ġglyc	40232
ĠAd	1215
Ġ1928	35768
features	40890
706	35402
flight	22560
Ġintersections	42085
ĠPrepare	43426
Ġ502	47233
Ġmoms	34015
Ġcall	869
ĠSweeney	47005
ĠOffice	4452
Ġindigenous	17673
since	20777
Ġsnail	47374
Direct	13470
leness	48795
=/	33223
posium	35864
ĠPermanent	36814
ĠSites	37034
Ġcures	50019
Ġcondition	4006
spect	4443
Ġbans	20075
Whenever	28877
falls	23348
Ġ.	764
modified	41771
AMES	29559
gnu	41791
Ġ65	6135
uebl	45749
Uh	34653
Az	26903
Ġcommunicating	22889
ĠStorm	8865
ahi	32810
Ġsubter	43148
relevant	49659
Ġcentury	4289
uterte	23314
Ġmaintenance	9262
Ġparamed	34581
Ġone	530
Ġgrate	48612
ĠMultiplayer	39759
Ġscriptures	39782
ĠArabia	9671
Ġdam	1801
Statement	48682
ĠUpon	14438
ĠSydney	11852
Ġefficiently	18306
draw	19334
ĺ	246
lly	12810
ĠCompanies	24382
gam	28483
ĠMoy	28523
åŃĲ	36310
Ġill	2801
Ġhormonal	36956
Ġreconnaissance	39471
Ġdolphins	36798
Ġextrap	36804
Ġaffirmation	46365
ĠGiven	11259
Ġtranslucent	45323
048	47202
Ġcontrary	10388
ĠConan	31634
Ġnoble	15581
Ġhello	23748
Ġcushion	33579
Ġmonarchy	35184
Thor	46765
ĠBauer	41971
Ġupheaval	46907
ceivable	48054
951	50119
Ġ1968	15963
Gordon	47073
ci	979
Ġemb	4072
itty	9760
Fuck	34094
Transform	41762
ĠOpp	9385
raltar	45662
oros	40877
026	45987
Ġtreadmill	49246
ĠRail	12950
FE	15112
quez	22281
Ġfury	26206
Ġtesters	42891
rums	45241
ĠENT	47353
aspx	31740
ĠKathy	33726
Muslims	36452
Ġrecalls	16865
ĠJared	19116
ĠProject	4935
ĠSteve	6542
ĠHost	14504
ĠCircle	16291
ĠNotice	17641
Ġteaspoons	47234
beaut	40544
Ġwitty	45466
Ġresearching	24114
Gaza	48790
afia	22214
burst	31961
pose	3455
worthy	18275
CLASS	31631
Ġrepud	42405
535	44465
heimer	16288
Ġtactic	18543
Ġhistory	2106
ĠSacrament	18114
Ġobliged	23278
Ġmasse	41869
Ġparchment	38414
Ġsubsection	8371
rupal	34585
clock	15750
Ġsaturation	36275
-	12
ĠGuid	37026
ĠCase	8913
ĠMonday	3321
Ġplugins	20652
Ġundo	23981
rane	14579
Ġanyone	2687
ĠAccuracy	33222
aza	7056
Ġcollective	10098
},{"	8762
ĠPhen	34828
define	13086
ĠNorm	11220
/,	47454
ĠCreated	15622
oles	4316
Ġlam	30592
ĠBio	16024
Ġtensions	15733
Ġsturdy	28055
delete	33678
Ġderive	27099
Ġlearned	4499
History	18122
ĠLittle	7703
Ġve	1569
ĠJacques	35437
ĠSyracuse	29141
Ġel	1288
reads	40779
ĠAssociates	29306
Ġundertook	45730
ĠColeman	22687
Ġprovoked	29579
ĠAlexander	10009
ĠAchieve	29027
Ġ``	7559
Ġliv	17717
Ġconcluding	31083
ĠADA	46460
Ġcoordinated	22080
ween	975
Ġadded	2087
ĠCond	9724
Ġpodcasts	31969
Ġstroll	41360
124	17464
ĠJPMorgan	43318
IST	8808
Ġactivated	13906
uez	14870
Ġprojected	13301
Ġconscience	18346
Higher	48708
Ġmotorcycle	18757
ĠAfghan	6539
Ġremark	6919
Ġlatent	41270
ĠExtend	46228
Ġstarted	2067
security	12961
Ġsinks	38614
Ġdisapproval	40174
ĠSpaces	48086
Ġwhiff	48112
ĠDian	19326
ĠCenter	3337
ear	451
ĠBoko	40160
ĠChak	46620
Ġip	20966
ĠLux	17145
Ġwheelchair	27181
urdue	30345
Ġrelevance	23082
highest	35323
ĠBatman	9827
ply	2145
Ġfoot	2366
Ġcoordination	19877
Ġblasted	26044
Ġremembered	12086
1985	29110
Ġwakes	34267
rive	11590
Ġhastily	37205
ĠInquiry	39138
uders	48739
Ġclutch	22756
Ġstrong	1913
oid	1868
Ġvillage	7404
trans	7645
Ġmeter	16430
ĠMedicare	13771
Ġcoasts	48598
ĠNav	13244
gling	40799
.#	32535
ĠLoll	46478
ĠCary	47474
ARE	12203
Ġamong	1871
Ġcrowd	4315
Ġnil	18038
Ġyouthful	35444
umbing	28149
Ġelusive	29885
055	47838
Jon	18219
ĠHaram	33139
hib	3145
Ġmigrate	32492
648	34287
ain	391
ĠMei	42244
Ġaddicts	32510
ippery	29530
magic	32707
bear	33227
obs	8158
SI	11584
ginx	42822
ĠArc	10173
Ġracer	48233
Ġpersistence	30802
Ġdefends	33446
Ġthirst	24613
ĠDespite	7945
ĠPaulo	34410
ĠPos	18574
Ren	26764
EStreamFrame	43177
arf	37595
Ġsem	5026
Ġrecognize	7564
ĠPersons	32884
Ġintense	8157
ĠWol	27094
gp	31197
irrel	22793
Ġcreed	43514
Ġwinters	45764
ĠZack	30718
ĠCanary	50206
committee	26799
Ġcra	15671
ĠACPI	33465
idelines	7984
Rob	14350
ggy	19970
ĠRealm	23651
ĠGraph	29681
Ġadvisory	20852
Ġsimulations	27785
ĠTTL	42654
bodied	45190
ĠEqual	28701
rien	15355
idem	28913
Ġtypo	46517
ĠBrach	42229
Ġunmatched	48621
ĠSQ	49747
Ġlad	9717
ĠLaugh	47501
Ġregard	2754
ĠSomali	30886
shapeshifter	33929
""	15931
ĠWarcraft	26952
ĠSung	29802
ĠShannon	28108
ĠUniversities	42571
ĠFro	9734
Ġsocieties	14515
Ġconvertible	41637
ĠEXP	25703
Ġresistor	45032
ĠMUCH	45859
joined	46416
Ġdy	20268
III	10855
659	36445
oline	14453
vm	14761
ĠTat	29070
Ġimpunity	37610
Ġworrying	18916
Ġpackets	24624
Ġbiking	38088
ĠPassage	46169
Ġprett	46442
ĠComics	15650
journal	24891
ĠUnless	17486
BER	13246
Ġoptics	36237
ĠHerman	25028
Ġdelegation	22635
ophone	38656
found	9275
Ġrepressive	44430
imensional	16198
Ġdefinitively	41385
Ġpraises	40221
lamm	11199
oding	7656
ĠMang	27609
rider	49449
ĠIngram	44211
ĠBarkley	45408
asters	7060
Ġreliance	24126
Ġequilibrium	29163
Ġsusceptible	22084
Ġclin	5327
ĠInn	10849
Enh	35476
ĠOmaha	37053
Ġretrieving	50122
IRE	41736
é»Ĵ	44112
ĠOrange	11942
Ġpin	6757
Besides	23937
Ġquestions	2683
Ġweighted	26356
thia	31079
Ġdispute	11047
515	45969
Ġdiscrimination	8839
Ġadherence	34721
ĠPhilippine	29911
âĢĭâĢĭ	39009
35	2327
Ġplates	13375
Ġdive	15647
Ġcleaner	21723
ib	571
gang	28284
Ġelector	43191
inches	45457
Ġneeding	18139
sect	8831
++	4880
Ġinteresting	3499
oaded	22273
ivating	39438
ĠJarvis	46595
ĠXiaomi	46726
Independent	40566
Ġscattered	16830
Ġchees	27384
Ġcaveats	47155
proven	42874
L	43
Ġblur	23671
Â¯	5196
ĠMania	49755
ĠHong	9764
Ġbrave	14802
Iraq	31206
ĠMap	9347
ĠTrog	35791
idia	38513
754	41874
ĠRSA	42319
ĠUtility	34030
ĠBroadway	20617
ĠSadd	20454
ĠLauren	25672
ĠVehicle	21501
Ġambul	18907
Ġchic	47180
ĠEnvironment	9344
Ġarmor	8328
elling	9417
ĠHenderson	22016
ĠBian	41227
Ġpatients	3871
Ġprintf	30812
EMA	27630
Ġphotos	5205
ĠProc	31345
ather	1032
Ġdisappoint	6703
Ġdissent	17873
ĠSubscribe	19808
tip	22504
azo	44299
################	14468
Ġadvertised	23944
Ġgoto	43197
Ġoversight	15662
linear	29127
ĠWeir	46669
Ġfacet	39144
img	9600
itimate	30233
Ġpersonally	7620
ĠKathleen	31275
ĠMostly	33495
ĠSLI	44538
Ġexalted	46683
screen	9612
ĠSoft	8297
gradient	49607
Ġpressuring	49906
ĠDownload	10472
Ġstocks	14420
ĠCourtesy	22984
Ġwasting	24430
ĠDied	34288
ĠSW	12672
ĠDrac	35693
ä¸	10310
guard	14864
ĠEater	40366
Ġ(>	45160
ĠLeia	41212
holes	28439
Ġconserve	45075
global	20541
Psy	25918
ako	25496
Ġcorrected	19267
Ġprimed	46959
ĠPosition	23158
Ġtoys	14958
Ġtranscend	26231
pictured	28852
âĸł	29316
arius	19897
Ġ49	5125
Ġattitude	9408
Ġven	8710
ĠFigure	11291
Ġpresumed	25751
IGHT	9947
Ġchampion	8783
ĠAbs	13051
Ġ7000	50205
Ġfertilizer	37113
ĠINFORMATION	38044
ĠExplore	41401
Ġno	645
Ġwarfare	15611
ĠWish	23447
Ġcommander	11561
ĠSony	10184
Ġbreach	13694
ĠPhilly	30029
Ġmeal	9799
ĠKok	35020
Previously	36837
Ġflyer	42464
ĠRebellion	34848
Ġreleasing	13011
ĠCorvette	49105
Ġtragically	49866
ĠDEF	23449
Ġscenic	43251
ĠPixar	46706
ĠRect	48599
ĠTO	5390
ĠGamb	33330
Ġordinance	19784
stats	34242
Ġdu	7043
Ġholiest	47264
Ġdebating	31174
ĠColony	34480
Loading	19031
ĠFI	18930
ĠAnimals	25390
Ġpreaching	32037
Ġmisery	24672
ĠRubin	34599
users	18417
ffee	5853
Ġmilliseconds	38694
uct	4782
ĠAUTH	37195
Ġankles	42415
ĠSurgery	39037
Ġaccessible	9857
Ġelectrode	46203
ould	426
Ġlog	2604
ĠPaw	35553
Ġtradition	6761
Ġgo	467
Ġtrophy	16383
Ġreproduction	20728
Ġtomatoes	23972
Ġrosters	48803
Ġfo	11511
Ġlongevity	28188
92	5892
ĠPlasma	31226
Ġdenial	14425
Ġcompeted	32440
ĠMoff	41069
Ġflaws	17978
Ġsynchron	18305
ĠIbrahim	30917
alking	18998
pelling	35025
Ġindependence	10404
Ġquicker	20061
Ġrepositories	38072
LES	28378
Ġleans	39416
Ġs	264
ocked	3543
ĠLad	12862
LAN	25697
insk	35803
Ě	214
iment	3681
Ġcompliment	19370
ref	5420
ĠSurv	10954
Ġcommence	23038
ĠPriest	20876
Ġpraying	26002
uberty	34237
uctor	33029
ĠBull	8266
Ġoccupants	35242
Ġverifying	45505
ĠArmageddon	49034
Ġclerk	21120
ĠMn	36030
uries	4740
Ġank	16553
Heat	39596
ĠEssential	36294
Ġadapted	16573
inse	38521
ĠTune	42587
Ġbesie	38128
Ġstrict	7646
Ġbetting	22908
Ġlaunch	4219
marked	23505
Ju	33018
Area	30547
Ġmolded	46725
Ġdifferences	5400
Ġintegration	11812
Ġadvert	6728
ĠAgric	15407
Ġiterations	34820
Ġperpetrator	33599
Dir	35277
dx	34350
Ġdashed	37901
Ġwhopping	27833
ĠPedro	28855
Ġrecovers	46773
aram	41158
oran	31884
Ġturbine	36489
Ġfisherman	48750
Ġfabricated	33612
Ġdemonstr	4110
ĠASAP	46199
Ġrewritten	30101
Ġow	12334
Ġwrench	34561
ulia	43640
handler	30281
Ġauthorized	10435
Ġexecutable	28883
NJ	41074
Ġboosted	29657
Ġclears	37526
ossip	26710
33	2091
Ġnotoriously	29862
ibles	18764
ĠDwarf	33196
Ġpoop	40125
rief	3796
Ġprote	5915
Ġperfection	20187
Ġ4090	48908
ĠJudges	42495
Ġincons	12764
position	9150
rob	22609
sa	11400
Ġair	1633
Ġrisky	17564
Ġseller	18583
Move	21774
AFP	17449
number	17618
ĠHod	22816
market	10728
Ġvow	23268
Ġalley	23978
Ġobstruct	26520
Ġspectators	31704
Ġhaunting	36660
Ġcipher	38012
Ġactivity	3842
Ġseventeen	38741
ĠFei	39575
obj	26801
Ġdemonstrates	15687
venth	20987
Ġ$$	32382
Ġhinges	41442
ĠTile	47870
ĠJeanne	48202
Ġfluctuations	31101
xious	48392
ĠRGB	25228
Ġfrontal	30424
alogy	48909
ĠGuth	44003
ĠPKK	35176
Season	18960
ĠKy	11118
Ġformally	15832
Ġhyster	24258
ISE	24352
Ġreasoning	14607
uties	8249
ĠSoccer	15872
brown	33282
Town	38097
Ġteammate	20052
ĠNeural	47986
Ġunit	4326
Äģ	10235
billion	24540
err	8056
805	28256
Ġdismissive	49010
Ġbrazen	40033
iliation	15547
Ġseism	30518
ĠTehran	20882
uations	6055
ĠBoyd	29897
ĠChar	3178
Ġhash	12234
Ġphot	2825
Ġinquiry	12069
NOTE	16580
Ġblending	34863
rozen	42005
Face	32388
Ġspared	31348
Ġrigid	20831
inant	42483
Ġresign	10931
Ġsalt	8268
ĠTrace	34912
ĠWire	14712
connection	38659
ĠPatriots	13104
ĠVector	20650
Ġdispleasure	47313
Ġunw	7379
ĠNash	13950
ĠExcel	24134
liament	5130
::::::::	43661
Ġfrivol	43418
Calling	48593
Ġaffected	5676
gl	4743
ĠDell	23617
Ġconcessions	26739
Ġsurrounded	11191
Ġturned	2900
Ġsecuring	19732
Ġwaking	23137
tto	33955
Ġchilly	49018
ĠRic	15868
Ġcontro	1246
Forward	39746
Despite	8332
ashi	12144
ĠProm	10335
Ġlabeling	27393
ĠOregon	8819
Ġunconstitutional	20727
ĠVoy	23020
REG	31553
ĠKEY	35374
Ġconcerning	9305
acker	10735
ĠBalt	9035
Ġnamely	14811
Ġannouncements	24009
omaly	24335
454	34229
mere	34671
Ġspar	37331
HF	29567
Ġmetab	10523
Tx	46047
Ġnaming	19264
ĠHT	7154
Ġbonds	13100
lists	20713
Ġspeak	2740
aya	11729
ski	20545
Ġcompare	8996
yrinth	21324
60	1899
Ġreel	35672
ĠGreene	28132
ĠAncest	31200
Ã±	12654
School	26130
Ġrobberies	43774
070	43509
ĠGra	7037
wrap	37150
ĠDyn	39530
ĠDire	34177
ĠVenom	33284
Ġillustrating	44000
HT	6535
SL	8634
ĠGrand	5675
Ġsear	9622
ĠSanct	43990
ĠAuthors	46665
Ġdiscriminating	48212
ĠNicola	40396
Reddit	22367
Ġmistakes	10135
âĢĶâĢĶâĢĶâĢĶâĢĶâĢĶâĢĶâĢĶ	14950
qt	39568
Ġgenerals	26770
ĠSymbol	38357
Ġguys	3730
reach	16250
ophers	20856
Unix	47000
breakers	49295
ĠOpening	25522
ĠCONTROL	49833
Ġafraid	7787
telling	18072
mare	11449
ĠImaging	48656
Ġsidewalk	24058
ood	702
.<	29847
Ġbehest	49672
ĠFram	15183
Cont	4264
Ġoffense	6907
orted	9741
ĠMaur	18867
Ġvarieties	20328
Ġpursuing	15461
icidal	21488
Ġisolation	15133
Syn	29934
repeat	44754
ĠCongressman	30700
Ġyields	19299
ĠLucifer	27084
Ġbuddies	35548
Ġviolent	6590
ĠHoffman	29010
Ġcitation	27860
ĠBir	12817
Ġaftermath	16280
ĠKw	31767
å¥³	42637
Cash	35361
onics	38530
Ġterror	3246
Ġ143	24356
ÙĴ	48763
LOC	29701
ĠBearing	28834
ĠLowell	47657
Ġtangled	41431
wing	5469
ĠRom	3570
Ġintim	10683
Ġclay	21558
Ġloop	9052
ĠYah	35473
ike	522
ħĭ	26534
Ġmediation	41077
Sanders	26747
Ġ(Â£	23068
Ġgeopolitical	35493
371	38056
ĠOccasionally	40659
)).	29720
Ġespecially	2592
Ġplants	6134
Ġec	9940
Ġelectrodes	39780
oded	9043
Ġhypert	32608
exclusive	41195
Ġgul	47161
IDS	14255
HY	42598
cigarette	46040
Being	18357
issan	24112
ĠAmount	26308
Runner	49493
ĠJudiciary	22351
Ġcondem	8346
Ġmembers	1866
Ġwounding	40942
Ġabsurdity	41793
inic	47277
ĠBrittany	48773
Ġmerch	12487
Ġrede	21459
eral	1691
Ing	27682
Always	30374
Ġengage	8209
Ġeighth	16974
Ġlush	37408
idget	17484
Space	14106
Ġignited	40442
Ġpestic	20213
ĠTurner	15406
Ġ429	42313
Ġassembly	10474
ĠPB	30524
ĠJavaScript	11933
kun	28374
ocide	16207
Ġphenomenon	10733
Ġsin	7813
ĠBombs	44394
ĠEvan	21523
celona	14308
ĠAy	13709
your	14108
ĠBuzz	15753
Ġexemptions	30244
Ġgenetics	25862
jj	41098
Ġdistant	12899
ĠCuriosity	39736
Ġ................	44713
Ġconcealed	18176
multiple	48101
Ġarsenic	48884
Ġjourneys	35724
ĠIncarn	39919
mobi	43549
anga	16484
Ġcornerstone	39774
ĠAx	12176
ĠThor	13002
ĠEveryone	11075
Democratic	33939
Ġproletariat	30444
Ġpenalties	12970
llo	18798
Ġrallied	32537
ĠSurveillance	34818
ĠREALLY	36413
ĠMessiah	38216
Ġ273	38549
Ġdivergence	43366
Minimum	44046
ĠScorp	28097
kin	5116
ĠPresbyterian	44150
ĠGrac	38099
ĠSpecifications	46271
ounded	6302
rolet	33087
Ġsnap	11495
Person	15439
Ġavoids	30940
ĠHate	28334
UP	8577
493	43134
astern	6470
Ġphylogen	43422
Ġbrake	20439
ĠLastly	36778
ĠCarry	36366
Ġblackmail	32625
ĠEsper	42083
Ġ301	25643
ĠGeorgia	7859
ĠBeware	49538
ĠCaroline	29037
ĠVariant	38215
produced	32783
Ġneighbourhoods	45221
ĠEast	3687
itsch	48279
ĠPacific	8211
please	29688
ĠMLS	13981
Ġdiscontin	19936
Ġfel	10756
zan	15201
Ġgovern	1089
ĠKen	7148
Ġlump	23844
ĠPurs	34089
Field	15878
ĠLR	37491
Ġcater	20825
Ġcherished	41238
ĠInnocent	44778
Ġintroduce	10400
rongh	36670
uple	29291
Ġpaternity	50064
Ġmatchups	32033
Ġspider	19230
Judge	29511
ĠSchr	49871
Ġexh	21847
Ġcontinuity	24216
233	25429
ĠReaders	41969
acious	14209
Ġconnector	21716
Ġhaunted	26688
Ġearns	29339
awareness	47812
ĠRELEASE	46492
Double	25628
Pain	38490
far	16370
Ġomnip	40046
ĠDame	20377
ĸļå£«	33434
ĠZoro	42840
Ġspare	13952
Tokens	22906
Ġidentity	5369
chn	1349
01	486
Ġcompan	2463
Ġalgorithms	16113
IK	18694
Small	18712
Ġprogressed	28775
Ġhugging	46292
ilar	1794
rou	472
Unfortunately	13898
facts	37473
rers	27736
iflower	42642
035	44215
Ġana	44763
Ġmidday	47168
240	16102
Ġbacker	37617
Ġadren	26999
ardo	13109
ĠFla	22026
Ġinconsistencies	40467
Ġshrinking	27382
ĠPrivacy	16777
Ġanalogue	45304
Ġchanting	31138
ences	3007
ONDON	47383
network	27349
ĠDollars	45792
Ġquantitative	26610
Ġbullies	42677
ĠTerminator	41830
Ġapplicable	9723
Alex	15309
essim	30265
Ġ--------	24200
UNE	41884
ĠPastor	38256
ĠFl	1610
fact	22584
ocre	27945
ĠHenry	8616
Ġ820	48964
ĠObst	46378
Ġleague	4652
ameda	49637
Ġbanter	46420
CIA	49732
Ġdepicting	27561
Integer	46541
astical	32044
Ġstrengthened	27324
Ġdefined	5447
ĠFavor	38196
Ġported	49702
ĠLeadership	26935
Ġants	27842
ĠCurrency	20113
aunting	20706
969	38819
ART	7227
Ġrim	20254
ĠTTC	42662
ality	1483
!?	22857
Ġafar	44246
ĠWithin	12511
ilateral	14796
ples	2374
LEY	25173
ĠKoh	24754
Basic	26416
orters	3816
Ġinterval	16654
ĠNicole	25176
è£	32518
Ġleve	34002
ĠOrbit	38161
Ġblown	16318
ĠBear	14732
Ġcryst	17787
zed	8863
fol	9062
ĠHockey	17277
Ġ126	19710
Ġactivism	23034
etsk	29515
ĠCemetery	35637
Star	8248
ĠRolling	21567
950	31027
Ġnarc	16946
Ġlikeness	35674
Ġtaxp	9065
ĠUnix	33501
Rand	38918
ĠParents	28231
Ġcytok	42440
cells	46342
370	20167
Ġremember	3505
Ġhurled	43186
ĠBeaver	42746
Ġmost	749
ľ	250
ĠInitial	20768
Ġdedication	22445
Ġcoveted	34707
Ġwrecked	44770
ĠNas	22767
ĠGat	29074
Ġolive	19450
lyn	6213
Ġoccupations	23308
Ġpaed	40697
Ġstatutes	24895
Ġnegotiation	24462
ĠSuit	28871
".[	42924
rowd	3986
Ġexperiment	6306
ettlement	27331
ĠColumbia	9309
Problem	40781
ĠMind	10175
ĠWCS	45410
normal	11265
Ġplacebo	17651
Ġrelig	2789
Ġauditory	38949
BAT	47379
ĠDelete	23520
Ġfostering	44209
Nit	33772
Ġscreaming	14788
Ġaccounting	14317
Ġsuff	3027
ĠUnited	1578
ĠShot	13590
Ġelectrom	26629
ĠSlide	37651
Ġcovari	44829
Ġhowever	2158
Ġmars	48962
Ġoffline	18043
Â§	16273
Ġtrails	19196
ĠEngineers	27170
ĠRot	18481
ĠWid	24801
Ġend	886
ĠSharing	36644
419	45068
ĠSchedule	19281
rich	7527
Ġprecincts	47564
Ġprogressively	34322
Ġlazy	16931
Neil	29354
Ġjuicy	35075
Ġredacted	44740
Ġoutline	19001
gebra	29230
ĠTimothy	22283
Ġcharacterization	32799
Ġhumane	31533
idays	13842
ĠFeatured	38188
heres	19079
ĠAppro	20010
ĠBalk	29643
ĠMono	34879
led	992
ĠDisneyland	36312
ĠINTO	39319
aha	12236
Ġ367	40884
ĠBlackBerry	30845
Ġ(!	22759
rug	2143
Ġrequired	2672
Page	9876
Ġtheories	10946
cache	23870
console	41947
Ġsees	7224
Ġtell	1560
ĠHey	14690
ĠMitt	16627
Ġpermit	8749
Ġsooner	14556
ĠBrav	32780
ilipp	8908
Ġorcs	46448
kas	42749
edia	5507
ĠHTTP	14626
ĠÂ¯	49660
Ġdetected	12326
Aren	43199
pite	2595
future	37443
asio	29831
uded	19289
Ġerratic	40583
Ġmarketing	7124
Ġrack	19127
Ġdownhill	35390
Ġrendition	40570
ĠSlot	32026
Ġsquirrel	33039
Ġprotecting	10192
Ġcompeting	11780
nect	1606
Ġcorrespondent	21076
Ġcover	3002
Jonathan	30365
ĠCron	31683
Ġsetback	34116
ĠToys	35397
oll	692
reau	43611
Ġsuperior	9098
Ġling	18459
mand	22249
lang	17204
ĠED	8392
ikini	35542
Ġowners	4393
Ġoccasional	12209
isation	5612
Ġingen	27016
ĠIllinois	9486
Ġfinancially	18786
board	3526
Ġbuy	2822
Ġpresented	5545
inas	24252
Ġcarve	36717
ĠShopping	39109
ĠKurds	23880
unsigned	43375
Ġinvestig	2009
ob	672
ĠTyr	14319
ĠPetraeus	46364
iolet	19194
Ġcomma	39650
ĠJournalism	37406
Ġgoofy	44089
Ġimprovis	47833
Byte	40778
Ġagitated	41574
ICO	22707
Layer	49925
PIN	44032
Ġslipping	29612
Ġscen	4408
Ġhalt	17369
twitch	31844
Ġcurfew	49565
****************	8412
Ē	206
hesis	8497
Ġmissionaries	37458
istrates	37909
ĠFell	21710
entity	26858
Ġvalidated	31031
Ġperiodically	26034
SA	4090
released	30147
kb	32812
ĠHospital	9256
Ġcontradictions	32962
Ġstem	10717
ĠMoe	46488
ception	4516
Ġrides	17445
Ġdesp	11267
clone	21018
Â¶	26604
Ġyards	5695
Ġoverd	14904
notations	30078
Ġfocusing	10759
ĠGregg	33742
ĠDawkins	38922
esta	18059
ren	918
yeah	43669
Ġsong	3496
ĠProtesters	46574
Ġsemen	34972
Ġinfiltr	21086
ULL	9994
Keep	15597
ikawa	40398
ĠPacks	46780
gold	24267
licks	49191
Little	22253
eday	23712
ĠArsenal	13837
Tell	24446
ammed	10573
ĠAnarch	32229
Ġsmug	27590
idas	24496
Ġ325	29524
Ġenraged	37530
viol	17069
Ġtrades	17674
ates	689
ĠArgent	12335
Ġadequate	12872
Ġãĥ	14524
exe	13499
ĠSavior	32587
Ġmacros	34749
ĠMcKin	31946
Ġbands	11760
aver	8770
lass	31172
î	170
Controller	22130
Ġevaluations	34109
Ġhires	37097
Ġcontractor	17195
NetMessage	25193
better	27903
ĠRN	43112
ĠIsland	5451
ĠDifference	43795
Ġbaker	46412
âĹ¼	48366
Ġsynopsis	48830
Ġthroats	49012
ĠT	309
Ġyuan	34847
ĠBrother	8402
ĠProfession	43793
Jen	44875
osph	14222
ĠCertification	40609
erker	35779
Ġbases	12536
Ġboom	14166
ĠAla	42682
ĠVegeta	42867
ĠGeneva	20552
Ġ	220
ĠPsychological	30583
Ġlasted	15436
Ġhadn	8020
Ġmurky	39574
Arsenal	46230
Ġrookie	12302
ĠBot	18579
Ġanalogous	34657
Ġbehind	2157
rowing	11577
Ġtrad	2083
Ġtrick	6908
ãģĻ	33623
ĠZap	36079
Ġ266	37737
ĠLan	14730
Ġrightful	43133
Hub	16066
iture	8089
hole	13207
Ġunprotected	42069
432	45331
Energy	28925
plets	46916
Ġ465	49669
Ġbars	9210
rs	3808
Ġpresets	46613
artney	41709
gress	5914
ĠDee	29195
vard	10187
WW	17947
Ġunc	4591
ado	4533
endi	43109
ĠFac	13585
ĠPascal	35163
ibilities	7992
363	35447
ĠJr	7504
expression	38011
Ġfreed	13459
Ġstock	4283
esy	9259
ĠKhan	11356
ĠChamber	15840
Ġseeing	4379
ĠResistance	17363
icable	18424
Ġstrangers	18981
Ġusername	20579
ĠRobb	31384
ales	2040
WATCH	35192
ĠOS	7294
carb	35684
X	55
DER	14418
Ġdavid	21970
Ġcancellation	25395
iry	9045
Ġcave	11527
workers	22896
Ġfinanced	29768
Ġwithhold	34224
Ġperennial	39983
Ġski	19984
ĠMead	21910
Ġ1925	36864
Ġcongen	41174
Ġsettings	6460
Ġdignity	16247
ĠDusk	42553
ĠAndreas	33728
ĠGuarant	34234
olini	43232
ĠDragons	19075
flying	45928
started	46981
ĠByrd	44972
station	17529
lay	10724
Jew	23119
Ġparas	17850
Ġcentral	4318
Ġmask	9335
Ġexhibit	15866
je	18015
Ġtsun	28798
ĠDarwin	21450
ĠWriters	37732
453	36625
Ġgoddamn	43546
brain	27825
ier	959
Ġtsp	23053
ĠNeptune	26461
binding	30786
ampire	13577
ĠProtein	31702
ĠYuk	19760
VICE	27389
ĠINS	29194
iatus	34704
Ġsewing	35356
zyme	24266
Ġriff	36738
703	36809
Rot	24864
Ġapartment	7962
[...]
