만발	29287
쿠폰	10337
##배상	19481
전열	27310
그늘	9954
부닥	28545
뜬금	22870
우리말	23724
으	1495
게임즈	19974
급등	8785
당파	18447
서빙	29476
브라질	6621
가로수	14764
직제	30931
문란	22853
오스트리아	12132
풀밭	26372
대칭	23805
자위	13124
성장기	17356
자물쇠	23992
실무자	15809
시오	25048
클린턴	10305
##line	27454
##LA	21072
##직자	8404
다이어리	22702
오심	30214
사발	21944
조동	18978
##어음	26701
챙기	7853
해물	15264
무덤	8593
##납	2490
익명	12387
213	27322
온전히	13808
신청	4373
버려라	30385
Don	28309
##리포니아	10757
민물	24555
##나갈	24981
릉	1026
납품	7893
사심	29297
고기압	27406
낭자	28032
헤라	17351
인재	5368
엑스포	9948
조합장	15161
파기	17241
자칭	25437
최현	21622
직면	8730
자크	24281
을	1498
브로커	15642
팻말	26622
야쿠르트	20888
멍	1064
관은	20131
퇴직	6736
트럭	8893
입금	12793
떨림	23538
##지엄	15697
무렵	6649
카자흐스탄	19490
ㆍ박	24747
암묵	24156
발판	10812
방송인	14656
전환점	18773
[unused368]	31868
con	10190
격앙	28988
킬러	19073
##무장	17286
겁나	19175
감염자	25837
사각형	25876
34	5191
선명	9426
1925	22189
##폭탄	22946
053	19904
##enc	15698
산채	29727
Tel	26760
정관	12209
저금	26344
재미	4697
시킨다는	13858
적임자	18535
축구팀	31048
수입액	30607
입대	12119
우두머리	20734
아닐지	25673
잠식	17654
이정표	20542
1993	8487
베풀	12523
셰일가스	30308
부과	6274
쉽사리	18287
대용	13059
준위	29902
부끄럽	12930
##끈	2885
망원경	16916
근무	4886
돌아오	5999
허	1905
##욜	3042
##━	3541
협박	8882
반년	22918
한전	9490
두리	16666
삼정	29619
[unused395]	31895
붕	1180
된다는	4894
짊	1587
##──	7941
로션	15705
회화	10299
곤혹	18228
샐러리맨	27122
대한제국	25602
신체	5878
라구	11289
##뉘	3223
경감	11636
가디언	20480
##생명	11729
흥분	8054
실린	11381
기피	11748
뎌	847
##짠	2430
##TO	11216
Rep	18196
뼈아	24113
##제과	25725
##20	5267
에프	11202
영지	16660
루카	30129
넷마	19308
땐	905
고위	5925
시마	20818
War	22311
조류	10910
다구	17620
북방	12990
고사리	25249
트랙	10066
확고히	18668
머리칼	22906
마칠	19255
베개	15038
##곁	3580
##에도	6509
중앙지	19460
보살펴	24662
멍청	14475
##워스	26964
##파이어	17789
사유	5880
단체	3971
미칼	20728
##델피아	21997
잃어버렸	20508
정유라	23431
보수주의	25880
티비	9578
살아났	26930
덮친	28187
공간	4101
트림	22434
내부자	30929
사용자	15259
處	481
##힙	3310
피트	11061
어야	3823
언급	4949
통고	30674
##협	2340
##돕	2851
여배우	12058
저당	19919
임신부	27296
##보	2178
어둠	7336
코칭스태프	23264
[unused255]	31755
소탕	28161
인솔	25085
스피	6539
##킴	3077
##냠	3370
충족	7033
미신	19149
궐	628
천호	23366
57	6254
아무개	13958
기울	5197
##킨슨	26896
촘촘	17522
았었	13003
##승차	30370
홍대	10416
온갖	7306
면책	21039
일주일	28179
불러온	28857
올겨울	31011
저조	12503
비웃	12974
줄여야	19180
특별	4014
밥그릇	22625
전문	3752
상단	13870
입가	15014
들이받	25209
##원회	25549
놓	773
리디아	25734
두둑	29911
증거물	30006
산유국	29436
율곡	23618
얼어붙	13096
겨울	4738
é	102
도어	15827
역부족	17666
상시	11484
##겸	2568
갇힌	18483
구마	22924
##비엔	26832
다이얼	26593
와서	5241
복병	26100
다큐멘터리	11194
튀겨	25668
섣부른	29402
행정	4099
그렸	11276
유병	13725
외고	12870
키보드	20283
응찰	31230
[unused106]	31606
총회	6302
엔지니어링	14184
꿋	695
[unused159]	31659
##위치	12765
단다	8456
돌기	24084
시공간	24071
중소기업	4722
##59	27252
고성군	25442
와인	6612
qu	22322
역사가	19543
와도	16945
보호관	26982
한없이	14527
고현	23545
창원	5479
##룡	2664
지법	8677
맹주	27633
내려지	23772
온난화	29627
닫히	26056
명확	6118
이뻐	21690
아로	17217
차상	23824
制	261
##탓	3508
센텀	19061
에티	16201
58	6264
세무서	22280
찰리	20242
##문학	28963
에바	27911
칼	1700
강하	5533
경직	14704
##숨에	14126
유승민	11463
중순	8820
장미꽃	28333
어쨌든	6518
##꾸미	20013
사소	9759
시효	25064
진도	10545
체납자	27421
##작년	26063
류	1013
##유럽	9627
저장	6965
동대	16255
창백	18055
에워	20187
나날이	21169
부잣집	24184
##사업	9841
녹이	25255
내몰	14125
동유럽	17783
##프스키	19047
##군데	22992
꼬리표	25800
억눌	25216
네이비	29545
파멸	18124
대사	5140
그럴까요	31255
##쌈	2833
시달리	8994
##꾸러기	27829
웨딩	11925
아몬드	21616
배움	12905
사회생활	18378
##카락	9745
1912	26033
선방	19516
따지	7850
몽고	18422
앨리	31345
##뚝뚝	24077
흑인	8856
##환	2018
여전히	4594
##id	6193
##투	2310
식구	8998
앙금	26996
삼겹살	11183
애환	24188
심혈	13378
돌리	6477
비례대표제	30092
로이드	31000
협의	4465
##리그	17665
저널리스트	25465
사은품	19486
지에	30707
ㅠ	196
장미	9123
운동가	14572
멜로디	17386
위암	18166
이루	4046
시신	8630
취하	6066
침체	6218
최우수	11896
줄게	15068
질까	23653
영일	23668
냉기	25671
육안	25912
##플랜	26365
파헤치	21970
田	435
청계천	17677
##⠀⠀⠀⠀⠀⠀⠀⠀	15996
현지	4601
사저	22586
박정	6580
찜질방	26067
모빌	20064
김두	12993
이후	3719
보리	9427
은근	10666
소중히	18371
빈정	28226
까페	31101
영국	4353
##새	2273
##볶이	10515
교화	21499
인사동	23773
가공	6972
김영환	28699
##이도	11768
신안	14946
남한	8574
MR	20606
market	30128
##득이	17496
초조	13100
미술품	19272
황금빛	26142
마운틴	31446
사단	7077
##반찬	19320
##저나	19234
복장	12410
##터	2115
들으면서	15944
노벨상	18133
마리나	19872
##물	2266
요시다	25564
불러들여	30742
##sch	20367
시합	15683
트래픽	25554
녘	765
301	24910
＂	1980
빗발	22696
##선	2020
LA	9937
푸른색	25022
##간	2366
이조	25227
##첨	2268
1923	24345
가상현실	18635
이브	13422
[unused64]	31564
으니까	4925
성비	24659
아리스토	16370
치웠	21697
##족	2488
찾아갈	24775
에이즈	18318
하녀	20170
다닌	11238
보다	3632
천착	31002
남정	30721
##나도	27433
단열	27662
집중호우	25642
그룹	4063
휩싸	10405
어여	19536
##벌	2295
진취	27207
순두부	29302
땅볼	19074
제과	18289
의의	11038
바란다	6006
##엣	3464
려면	4660
스트	4870
올림	4504
합당	12827
달려갔	15028
렉스	24579
증강현실	27425
Ma	26736
나아갈	14863
Soc	14776
##추	2159
도안	24939
저력	17495
600	6550
##어졌	6028
장한	27446
모순	7872
WS	19192
전업주부	30760
##렌트	22458
부서지	21559
부문장	21991
더미	17366
뒷	874
이정재	30941
풀어	22457
유통망	22416
성질	8615
라니	7968
희한	22957
[unused354]	31854
무능	12815
박물관	5899
몸살	16883
영업	4308
다툼	10854
강압	17804
최전방	25040
산화물	31004
일생	11355
체중	9232
주역	9786
##병원	12255
찬물	16210
##넉	3295
드러낸다	17232
이용	3774
##콘서트	27560
필하	23385
##f	2009
##샤	2598
방범	20279
##쿵	3375
오토바이	12406
고마웠	24763
파고들	13681
렌지	30982
주무관	24790
##시위	28301
사립대	22589
따위	8173
이소	16667
음대	26193
사이버	7414
건국대	16274
생크림	26243
허준	27138
일어난다	14818
##먼트	11257
챔프	23799
현란	22270
기척	28879
운영비	13976
●●	29369
##반대	12158
걷	571
오케이	21949
몰랐	5885
윤회	19802
어딘가	11115
팔자	18101
채집	26299
眞	447
고주	24090
##음료	20731
폄	1858
##용	2048
발길	9316
고비	12107
##에이티브	24052
상자	7777
뒷받침	8082
남양주	11272
원효	18851
플레이스	18312
김옥	20085
코리안	19016
What	28868
빨갛	22217
##늪	3221
출연자	28198
[unused346]	31846
수분	7349
진원지	27315
전유	19050
부딪히	15429
WTI	25436
천도	17100
부르르	29423
끈질긴	22817
오승환	16057
소나기	22088
훨	1950
오두막	24435
넋	745
NY	16471
실지	22528
안위	25807
시켜서	12778
그죠	14545
##ervice	22960
IQ	30997
근력	16598
하등	31315
동쪽	9411
걸림	11219
[unused0]	31500
영변	30979
떠오른	12325
##요일	4890
지리	6959
송	1288
다뤄	14138
훈련	4484
##레이크	10418
##ley	19724
회원권	29836
리뷰	11622
공공연히	28431
전	1537
충신	27971
시간표	25325
처마	27343
시너지	8987
태평양	9270
27	4207
인지라	19538
명곡	23745
일기장	24593
山	330
으니깐	26494
우유	7282
상우	30507
나을	30679
게시판	10891
무한히	28347
제단	21004
준우	18521
복구	9511
본보기	19199
LS	12629
초심	19800
시킨	4725
꺼져	18697
재판	4503
감안	5584
ABC	19415
국세	7979
스페	8304
오피스	7415
##터스	15681
섬	1264
존폐	30706
버터	11787
섬뜩	20360
육박	10760
평촌	23437
##레기	6575
모씨	10123
격한	27902
[unused396]	31896
정성	6913
##대원	20918
##now	19187
##렇	2974
YG	21384
##찍	3088
패드	16287
더냐	20915
옷장	20977
대권	12526
[unused422]	31922
메디컬	21361
서대	21998
모모	26146
올라가	5624
초석	19085
거위	24067
지하실	24474
례	990
##홉	2854
설비	5956
단비	21470
신정	16511
권총	13818
그놈	13055
아메리카노	18511
헐	1908
차돌	27024
대관	14808
보여도	31438
마스카	29112
승무	30529
成	361
76	7115
##다툼	23507
##93	25214
동물	4801
단	812
긴장	5284
리스	10021
##축구연맹	20212
불로	17971
날아오	20408
늘릴	12773
승선	19651
##페이스	15092
##man	9811
너라	27045
혼합	9634
폭넓	10186
253	28986
##ely	22689
카트	15252
내던	18614
우도	25765
##프리카	11544
함량	13636
금천	21580
치도	27387
디아	17599
추천서	26440
따라갈	25540
입주자	13709
덩치	14015
황석	29508
동문	11124
비잔	29554
테이	5896
##까봐	21240
증시	6395
보조	5491
이야기	3758
##빵	2625
들으면	9931
켜졌	24554
햄릿	28856
##먼스	10614
흐를수록	30855
##ter	6064
Net	25499
[unused331]	31831
순종	16105
UP	22182
지게	27942
햇빛	10294
때때로	13789
헤엄	18153
##ful	24136
취약점	26255
Y	61
쿵	1742
컵라면	28174
장보	14480
연고지	31124
뚜렷이	21395
##▼	2276
빗대	24343
구한	15212
청렴	11519
95	6862
경지	11988
야단	15335
##을거리	19232
당혹감	29745
##ish	13912
돕	854
##아내	8857
##맷	3187
Instit	26263
보였으나	31197
##나라	4274
##블로	19101
팔린	20357
경화	18544
내년도	11529
##스테	11169
세단	12879
##누	2416
약품	12129
안간힘	18253
나이지리아	18739
캐논	24740
멜론	19632
##아티아	23244
이방인	17066
내홍	28983
##팔이	31286
8500	24351
##가방	25607
典	255
선보이	6722
탑재	8167
떨어져	5920
공지	13530
포탄	21420
도출	9836
##성이	11604
확장	5434
입각	11848
기네스	27327
달라이	30327
##방망이	26726
[unused421]	31921
봄철	18401
복제	10466
무리	5316
##띈	3590
[unused382]	31882
따르	3881
멈췄	16147
##화점	5101
남해안	18787
경보	11379
지키	4918
오프닝	22451
sel	24712
양지	15355
개최지	22312
공격수	11420
TK	16695
사다리	16416
운명	5942
##리케	18565
in	5011
도서관	5714
시외	20193
##ㅜ	2409
니콜라	30152
[unused469]	31969
志	352
백작	12777
개발제한구역	25117
CT	17558
총선	5425
여섯	7070
K	47
완구	23609
횡	1941
라이벌	12574
일회용	25147
##컵	3211
##8	2196
##륵	2590
되새겨	26328
드러	4077
찬란	15878
이철	16807
철조	28345
김천시	28568
피소	30444
조상	8900
Pet	22493
##집행	24025
가명	14873
튼	1814
혹독	14957
였었	26723
내저	30894
al	13532
뒤로하	31100
나이트	11944
여진	13975
선불	24430
상환	7277
사고	4022
정시	10075
##타르	11008
줬	1572
##EV	29703
니까	3942
대조표	25904
미터	8089
친근	11928
名	282
정통	8505
조각상	27016
미지수	14950
이비	25657
질린	23419
성희롱	14991
케빈	19920
권역	10753
칭기즈	25523
##들	2031
##필	2163
즐비	16966
가꿔	22975
생리학	30045
마침표	27701
반바지	26374
of	4868
동성	9261
동맥	16479
관아	27263
MBC	5633
늦출	29537
아셨	30587
공리	22557
공금	28046
연평도	17730
뺑	1207
취	1683
악착	30255
모공	14431
##밴드	18616
궁정	23305
가치	3985
델타	26403
든다고	29372
자긍심	17541
굴비	23065
MRI	23153
장교	10620
붙이	7834
용적	17686
파문	10717
##사태	16123
##부족	16766
궂	625
##가정	15209
이동국	17082
##덧	2932
후	1943
공실	24885
KCC	11781
캐나다	7066
김제	16723
증	1582
극대	7548
아수	21077
Company	31491
희석	20994
일주	16164
학생회	24597
##뚜기	18046
왕국	9231
지현	25606
오른팔	27672
드물	8992
운운	16496
##당초	24161
##스크	4832
만인	18291
혼인	10276
명예훼손	23394
경제성장	15169
결의문	26350
##냅	3412
해킹	11321
##데시	22535
구도심	22724
이어서	10367
##시다	6957
어머나	27601
##챈	2984
KG	16858
베니	30478
경주	5586
시끄러운	24658
루	1002
##추세츠	26983
문화재청	16502
부도	8790
계승	9381
묘	1087
##를	2138
분야	3993
가운데	3850
넘보	31258
사법	6150
2012	4708
後	348
반부	22786
장문	20872
엔진	6447
늑장	28662
프로그래밍	23739
케이트	24679
끝나	5510
##수수	7433
순이익	8660
꽂혀	22900
거만	24811
을지로	23901
##꽂이	29350
##서리	10130
계집애	29133
싸워	12281
방사성	17263
##찼	3079
오니	23039
모비스	14205
양용은	29408
잇따라	7912
창립	8589
VR	12718
##ue	9255
종로구	13209
조항	7196
속삭이	23666
굴욕	17245
##정지	21392
전곡	27448
ㅌ	192
시부모	27928
광주은행	25323
통해	3644
동력	6784
##기구	11181
##echn	18900
고갈	16879
반란군	30439
챌린지	15612
무라	19586
인친	16389
##렐라	19265
하룻	13662
SH	20742
시나	8094
##수수색	9902
章	460
[PAD]	0
총독	15391
밀렸	20495
이건	5370
퇴직자	22257
##포터	14056
산단	9823
문책	20804
최치	29191
암기	15257
조성	4196
며	1072
증언	8105
모나	20288
명언	27525
테크닉	20709
동선	16653
흐지부지	30772
이안	24018
도둑	9191
가려내	27887
본심	30542
교동	24436
쏙쏙	31333
볼모	30248
소외	6954
델리	28928
동아시아	9461
잠재력	10149
아도	5070
152	16446
무게	6548
개선	4076
터미	8258
대중	4672
발간	9085
책상	7961
##메이션	8739
창	1641
건당	29339
앞산	29487
여긴	11789
##너지	4125
화성	6835
※	123
객관	6359
침실	14050
약진	20241
내공	17289
매춘	20877
플렉스	26332
##도장	29071
유연	7668
끌어들	9636
ㅁ	186
황성	25926
[unused310]	31810
남구	9067
파스	12951
요일	20405
나가	4005
샤를	26747
리라	6316
일본군	11479
가야금	22053
산전	17370
에볼	21662
개소	7988
강행	8517
ph	17472
결백	29282
준다는	9618
정이	29677
는데요	4839
파스타	11050
기울일	19966
허약	19244
검단	21248
##륭	3154
신청서	12511
또래	12081
직선	10707
줘요	13598
마모	25723
후쿠시마	15224
분자	12069
고여	26927
안쪽	9266
어플	26672
크롬	22658
일삼	13971
가로	5525
물든	25489
##버릴	21992
팔상	23498
구조	3962
물살	21567
공평	12542
어루만지	26939
당뇨	8579
벌떡	14135
##뜨린	11295
황기	20656
질식	22047
으로선	18326
미국인	8824
절대로	8303
##ance	13399
그리스도인	17631
쉬웠	24589
승수	24340
##행	2375
##펼	3470
##랴	2737
##슐	3381
격렬	11501
앞당	10825
부가가치	14795
어다	19432
누진	21432
##yl	26342
에다	6413
끼친	17933
##차림	13453
태반	25399
보물	9699
사수	17111
사본	21498
집시	22397
발등	20746
신현	21052
조나	28609
특보	14258
##낱	3008
도살	27386
가옥	18227
실용주의	30366
##씻	3143
##뜬	3321
밝히	5481
##춤	2572
선박	6155
##뜨리	6424
장단점	21280
우선시	20792
가처분	13715
##㎥	3602
메드	22660
##튿	3493
드립	24445
##붕	2938
뛰어들	8444
나타난	6897
밑그림	22935
밝혀	5092
낮춰	11966
지녔	14689
##채	2327
챈	1645
독학	28047
가스공사	28310
꾸렸	26196
향해	4985
113	14468
예술품	29135
감염	6887
吉	280
KB	5907
불러일으켰	19856
기출	21216
박완	21613
##c	2046
윗사람	25605
다윈	18806
##변이	26740
연례	21844
이어주	26627
유분	25407
작업	4180
로고	11475
출루	17117
유정복	25125
간접	7166
우주	5211
마가	21547
송곳	26321
총독부	25684
진군	27397
전력	5065
##클	2583
경량	16017
감칠	22876
날린	21507
##맺	3525
어딜	15901
경찰청	7384
무의미	20514
묻힌	23390
##겨워	25577
##대왕	26909
정각	27324
암벽	21912
누워서	18901
##갈비	12799
166	17114
을사	29857
바티칸	27209
개그	9143
천황	14853
밑바탕	27314
선제	9352
검정고시	28254
아부	13383
##짬	3451
일인	24220
로맨스	12752
동아일보	9580
붉히	27277
우동	13875
정한다	22295
216	23440
성수기	16181
의리	14555
총파업	17143
##👍	2148
난사	25940
레오	11890
찹	1638
예배	9829
##떨어진	17395
따가운	28803
문주	30012
아내	4582
세상	3991
이통	25148
##레미	28562
##P	2325
초유	18775
실루	23384
왕가	26465
##태평양	18956
테일러	19438
깡통	22410
##헛	3426
펑	1849
##퐁	3173
활동비	18933
갈등	4664
다듬	11412
학습	4611
번져	21624
다네	16836
라서	6606
##빔	3388
미워	20921
원샷	30890
보여요	21263
##신호	21922
바를	25471
##택동	27933
수니	27355
곶	603
구만	13168
스페인어	25845
멜라	19937
뛰어다니	21596
특검	7596
헝가리	15515
[unused139]	31639
날짜	9384
오염	6048
##스톤	24690
##레	2189
Richard	29230
바나나	12969
갈림	21037
출근길	21383
##네시아	8193
바보	7902
보낸	5998
다빈	26356
예방	5005
##자매	30713
작전	6229
자사	8233
세속	12543
거래처	16724
낙마	18838
재의	25235
역삼동	25919
서인	14728
원주민	13140
나눠서	23381
광복절	20296
탕평	27060
붙였	11851
##그라	10896
검사장	17838
어처	17185
지목	8923
활주로	19336
상명	31225
상황	3706
외과	15588
##ma	15869
XX	26610
상당수	7477
금호산업	27851
넘버	18021
소프트웨어	7547
보행자	16005
144	15401
결국	3983
속했	28088
##ome	13617
음식	4182
쿡	1739
옷감	25830
소프트	5819
구약	16259
##화학	22563
리얼리즘	17579
을까	4018
세우	5571
흡입	13978
빨대	26772
##잠	3025
넷째	10608
사과문	26053
장래	10955
##국적	12904
선사	6662
##얹	3477
산책로	16055
인원	6182
십이월	28565
캡틴	23309
본다는	19274
대축제	28833
변증법	17885
이전	4176
줘서	10794
엘리자	15087
섞이	23496
그름	28710
익혀	14239
입비	28154
회오리	28411
포도	8035
인민	6650
점철	30681
##셈	2762
빗장	30368
속이	13860
덤	836
금산	16158
감지	8749
##학습	21468
장식	6902
해인사	29671
솜	1286
업인	30636
강동구	19647
동호	10238
Dav	21210
신곡	14418
상실	6912
빠져서	21890
극작가	26704
박연차	24551
장르	7100
해금	26168
오명	24509
도사	16042
모아서	17359
스승	7910
베스트셀러	13437
아이템	6226
어마어마	13751
안부	19266
안테나	22650
ㆍ정	14919
의경	27319
판매액	28294
집결	18208
##ati	21414
치켜들	29699
스포트라이트	27731
중론	27157
낙하	12805
다문	30877
뎅	846
문학사	17242
##대장	16328
us	26099
아이콘	14658
교향악단	21093
##혁	2551
잔잔	14860
화기	19343
##팔	2892
모란	22346
바오	19312
##메리카	25617
특임	24125
##러우	28359
받아들여졌	29716
하한	24264
후원	5758
시도	4703
산도	25693
##망이	14136
이어지	5166
헌법	5130
쓴	1365
강관	21356
사도	10119
공책	28758
이타	20932
청문	6824
금발	21459
변할	17030
##ene	17828
재야	25139
새댁	24348
무지개	16617
모나코	26431
플레이	5382
사극	16986
아첨	29853
손꼽	11399
섬세	10716
모터	8247
주물	21642
했으나	5245
##앓	3340
돌아섰	13956
##고	2088
不	1975
망막	23318
만이	25150
아미노산	20520
지켜봐야	16650
형수	18580
[unused116]	31616
추어	28169
의석수	30469
시가	8619
##쇄	2518
살아	4996
파편	17565
수모	21206
회가	22705
##피아	8165
##규	2504
번지	8610
##잡이	8274
쏟아	7159
##ex	11524
투약	22133
당한	6391
통풍	18426
GC	24123
권순	30778
먹	1059
나뭇	11155
두부	10813
마틴	14051
##64	26792
산업단지	7616
##팽	3144
무작위	21951
근교	21858
조준	22128
마주치	14568
동명	14807
##미르	19064
공짜	12113
차원	4540
생태	5258
낙하산	15275
무정부	29024
구구	23168
찔러	15457
토	1793
사마	11343
공중	7588
One	21868
##아르	19534
연안	11189
심하	7090
㎥	210
득실	20036
줍	1569
고품	13007
비만	13398
##ㆍㆍ	19290
급사	29261
피클	29591
리티	22166
오빠	5852
##ower	16254
판가름	25126
실감	10014
##98	24232
미련	13990
밝혔	3705
yum	29462
성장률	14105
불교	6457
싸울	14761
급한	12657
##텝	3386
순회	13323
##스케	22807
41	5623
켈	1721
용품	7134
##올	2245
두툼	17918
사물놀이	30180
##ravel	21442
촘	1666
버섯	10807
미니	6934
프라하	25748
##징어	11630
Cl	12220
승합차	29182
코드	7711
상대방	5965
노선	5799
시모	20597
시아	13621
성모	14386
지지	4315
구급대	29932
[unused296]	31796
뉴딜	24194
예매	12497
콜로	18611
광택	26000
한가	6853
##학규	13601
티베트	15636
회기	19638
제쳐	23685
김정남	24387
떨어뜨려	27520
##꼴	2538
검경	29682
연산	12492
##전쟁	23249
##보증기금	24286
매혹	15933
드리	4905
채찍	16772
퇴직금	14877
형부	26378
오행	26758
광주시	7388
##ues	31322
전부	5412
되살려	28385
국공	15489
선택	4025
##러	2030
반증	19542
슈타인	31107
가이	18608
[unused464]	31964
홈구장	31381
대한항공	9435
옮겨	5881
흥국생명	23411
망설	9599
허락	7852
관로	31481
고지	8112
영종도	29044
정확히	6686
未	391
관광	4066
절임	29123
애인	9757
아메	7790
날로	18012
##ra	7229
중고	8454
이효리	22476
이끌려	23132
대물림	29770
라도	4032
기형	17657
다행	5777
구동	15929
레비	25315
댕	830
불입	28595
앞세운	16659
이영	8357
[unused135]	31635
훔쳐	12908
캉	1702
강풍	21078
Time	28748
복원사업	30093
[unused240]	31740
##겠다	18395
늘어지	23947
산란	19602
박광	23051
고귀	17051
골프장	7802
1947	18329
박빙	21452
초일	30768
部	512
##이브	7467
패소	18517
##디오	4895
반한	30174
경희	11593
돌아다녔	23888
##글라스	13690
👍	1998
컨설턴트	15202
촉발	13564
갖출	18466
하향	11521
스트라이	17406
상류	11856
넘쳐나	18992
미네소타	25846
##스테이	26813
대군	17375
##own	21331
我	362
해져야	29615
구직자	14732
김옥균	31132
##사상	14569
점	1540
메르스	9050
거짓말	6855
##ris	14752
##바키아	29772
친척	10862
임기	6724
##채권	28250
탁	1762
뇌졸중	16567
드디어	7310
양산	7186
구급	14922
지쳤	28182
기댄	29607
[unused428]	31928
선보	4495
리브	25622
리커	31499
올라오	9535
시체	9386
김명	12417
##viron	29579
세척	20082
이데	8568
오랫동안	6386
프로젝	4956
화면	5995
접목	9076
##스타일	22776
집중	4154
밤잠	30254
시립	9242
##듣	3066
##ic	4368
목	1079
들어올렸	28848
##결승	17976
본능	9021
극장	6239
##펠러	23523
보석	9876
new	21275
천정	15761
[unused378]	31878
해결	4052
공단	5446
카운터	18000
의견서	24643
≪	133
물끄러미	20430
액자	18771
토양	11804
부가가치세	18866
노란	9169
마사지	10651
급물살	26118
가장자리	19193
평전	31470
출고	15139
게으름	23882
[unused26]	31526
퀘	1745
별일	25616
기러기	27403
NS	15052
아무런	5709
가산점	18328
##어리	8156
원격	13025
내각	9405
##미애	20902
베스트	7351
##맣	3471
주지	12527
지론	27384
양산시	22945
배제	6337
비행	5465
기다	4317
##제한구역	25075
싹쓸이	21679
영원	6099
지퍼	23563
아저	6805
사사	13317
국립대	18555
##ig	6037
다름없	10031
퉁	1806
자작	15168
공언	17578
RF	26048
수강료	26156
형용사	23837
스파	7165
도쿄	7095
##47	23296
스웨덴	9360
ㆍ도	16851
김대중	8288
아팠	13759
맑스	27342
매물	11341
하락세	11652
탄원	22447
항생	16517
코딩	23086
단조	17385
시경	20631
그릇	7169
우대금리	27010
무실점	16262
메워	21632
ㅂ	187
행자	20115
멩	1071
##굳	3087
통학	16010
고마워	10919
늦	798
핀잔	27905
##━━	8837
천천히	6864
106	13918
콘	1728
리가	20574
컬렉션	12633
뜩	931
시키	3820
복숭아	14654
##드라마	16460
접견	19592
깨물	18279
낸	733
프롤	17690
##뵙	3583
두리번	22564
중화	11707
BI	17222
가했	18820
##세스	24141
##듈	3399
니체	15220
##임자	14641
잡티	27085
유	1490
초안	16216
##RS	19926
체결	5186
인성	9041
옮겨졌	24096
레크리에이션	29240
바라보	4728
다원	15751
산뜻	16975
진단서	26531
박주선	28606
아쉽	7985
야망	20294
##혈증	21445
신사업	18327
##구려	23179
틀리	13535
양회	30441
람	946
신선도	31012
수역	19402
굽히	17870
전주시	24356
경도	20764
신인왕	22233
손쉬	26379
영통	23642
코끼리	13839
탤	1773
청아	30737
안이	25172
손자	10055
뺨	1208
##잔치	19922
눅	779
몰랐다	19923
호로	25506
분별	16592
넘나드	20732
다가왔	10373
##젠테이션	14298
파견	6430
청정	8808
갖추	5330
한진	8818
빨려	21099
스포	16465
줘라	29541
그만둬	31395
萬	480
차입	12557
뱃길	26314
피로감	20529
##ata	24335
규범	9129
밸런스	15713
원룸	16117
아르	5996
성	1268
##㎖	3581
[unused74]	31574
베일	16996
##젖	3063
바람직	6501
느꼈	6227
##휴일	16278
추정	5521
은어	26458
포괄	8674
나타	3765
트리플	14448
김성태	20058
란스	21378
상냥	23020
메커니즘	15147
다각도	25710
준하	19849
블러	26340
종가	13844
하단	16175
은희	27917
회부	19767
##하	2205
훼손	6787
Ⅰ	126
독차	26867
방과	11351
##IT	12005
VS	24152
권한다	19333
커버	10988
##어가	26271
라떼	15796
컨테이너선	24370
##ㅋ	2074
항의	8221
청소년기	25180
대소	20282
밀수	22299
##ttp	8399
마법사	12587
금광	29498
관객	5293
가할	19701
비워	16848
수의사	28718
##걷	3159
반향	21422
##랗	3241
##뒤	2980
법질서	31205
꺼내	6139
##im	6828
비시	17687
아름다움	8020
임대료	10135
다수당	28738
꿰	699
解	491
[unused369]	31869
黨	541
이번	3686
실루엣	23768
오존	23926
가르칠	20535
전재	25590
다자	15311
스캔	12014
슈틸리케	20301
##뀐	3109
##캠프	28697
조나단	30394
추미애	21928
④	139
기정사실	22770
마야	19984
##82	24179
새해	8244
국세청	9528
도	848
세리	18345
##씀이	29351
김규	17403
서진	18571
건너	5828
증발	20079
##질	2431
탄	1763
나머	5059
알코올	10271
##ㅏ	2060
##숭	2567
네티즌	9120
Int	23722
유학	6723
##티브	6210
여군	29717
성현	24074
붙	1181
위반	5233
백악관	9832
겨	583
하버	10622
갈기	27274
[unused371]	31871
71	6980
##쭤	3247
問	290
태어날	17652
##조	2446
스마트폰	5009
피폭	29669
일찍이	12168
內	248
캐머런	30785
쉬운	6655
저녁	4750
초과	6706
발라	8551
센터	3950
ㆍ재	23787
필리핀	8418
설거지	17987
췌장	21254
서태	18418
밖	1120
세아	19411
수도원	16550
당사국	20740
김유정	23795
속여	18463
##넌스	24883
돌려보내	24401
사회	3647
##팝	3360
셰익스피어	18089
침공	16634
##구	2251
이민	7191
반격	12727
MLB	23212
##워즈	26257
##힐	2556
호도	22381
앉혀	26991
대해서	3958
그쵸	12295
마이	6415
머릿결	27770
재범	27832
도령	30574
”	117
제대로	4239
궁궐	15610
데스	14361
초록	10467
##el	4497
##any	22058
건데	6461
##소시엄	11891
재결	24762
특수강	24976
김해	6967
두껍	19822
##효과	20244
##핵	2878
펀딩	19342
엄	1413
Th	9796
정약용	20147
판소리	15065
이데올로기	9071
##그리	12021
##ose	20027
반원	29374
타의	29809
보라	13301
아가씨	9019
방기	26757
신호탄	20045
출고가	23961
해장	19152
##ost	11963
##스윙	26493
월미	30048
IPA	30198
아메리카	9583
EL	23565
##럼	2731
벌어질	13671
재편	11767
거래량	12025
출원	14620
비약	16892
영업시간	18114
수연	20504
기리	12250
되묻	28410
어려워진	31403
생필품	18842
노장	20889
워커힐	27974
대마도	25409
지킨	16633
바꾼다	22645
무방비	25727
##주의자	9183
농도	10104
커리큘럼	20815
터	1777
희극	19813
이현	11173
Br	15502
터빈	29460
트랜	14603
멤버십	18794
구원	7278
레시피	15210
토너먼트	20849
##이즈	8616
##중독	20644
뜨겁	9469
겨루	15526
나트륨	19673
환각	24832
ARS	26659
덩샤오핑	31161
거버	23572
바닷가	12156
연구비	21149
나들목	20312
민관	15531
드럼	15235
겐	579
번뇌	28342
줄까	18936
때린	23531
##겉	3205
서신	17099
한들	20945
매복	30506
묘사	6885
굶	621
조력	17508
페놀	30404
세라	13833
KEB	20239
포착	8871
##76	24254
거침	12634
싫어하	17323
즐긴다	21589
분위기	4281
##81	24272
연암	24903
##넛	3414
전통	4289
주관	5973
티브이	24143
복사	11918
삭	1234
인위	12623
밤새	11850
최정	14703
고시원	27070
##덫	3546
김병준	31156
위증	24924
포커스	19608
동두	15354
관세청	19749
난다는	24008
方	375
진짜로	22480
시판	20083
언저리	25553
연산군	27661
친필	30569
어벤져	25069
##조림	18015
##덱	3328
통찰	11526
뒤따랐	30227
만연	15134
일화	12835
사춘	14998
임시회	17549
울진군	30950
스며들	16546
되찾	8038
##충	2419
국력	20917
##근	2169
##버스터	22050
##ree	15785
##천하	29092
지난달	4374
조화	6450
예정일	31291
##풋	3408
1977	13528
선보인다	8007
순	1297
04	10284
對	328
표준	5953
송두리	25427
소지	7750
아랑곳	16159
##ark	10488
서북	17183
空	458
##산업개발	21729
김정은	7054
아연	13830
재촉	14035
깔려	11495
김광석	23622
교수	3865
여름	4565
FTA	6334
##올라	15055
[unused461]	31961
막내	9870
>	34
무제	11885
숨통	20316
id	22673
카프카	30338
[unused83]	31583
!	5
흐트	16064
지회	12403
병살	30680
명단	7824
법정	6170
폴	1865
거슬러	13009
하소연	14575
모진	20224
습관	5759
악마	9377
맘대로	23737
보잘것없	29802
왕좌	30795
늘어난	6355
87	7725
롯데시네마	27800
상당	4169
##her	12125
좌절감	26781
재래	12844
성패	18251
려던	11031
[unused25]	31525
이정수	31348
선승	28617
법사	19223
강현	23515
공작	8141
##일레븐	23345
발탁	10603
⑤	140
특성	4803
기사	4420
바구니	18097
모기지	22029
양치	22045
김현	7586
결장	25327
발색	30535
##욤	3286
사우디아라비아	15880
조건	4423
사만	28772
준결승	18630
접어든	18862
스탠	8411
랭크	28048
맞아	18556
정연	14977
해군기지	18244
분화	13740
하체	19302
곰팡이	18285
가오	26552
천문학자	30865
수십	6106
하이테크	25258
##뉴	3065
걸터앉	26242
선발투수	19425
달리기	23517
야외	8296
우라	15082
스튜어트	25932
성동구	24482
항산	18172
배신	10004
##너무	14771
##수아비	28526
속상하	29886
윤병	31059
블로킹	23304
덜덜	28356
포기	4916
미완성	30132
즐거웠	19391
지날	14858
1938	21763
##껏	2744
매수인	27177
자회사	8694
탄탄	9110
여대	11066
##영향평가	19761
새롭	5415
##프레	13649
좌우	6709
병	1158
뾰족	15589
##멧	2910
##체	2093
모여들	15893
위령	28271
동반	5904
자화상	23008
전년	5301
놔야	26587
계신	8700
##ael	28663
272	30355
울상	25257
목화	26912
악물	21937
##서관	5073
족발	15347
봉합	20138
골퍼	12538
이바지	15554
전성	11221
알릴	15559
##산면	30952
1588	29414
##룸	3117
112	11368
자연	3941
##MCA	22677
바뀔	11805
한탄	17754
민법	14661
뛸	929
이대로	10465
##계	2418
농어촌	11029
##닛	3045
집무실	17485
밝혀내	18935
LP	20346
기어이	24258
동반성	13400
은지	9075
할인점	21494
이때	5107
##셀러	11449
씹히	27381
한정판	22027
덫	840
인내심	18146
모을	18818
연단	22594
##very	24026
출두	26852
##벚	3316
월	1479
피한	29547
##혜정	30796
혼자	4638
복종	13188
데니스	27110
늘	794
##시아	3837
동계	8391
덮	841
사상	4472
무더	9007
표	1868
##노위	27619
넓이	19779
정례	12758
음식물	10915
수진	21727
##지부	9851
볶음	10498
대리점	11874
물갈이	20774
첸	1659
선입견	18829
##난로	30211
##장치	19169
각도	11700
전선	8059
##ick	13966
통용	17675
코오롱	12724
역설	8688
광장	6110
##궐	2771
부들부들	23701
살아난	26937
연습장	18315
인색	20844
마셔야	27864
[unused350]	31850
대법	5734
품질	5550
김두관	21471
유미	27546
옥션	15583
1950	9746
밧줄	19652
##샅이	24059
구할	11375
히어로	12717
갖가지	14141
##о	2464
처용	28638
포르투갈	12549
##끼	2274
##페인	5041
상경	17999
따라오	16022
유태인	20377
##장성	27849
[unused454]	31954
륜	1015
с	109
보살피	24608
원종	25477
귀족	8171
입소	23301
욱	1470
출렁	24053
렵	986
SN	25817
##로	2200
충청남도	29890
##구리	8333
인터내셔널	13827
마주친	27873
1941	22130
##oto	21262
##CO	14494
##슬기	27598
전달	4535
##술	2072
숙이	12965
간다	6429
##깻	3523
모기	11250
##etter	29821
단축	8483
##시원	22101
하급	20228
권력자	17672
경솔	26369
대남	19659
daily	10939
##내	2369
모태	17863
하동	13413
검열	14401
건너가	15806
##계산서	30776
1968	14000
포메라니안	26054
##욕	2613
점주	20478
해안선	29031
둘러보	8632
상급자	31003
플란트	20189
##댔	2476
이서	25546
두산	6141
島	331
대충	9785
곡성	18730
계모	28612
일거리	26114
사망자	10400
常	338
##az	19316
험한	19145
꽃다발	22415
의	1503
농구	7124
소화기	18385
어긋나	14003
부여받	18999
##lic	12041
연남동	22867
섹션	19622
현대제철	14277
Win	27786
공분	28977
수줍	17519
##옵	2796
샛	1249
풍력	11883
박	1119
저주	12512
국도	14288
버금가	20426
붙인다	28122
제조업	7568
투쟁	5536
돌연	12734
쌤	1344
으니까요	10501
PER	21639
뿜	1227
##⠀	2860
바라본다	21478
말다툼	26009
236	29722
스카이	10500
종료	7317
북극	14373
##신라	27279
가로챈	27302
엄선	22497
##ab	7113
##어놓	7431
흠집	21803
수변	18186
사령부	11875
연기력	18445
원자	5597
##좌왕	25733
##irl	30276
잘사	30055
##ock	14454
현판	21811
도깨비	14549
수뇌	18167
폭풍	11298
신속히	16235
상궁	26633
##운동연합	20979
큐브	16373
준거	25789
##쾅	3480
외국어	8827
미래	4037
오케	9060
잡아당	17154
신간	21273
월요일	10132
마력	13494
##텍	2229
편지	5318
벗어났	17462
시럽	24004
기병	22293
이병	8940
서초	8543
주술	22015
교인	16380
##묶	3559
나날	12968
허벅	13065
좁히	18641
종래	16937
상향	10113
프로그램	3969
빗	1192
##다이스	24095
무진	14249
정도	3681
##스토랑	8970
봉착	20419
Pl	13696
향해서	18519
종	1558
수산	8753
치약	16487
전후	7087
취수	20666
비무장	20925
제휴	8959
제수	22119
그것	3724
편향	14408
현상학	25142
리라는	13945
##예진	27155
##바오	26929
음성	6963
레바논	21131
안테	22269
##치아	17494
[unused276]	31776
뿌	1223
용인	6623
두드러졌	21298
교도관	30208
만만	7956
엄밀히	25223
##일기	28714
##아닌	30428
사계절	17207
명성황후	30870
펼	1857
의상	8597
윤장	30291
##고속도로	12211
검증	5814
[unused434]	31934
진구	31176
비스	11688
일제히	9710
위엄	18257
딥	893
여호	16067
수녀	14139
경질	18659
##시네마	27717
룻	1008
섭외	16984
아이디어	5665
개통	7308
직계	20643
우화	23644
경찰서	6892
##휴	2198
##ove	15176
##데자	26881
갖춰져	19398
총국	27987
##현주	30015
흐느끼	30861
토기	21322
이너	21379
펀	1846
SE	20771
공관	16885
##됐	2367
성분	5768
도면	20781
리얼	7913
군량	29176
레버	22177
몰라	6168
동국제강	22240
알고	22819
立	459
##뇌	2650
가상	7024
젯	1549
##둥절	18731
베르크	29403
묘미	23556
엉뚱	10323
정가	14483
명실상부	17076
마십시오	18853
순교자	27953
이여	17464
적막	21430
교양	9869
김혜수	28976
연장전	23893
씨티	15848
의중	21482
대한상의	26475
정치	3713
##능력	25769
신민	16720
분신	19328
앤디	20633
종북	15213
##수염	22630
요직	21626
라우	19144
평택항	29295
토성	24820
시행	4338
##행위	10091
유격	13988
부조	19677
남이	27141
[unused445]	31945
아나운서	10150
##or	4020
역동	10312
신용장	20518
폐막식	30739
반전	8984
결승	6533
##걍	2963
단죄	30735
맞춤법	30810
목록	10188
선데이	28134
가려진	30257
파라다이스	24337
닭발	25322
판정	7629
똥	921
##쁠	3216
##on	3827
물거품	22558
유역	15521
##que	19958
작문	30530
전립	16744
목적지	13342
고용주	25899
박종	10486
타자	6030
「	172
땅콩	17646
##오롱	12571
NG	14885
##연맹	13558
자백	16206
##뿌	2687
휘둘	14816
벼랑	15596
보건복	12163
노홍철	31353
so	25641
법상	14637
적색	26878
수술실	30911
##뽐	3592
미성년자	19514
하임	28610
[unused136]	31636
성우	19381
운전사	16299
시크	11819
호랑이	9121
훈계	25942
포스트	7510
▷	151
모신	21962
뼈저리	30649
1920	12575
거든요	4459
뒹굴	21170
은행나무	23706
원단	11964
빔	1191
스크랩	23122
송은	30824
대유	28984
제빵	21696
##ass	10569
장밋	24065
##각각	25304
개장	8886
근데	4224
공격력	20614
종편	13042
세계유산	26301
졌으며	19624
파리	5986
310	21693
고쳐	9516
느낀다	9850
껍데기	18028
증권사	7685
##실베이	28590
법원	4772
노숙	12124
수저	18664
사회당	25452
재계	9533
관사	18824
나침	26880
원균	31026
불빛	10700
##열차	25761
머문	21344
재인	21700
주희	20062
오션	14803
요미	18249
사의	21761
foodp	20777
악수	13651
통제	5348
쓰여	10786
##도록	16818
가늠	11303
꿨	698
##화문	8873
숨긴	26595
나잇	31116
[unused93]	31593
현아	24879
얘긴	18264
생긴다	10012
초당	20523
뵈	1171
전셋	18693
##섯	2839
손쉬운	27017
이득	9452
예선	8295
무의	17795
잉크	18955
악취	12530
대응책	18850
갑작스런	16878
쐐기	19433
사귄	28336
##드름	12954
철새	15184
상가	6682
##도로	6896
피난	12609
바스	15661
무얼	18222
##학생	5097
각서	15083
묻혀	12422
어쩐지	15999
애니	7929
##문제	21602
변질	15281
고증	24935
생산직	27516
누나	7921
##ort	9044
실버	12128
무턱대	24293
는	793
##촘	3457
종류	5285
괴상	28014
프라이드	29211
여기저기	8773
황홀	16914
직	1584
바자회	29535
공	602
오라버니	30358
##키	2089
##덕	2569
제멋	20146
퉁퉁	30402
역적	25445
보여준	8848
##정리	22810
##모	2391
핑크	9470
발짝	17624
기적	8245
훈제	28867
합의서	26145
선회	19933
인회	19249
프롤레타리아	22464
Cent	19653
신다면	16475
판매장	29946
주가	4960
합쳐서	26098
스토어	10300
점유	6184
절친	17785
야야	30866
계산	5394
성관	25561
##IN	15800
홀가분	28387
##간다는	26052
당혹	13943
영혼	6569
##윌	3193
##ition	14446
사들인	22220
##댄	3103
##조사	12933
##기에	12551
Id	26541
머그	30199
재미난	28249
도현	31422
비아냥	30671
xxx	22090
국제기구	16374
판명	20084
[unused160]	31660
來	237
입수	11774
걸음	5932
가꾸	10887
황제	6281
김수현	20800
부리	7876
음직	24131
홍영	24362
청렴도	23665
레터	25740
관서	28024
kt	13722
재벌	7161
화약	19270
횡성	30912
울부	18161
##밤	2949
원칙	4767
##플레이	6296
수원	4873
할려고	19719
두고두고	24455
박윤	31052
뒤섞	15189
따듯	28636
##팸	2545
##압	2117
가요	7390
송파구	14120
외우	14191
끗	709
##르륵	22527
규명	7491
횟수	9665
딪	896
캐피	17368
##뜩	2977
발생	3888
효과	3892
##비어	23821
연우	23477
설악	26834
벡스코	24751
부드러움	24845
##＜	3017
[unused447]	31947
김창	12152
천적	29637
마구	8989
배지	23190
선착장	23816
애완	17328
고베	28138
루스벨트	26649
토요일	8414
##퉁불퉁	27500
흔	1960
불리	5039
리안	21178
대지	8639
라구요	17739
달려와	24877
전전	14550
동그란	25826
부른	11090
기숙	9674
근대	5496
225	19863
박해	13162
##ater	15919
##원	2252
흉내	12961
랠	955
예민	11028
더샵	26249
민트	23213
200	3650
특파원	23586
활주	18527
소나	17213
##out	16618
인상	4344
로드맵	14747
176	16449
오리온	12598
바꿀	8930
못한	4095
유서	13790
페미	11857
금상	18066
될까요	14765
격식	25034
[unused420]	31920
이종걸	25272
OE	9442
성조	28252
고성장	30328
치킨	7464
신부	6988
신기	6714
제약	6215
스테이크	11130
520	22808
풀무원	23908
투싼	29702
고부	11991
잘못	4389
중복	10165
아씨	27489
나눴	12186
節	462
건강	3996
여럿	13925
##방아	26481
해질	7287
보증서	28932
##습기	14639
야릇	31407
불신	9042
샐러드	9106
잉어	29427
그게	4603
집사	15638
##졸	2441
유상	12635
함축	16712
월드	4762
##▷	2846
낮추	7976
급변	13423
로스쿨	15375
안산시	17233
##균관	11701
##쵸	3091
##땠	3552
뛰	927
거인	16907
접어들	9311
##성기	23233
구워	10564
세금	5387
##키퍼	12998
읍성	26021
##ET	23503
##비용	20128
온천	10509
메디	11268
조미	18478
액화	24545
##흰	3162
천수	29948
##레스테롤	14882
렀	971
변함	10452
아야	4124
회담	4823
남북한	11943
우승컵	19729
혼잣말	22761
[unused475]	31975
##카메라	25119
하수	9463
매끄럽	20857
예사	18311
메커	15050
충실하	16963
중식	22378
##ross	25428
실연	28749
셸	1281
전라북도	30534
엑스	7354
거론	6364
회피	9760
선원	10634
달려들	13572
##훨	3441
곤충	11953
##66	21200
조작	6251
AS	12189
은총	19146
봤었	28474
산세	29724
위안	5921
분분	22885
이래서	16317
여행	4062
430	21879
good	23025
2003	5994
미니스	28896
목표	4071
리프트	22078
[unused20]	31520
이창호	27677
##다면	5209
계시	6779
빌리지	21969
긍정	5128
㎏	203
등교	17393
급하	11122
##혜영	27030
미룬	31142
곡선	10944
취록	22254
실생활	19035
##곧	3347
리원	26620
숭실대	30771
버금	18394
##엮	3420
조제	18545
인데요	7501
총경	28843
##손가락	21012
룡	1001
##정사	16300
##만두	23524
셀카	13284
돋	851
네트	5237
탄소	7618
대구대	25274
수평선	29490
##십시오	14924
악보	21965
##27	21333
패스트푸드	22017
내야수	29027
첨가	10607
헛소리	26613
줄어든다	16053
1926	23164
부동산	4461
대략	10162
얗	1404
일가	10187
으리라는	18150
뮤지션	14821
아이구	21681
쟁점	8197
명창	25860
##리필	29986
스트리밍	25490
##뿐	2782
수년	9158
젖	1544
##국제	29047
교우	29265
협동조합	10050
히딩크	19147
치사	16549
순위	5297
승마	12479
[unused242]	31742
밉	1112
떨어진다	11370
힘차	15249
망연	31199
으으	27728
정액	15525
##일	2210
디테일	14346
들	882
경시대회	30934
불릴	17459
베이	5162
물의	18003
영유	18209
##전기	16074
음식점	8565
로맨	9165
##산동	16338
호투	17727
기발	18792
異	440
톨스토이	25581
##로리	9557
자유투	30833
어울	5460
소급	20358
크림	6024
입구	7036
화백	15501
라이더	26202
위해서	3961
실질	5486
터진	13441
1896	28392
사비	21757
여겼	11469
그려지	22549
##수아	15766
혈전	24591
가르쳐야	27845
##외선	9328
빨간색	16364
내밀	8071
평생	5577
문화부	19619
##봐도	17330
사제	10705
지정	4753
##원지	14301
표절	15551
감도	20256
}	96
혹	1927
##지리아	18738
군것	31157
##뤘	3116
[unused370]	31870
던스	28470
##브리드	9333
이견	11378
로이터	19736
끌리	23652
##폭풍	17597
유산	7111
답한	22319
요	1464
##플러스	11127
시즈	18065
퍼펙트	23802
##다리기	24396
반갑	9927
모니	7168
##르기	11799
총명	24874
뽐	1219
##몄	3596
rep	25357
##사채	28374
뒤엎	24313
사무	4266
간사인	24444
자그마	18585
##뭣	3585
실시	4130
연민	17680
온스	30980
뒤쫓	20692
향서	26794
뮌헨	16581
157	14516
예술제	31084
뽑	1220
##ability	29399
자물	23199
유구	24172
혜성	19210
북측	10023
역점	13345
부시장	15470
경제	3674
수제	10650
릅	1024
늘어날	8518
MP	16127
서늘	16796
애비	22263
IN	23462
취득	6278
지주회사	13445
어수	17908
모여서	14958
브렉	18671
노래	4388
평소	5076
천방	29471
트리	6920
시그	12809
려다가	18051
시편	23378
코끝	28790
비굴	29933
월평균	15534
수당	8356
아우르	13647
악인	30583
##uc	8142
되돌아	10007
##iss	13308
아우구	23769
##폄	3499
공동	3965
[unused479]	31979
기온	8185
줄어든	7949
##델라	29906
비닐봉	27480
어두운	8872
고리	7403
깨끗이	13235
수증	23818
센티미터	19562
판교	11413
불타	13404
##쩔	3250
혀	1917
첼시	15088
##벤	2703
BW	30432
살린	14988
절충	17170
소프라노	24259
들어서	6333
이재	5912
##소매	30381
가세	11708
자립	10017
인출	14021
##종일	21649
##브리	7371
만기	7786
썰	1348
레스	15962
Cal	24324
화해	8988
마늘	8768
들여다	12513
##튼	2677
##됨	2803
이루어진다	12151
비쳤	28826
##들레	18491
프랜	9202
시공	7986
폴더	28809
찢어지	21658
빨리	4828
유체	29865
다녀간	29858
##cl	17861
쭈	1620
##g	2064
담화	12894
사르	18880
##ew	6560
뒷걸음질	26733
위법성	29997
냉장	7771
희망	4396
양대	13910
서약	19615
구주	29763
Ev	25326
휴대	5204
기대감	7450
101	10522
##클럽	12616
##ut	6449
쫌	1616
행세	19911
##ective	31223
성문	16652
前	263
이뤄진	8815
한길	26181
무엇	3890
##PG	7341
래요	16114
리틀	18023
##조선	11836
이변	18464
항우	19811
##탁	2438
특례	12037
틸	1822
##어냈	13387
선후	17202
순전히	19322
변했	10448
완만	18026
소득	4429
부딪치	14987
큰	1751
신지애	22297
로고스	28191
##파업	17048
텀	1781
여드름	14101
스폰서	13995
##사귀	28221
www	5988
질수록	18349
저온	24590
##rap	19709
상암동	27530
##진	2043
산입	30487
[unused335]	31835
젤	1548
390	24626
엔가	28158
에릭	13300
겨냥	8042
인슐린	19100
정문	11322
측	1686
co	7579
##베르	11842
산업은행	12218
선거인단	19752
액상	29014
##피	2263
납니다	18502
뜯어	30895
마른	10853
##리시	14996
49	5839
일방	6858
비애	30286
뭔지	10993
일렉트릭	30033
울컥	23923
김재철	23215
견인차	26318
스스럼	31149
기흥	21467
편한	10701
##ffee	25240
고물	21201
매월	8977
클러스터	11779
약식	14777
##프로	17287
다는데	12667
칵테일	18981
조선왕	23812
인데	3933
트로피	16340
개봉	6837
산업체	18331
FA	8891
영제	31374
각종	4424
口	274
예	1439
조던	29124
네에	29209
다시	3690
##로이드	21236
무거운	9208
달인	15739
홈	1930
시멘트	12390
영역	4777
대중교통	10905
)	13
강간	14254
받들	15747
기질	12842
이우	18847
해바라기	21456
조만	8161
##라이언스	30413
튜	1810
정승	19374
##왈	2648
종부	26259
매콤	13215
AFC	20006
문종	31189
##레인	7566
경산시	29731
담아	15112
전한다	14161
보온	16800
난쟁이	26770
JYP	29233
시나리오	8684
후광	28624
사격장	24861
살펴본다	20944
챔	1647
관리자	9670
학술지	19179
거제	10561
##명령	30220
부채	5654
아니요	15338
피	1882
시청각	31044
짱	1602
리처	13933
눈물	4998
트로이	21006
병실	14678
골동품	29900
대목	7063
달라지	8676
例	238
흉	1957
견해	6270
쭤	1622
##인트	4485
가라앉	9065
심청	24399
범퍼	28388
전략가	30422
새파	29632
금호	7770
이뤄지기	26609
출사	17295
시공사	11773
p	83
양궁	16569
특허청	26065
자초	15616
빠져나갔	20550
환대	26454
장하	25646
조형	11763
믿음	6970
##버린	16199
부속	13024
황급히	18669
단맛	17668
대공	15982
열혈	25773
미소	5658
##코스	17086
몰락	11619
늘렸	12828
뒷문	24692
자본금	14508
존경심	29684
##밍	2633
토목	14842
배	1131
my	15408
해준다	13334
어드	20936
다수	5931
냅니다	28849
매뉴얼	13336
네오	17155
편성	6201
머리카락	9750
친절	7798
할게요	15442
##슨	2234
깝	659
솟아	15969
독해	18679
귀여운	10379
위계	14663
[unused141]	31641
수만	14234
몰렸	13549
본국	17275
신드롬	23447
[unused339]	31839
음모	10796
##yp	21056
앞	1388
자막	17888
##학교	4622
아모레	15231
기량	10996
햇살	9778
각성	16391
NBC	27877
헤겔	17231
##대표	5718
초기	5100
바쁘	9094
놀라움	17709
더불	4900
성매매	12070
스트리트	18390
구월	18721
아무튼	9212
귀국	7873
장작	20050
파이낸	15824
기권	23862
종일	8516
[unused179]	31679
##바일	5210
데요	23216
226	23742
254	29530
지난번	11210
플	1880
우울	7094
접합	26138
##action	29918
경계심	26224
모니터링	10520
귀띔	16784
워즈	22342
공자	9246
깊숙이	13001
그토록	10254
제출	4962
필로	23252
계파	12251
동창회	23675
배불러	31397
노승	27929
가라	8335
몄	1075
예우	19830
취할	11560
송신	22467
파이	6440
칭	1696
흔히	6217
명맥	24262
##버스	6341
아웃도어	11597
급식비	25430
시애틀	20019
◇	154
56	6086
활발히	13821
잔치	9900
##김없이	12219
장이	16505
net	17640
시녀	25289
중개업	20317
간만에	31232
동승	27650
State	30605
##썰	3082
##릅	2779
됩	863
##둘	3056
##42	23148
##TE	7832
172	17306
아궁	31001
유기	5967
177	15413
어머님	11650
군청	14980
사라진다	16166
기승	16310
내려왔	14072
림	1032
보낼	8947
당과	12841
천혜	20995
하순	21628
매운	9662
##다닐	24498
티볼	28580
##ledge	28942
저지를	30600
에베레스트	31238
염	1433
조윤선	31290
論	498
출하	12544
여의도	7915
경로	8069
인정	4089
고심	11796
제주항공	21389
도서	8075
클럽	5993
일깨워	18236
##에이고	30743
##료품	19332
녹조	20967
바르셀로나	12731
##송이	17169
맥주	6137
280	15530
구태	16717
속셈	23237
안타까	7648
플라스틱	10221
농원	28552
집회	6126
##ited	22198
크로아티아	23320
채우	8140
실리	8064
어색	9977
##④	3233
행정관	15934
잭슨	16871
Is	22656
##딥	3443
[unused81]	31581
인가	3955
##버	2264
##ope	20425
소임	27136
앵무새	28572
아편	22271
연속	4788
부총	28084
교권	24750
빤히	23053
##않	2872
유무	13133
허상	26946
선악	24334
아수라장	31049
시보	29312
쇼트트랙	17336
##소통	10985
##플레이션	11959
하태	25977
결성	9298
신동빈	20583
테리	28002
와이번스	30663
얼룩	13389
##론	2570
한스	21215
피부	4335
한눈	9721
불문	14294
내동	31028
고등	5003
부가	8073
피할	9030
저고리	27789
대박	8183
##코	2258
성형수술	29954
왁스	30781
##징	2976
이마트	7779
잤	1525
##ix	19699
헛된	24875
정홍	28954
##보스	26900
이론가	24292
데려와	29589
연구개발	30908
어울려	13486
사이	3734
멀	1061
정유	9530
제네	11728
요렇게	11825
페리	16248
황태	15462
열람	14269
김문	12214
##웃음	16267
[unused46]	31546
해이	21124
졸	1555
얘	1405
교제	15371
BO	22275
[unused236]	31736
앞뒤	12488
부심	28034
[unused137]	31637
행운	9637
야근	18688
태아	14864
돋보이	10691
전보	15748
196	4978
암행	31475
최악	7966
CH	23747
대안	5605
장애인	13944
다케	17175
디딜	29528
활기찬	23438
톤	1795
밀양	9501
자연환경	15076
단통	31271
##와	2522
잔금	20553
단속	6566
쳐도	27550
톡톡히	13736
추구	5295
바이스	30457
러쉬	26035
남	723
보금자리	11487
전시장	13359
영양분	20810
현안	6498
##달리	21237
양식장	25014
슈퍼마켓	14463
고철	31447
스틸	10587
급감	12026
낚아	28799
##벳	2404
##한다	4538
노려	10631
열기	8327
고덕	19990
이정희	21725
끓	707
힐튼	26194
괴로워하	30455
기업	3646
[unused150]	31650
착각	9160
소식	4880
##븐	2862
ㅇ	189
몸소	19003
하와이	13261
오후	4082
진입	5745
이래	5625
##립니다	7316
아줌	9502
지영	26221
여객기	21160
최윤	23917
노심	27363
구나	5104
김보경	27959
寺	326
MBN	22112
##티콘	30512
참여연대	17303
체내	14182
##수엘라	20612
##밴	3275
오리온스	19712
논쟁	6851
전작	13939
도봉	19678
말문	16877
타선	10872
내연	29713
##ury	26873
##정보	19861
##유예	13145
사림	24248
일병	20834
##확	2698
땅	903
##닫	3354
추계	23590
분출	17952
알펜시아	27582
결심	6875
GN	28469
들이밀	30059
마드리드	14388
연천	21854
주의	4924
이국	14993
누님	20814
렬	984
제작비	15608
모건	16978
샴	1253
는다	3684
입술	7126
##들여	9171
쓸데없이	27606
살해	7877
##공항공사	18383
[unused118]	31618
😂	2000
##두리	9788
##℃	3486
北	268
광어	29439
발원	27323
탐욕	14493
파파	19555
꼽혔	14319
##거래위	13585
접근	4872
헌데	24222
게르	18945
지르	9265
러블	16056
등장인물	16320
매니저	8912
##킷	3267
금하	26636
해	1897
놀랍	10543
치르	7217
노린다	21813
ootd	24274
##꼬리	16623
레미콘	23883
고검	31384
통지서	30258
드릴까요	31392
##므	2970
텃	1783
세기	4604
토트넘	20482
철거민	25291
1969	14879
##랑카	21446
등산객	24937
뒷골목	28775
신용도	30311
특별법	9063
주현	28306
중국어	11757
선체	15980
운수	14252
진보당	25081
떨쳐	16832
깡패	20972
누웠	21313
체계	4462
숲	1305
협주곡	22634
시흥	11452
알바	14321
크라이	19239
마음씨	28644
반가워	28542
##동네	30738
상수도	16028
Sm	18273
구름	7830
장성택	23116
510	28537
식재	28424
마부	29647
##아웃	10164
가르	4731
192	7039
동갑	18644
a	68
마이스터	21026
향토	14668
올라	4088
[unused194]	31694
스러움	11292
신동엽	29104
홍어	25483
##듭니다	21785
기력	13927
선곡	27708
㎡	208
능동	11660
수성구	14326
불러일으키	13905
##ated	22079
예쁘	7693
솔선수범	24494
불모지	29571
절경	24526
##ield	26503
으음	18909
간디	17220
신시	18629
##오래	26739
만을	26661
장신구	28851
ㆍ수	20305
안드로	11877
##으니	5882
##로스	6543
본회의	10859
앞선	8401
제각각	17887
끈적	22659
언스	12185
포도주	15831
즈음	12187
##ion	7622
조형물	17227
일진	19992
솜씨	10820
고열	25620
장시	30579
실제로	4539
2	22
사	1233
入	247
간주	8175
읍니다	23175
팽팽	11350
이렇	3715
홀대	26110
지방	3870
섣불리	19807
주차	5447
었었	14024
##휠	3548
참가국	31402
손흥민	11251
범람	22183
강원도	6249
이월	16615
보편	6656
소추	25368
산모	16269
뮤지	6035
다이내믹	25699
Class	26682
주몽	26787
DMZ	14754
불출마	15662
넘길	17305
##몰래	31343
##공화국	27771
서해안	15237
통솔	29371
들러리	30191
시행착오	17415
문예	11165
관광버스	29898
제한	4640
신예	19444
버그	19658
내사	18247
금치	24723
직물	25059
중량	16225
재해	9894
##ven	18961
##발	2311
는커녕	13279
##겠	2918
대하	5081
노스	12192
##쥔	3282
매료	18879
[unused37]	31537
마루	11027
마일	12051
급식	7657
시련	12703
시험대	27568
##지부지	30770
쇠	1291
용인시	14928
투항	25383
추웠	29584
납세	21977
팀원	15104
파국	20499
어유	26394
닭	815
테스	22952
##oul	17679
##ina	18147
여념	23424
계량	18198
##스코트	29958
전향	14623
##출산	12506
##금융	14554
폐회	27331
삼진	11299
##●	3156
짙	1593
다이어	5388
뚱뚱	18226
뻔한	18607
영생	27199
Per	22936
되살아나	23976
플래	8477
[unused418]	31918
체제	4508
##국	2226
오바마	6472
폴란드	11462
어김없이	14217
제각	13726
수용	5068
비바람	24287
대별	23729
##길	2454
역주	19354
시의	25312
##는	2259
입법	6726
개입	5671
아만	25903
신봉	19247
##소문	10690
송혜교	27673
로컬	19077
빨강	22113
저당권	28364
립스틱	16960
절대	4807
올리	4705
나노	9939
‘	114
저술	12504
집행	5171
Pr	8164
1972	13618
어쩐	12985
##야	2275
주식	4313
##의자	7672
들어맞	20657
M	49
트라이	21899
##ation	5148
사슬	17505
##림동	22174
무뚝뚝	24151
오피스텔	8787
끓어	26879
비지	22592
조니	28782
本	392
1944	23315
이해력	28550
트렌드	7454
공감	5487
방폐	28734
공익	8440
디지	5422
처럼	3668
620	29936
금회	20621
##초프	31071
아쉬웠	15234
##관	2133
시리	5328
중추	14290
상업	6195
일거	18678
무혐	24021
##매	2077
호텔	4756
종자	13611
##제리	16903
LO	24678
스니	25136
북부	7641
##쯔	2904
뜨거워	19195
Science	26548
주공	13509
학부모	5653
이루어진	8613
임차인	13471
중전	19403
쌀	1339
박람	6777
##시스	8791
열망	11886
지닌다	16954
부림	17091
FBI	23626
팎	1828
##ent	5248
서울특별시	30500
사골	31431
퀘스트	29780
대결	6419
##현동	15152
투영	20022
니켈	20780
잿빛	25818
변조	26827
치료제	10842
American	19997
Che	26305
##ulture	23864
시상식	9701
탔	1768
만약	4826
FP	30976
아울렛	16208
##ye	25501
##랑스	28201
서사시	25062
김광현	17059
연평	7962
104	13724
캘리포니아주	25008
안전교육	28079
유니온	26324
mar	27669
양질	13372
투석	28864
참고서	28372
끊어진	29614
물리학자	22940
정오	17252
메	1065
뜰	934
희귀	13478
다는	3615
[unused481]	31981
떠서	21481
에스티	26508
현수막	13426
세법	16934
회유	21281
[unused289]	31789
묶인	22704
낙동강	8715
거늘	24328
무너질	21410
##냄	3335
##츠하이머	27629
##TN	17238
191	6874
정범	29825
웅성	28990
풀타임	25348
##오리	12608
알콜	26945
##흑	2503
샌	1246
부당	6475
구토	19903
##ert	12334
##촌동	22111
헤어졌	22132
오래	4517
##펜하	29581
대원	8041
이재용	12989
성북	16677
추도	21578
포옹	20957
부	1173
부작	7172
형법	15229
평온	15769
매표소	31063
시찰	21285
수색	9872
하우스	6634
거려	27047
##임	2289
##덥	3053
[unused145]	31645
브로드웨이	29262
스타일리시	19546
##엔지니어링	27150
일치	6708
유로존	14518
연출	5192
아무래도	6854
Journal	18141
##apan	25296
##라치	24087
줄	1567
페이스	6343
들려주	13320
쁜	1229
원한	14313
호스트	24769
종과	29407
기차	8268
옆집	19029
잖아	4351
노동조합	8603
숨졌	14600
수천억	23991
절벽	12180
손잡	11627
술병	26675
블루베리	20722
플레이어	12071
##십니다	16291
두터	15625
애리	19001
##프라노	23209
귀찮	9949
파프리카	26441
이상	3658
입소문	13675
당첨	8906
차관	7085
이곳	4441
기념사업	18037
연못	13386
이데아	30454
##CI	17112
##정부	11722
중증	14345
어긋난	25485
4	24
추세	5833
편안히	25900
샅	1243
[unused293]	31793
사무장	23448
넷	756
유원지	22740
장시간	13316
파스텔	27352
국영	14474
경연	11755
중수	24759
짬	1600
돌담	24872
##뛰	3194
##LS	11039
인치	9317
사우디	13713
트러블	15343
시속	10831
쏟아져	11074
유유히	29004
굴복	16108
가르친다	26336
입자	12599
피아니스트	15927
애교	18538
##쫙	3383
맛보	10723
페널	16224
국산화	21014
앤더슨	25954
윤석	12024
##얘	3367
통계청	11637
민자	12179
##ake	16060
##받	2757
위쪽	14926
피곤	8320
AB	24651
지나갈	21799
성리학	17444
수호	10333
##분석	28101
##쓴이	30652
##라이터	27214
[unused498]	31998
삐걱	25972
겸	588
World	15914
유착	15974
이호	14328
##체육회	26715
연말연시	29323
도핑	29630
능률	17475
과학고	18670
반달	23058
해역	13171
은닉	23854
허허	14225
유관	11968
정규	5556
##권자	6674
aT	29474
MMOR	26906
한용	30538
##먹	2389
##예금	16872
204	18270
두려워하	12066
##에어	20446
##맨	2763
같이	3848
그래요	6496
고령화	12909
벌거벗	25375
신형	15920
호기심	8644
톰슨	26038
포식	18336
심대	28842
어획량	28931
려니	16069
##가포르	7908
행정학	23727
##안경	30724
낸다고	30309
랍	947
여직	20365
[unused249]	31749
알파벳	23084
##십리	20853
치장	22060
And	20783
퀸	1747
흔든	31137
바치	11714
웃도	18803
이내	5511
미정	29274
##제강	21910
설계사	16676
국지	11788
반대편	16222
유가	5704
쪼	1612
공예	11919
오랑	20546
건립	5894
##지만	3683
바이올	11906
선의	16688
花	477
##오스	10765
해결책	9487
##쓴	2732
##문화재	19611
꼬리	8358
외자	20046
수화	26501
대나무	13813
사직서	30382
박보	21232
알갱이	27868
가벼워	21750
차려입	26260
비율	4657
백일	20801
뚫려	27308
맡길	17461
론스타	22671
와이어	23277
오스카	24276
주요	4132
정점	12067
[unused488]	31988
앞장서	8876
##mann	25068
재정난	27402
영해	27785
460	23588
점막	22754
이기	5576
[unused241]	31741
분배	9145
MO	9445
기암	27666
수잔	26393
렌탈	20393
인산	25467
볼거리	10421
심해	8260
실망	7334
타이거즈	21563
루프	19283
영문	10672
내줬	15154
용서	7624
궁합	19269
얻어맞	20292
##클로	25221
돌	852
막중	24119
##4	2050
못해서	17493
띄워	19181
팽이	31272
블록버스터	22310
놓쳤	18352
##th	7088
##베이션	14512
테마	6507
앉히	24338
고즈	30514
이를테면	12697
낭비	8417
바이러스	8151
무모	15835
##형제	26141
벙어리	27727
회생	11111
캔	1704
남측	13335
고질	15823
쇄	1290
##냇	3487
뺑소니	30693
##항	2421
파격	9798
이끌어냈	21548
시영	31121
14	3909
라이프	7768
방정식	22191
낯	729
어깨	5463
자율	5365
이병헌	19774
국감	11948
##지우	17310
포획	21111
응급	8376
계통	13757
신춘	23240
로저스	27659
단원	8046
기념	4663
인종	8784
[unused452]	31952
나직	23169
##걸음	8495
##레이드	6778
이색	11408
종지부	31216
앱	1394
몰아	6660
제국주의	12617
여리	31025
○	156
서적	10907
분량	9690
##✔	3472
1989	9190
골랐	20314
##난	2336
##삿	3238
##컫	3526
개척	7406
도전장	18687
오수	23839
대변	5249
원자재	11279
##eck	31399
뇌물	8154
전산	11011
찾아뵙	26686
쫄	1615
프라	8195
국가	3728
멀리서	16211
두만강	26578
챙겨	7029
##촬	2637
연해주	30470
간행	15145
상충	20373
창시자	23849
##남동	13703
학대	10241
끌려	9001
흘러나	9976
까요	28429
리사	30559
영수	12680
쌓이	11900
MIT	21926
이맘	22964
션	1277
살균	12454
젊음	14835
틈새	12915
달걀	11829
더위	11388
##슬리	14093
기교	21665
이웃집	22915
찌푸렸	26028
특가	16545
개울	19901
##19	22328
승점	9700
해져	9203
Organ	28808
##포동	18837
모로코	27490
정육	23133
크나큰	27250
진희	30756
첫해	16230
그리움	13810
화상	10948
젝	1546
캠핑	11254
바깥쪽	18639
농지	12089
##oint	21249
컨텐츠	16326
미지	9397
마찰	11342
적재	20040
안상수	17557
##바리	20427
루터	15190
##끗	2845
렙	979
불러올	23099
여당	6054
북	1174
깔끔	7436
명절	7930
Mich	28357
이해찬	19013
승부차기	26868
군부대	18443
지참	28054
상승세	7502
위생	9205
쟁탈전	30183
본체	17821
우버	24352
베어스	26198
KC	27165
울렸	13650
##pt	21760
법무법인	18621
보	1160
흡연	9753
##실험	10376
테라	15163
##evelop	20143
거부	4966
던져	8388
나쁜	6080
하물	21047
호떡	30326
합격자	11832
습도	18070
데크	23690
38	5213
할아버지	6403
벳	1152
세종	6362
악역	23713
셨잖아요	23902
허황	26989
청학	29755
젠	1547
허다	20449
빼앗겼	26450
시사점	24496
컫	1713
체증	20347
501	31316
참	1637
축소	6009
가산	10485
해석	4650
감원	28027
자산운용	13255
황새	27422
맞춘다	25787
대국	8937
분노	6111
롭	996
투척	31380
밌	1114
응답	5483
##평가	10359
##ess	6104
##ib	11392
생기	4911
몽롱	31305
이동하	22839
정작	7261
초상	11647
정치가	16980
시시	12754
석	1259
입찰	6877
이산가족	14904
실컷	18804
겁먹	27494
##회관	22040
캔디	24197
웹	1484
##비치	14088
[unused359]	31859
스프	8498
일	1507
반가웠	29837
크리스틴	30994
질타	14169
징검	25652
마리	4915
무안	12442
투자처	21735
ev	26975
먹이	8002
通	506
초토	28353
태어나	7041
세르비아	22618
반경	14769
[unused16]	31516
정당	4451
밧	1128
의무	5054
취량	24001
최상위	15870
삿포로	26651
##VE	24423
워낙	7020
판결	5253
이야	3743
##터리	6103
나이다	17081
경구	23410
그렇	3649
##꿨	3492
감소	4520
바티	21699
깜빡	17126
하이힐	28360
강재	26285
韓	533
돌봄	13635
초저	20600
안목	13239
정세균	16810
왔으나	19142
##변속기	28635
퍼스트	15447
줄일	9039
Kar	30317
##장이	27345
격투기	26191
에다가	10225
##범죄	12315
한국개발	25237
보따리	18084
사그라	24833
##게요	7187
경계	5672
피지	12407
##풍	2533
##혔	2561
86	7692
홍익	16135
한국노총	18546
닛산	17083
##eg	8230
는지요	21198
진부	19682
연비	10310
##US	21874
모빌리티	30397
##티지	13919
93	8229
굴하	31239
과거사	17681
관문	12877
능숙	17022
넥스	21950
별	1156
체코	14574
순차	13661
##상각	26546
끊	705
길가	17402
캐머	29814
롯데칠성	30233
따름	12833
강력히	12508
페인팅	29278
감세	15143
조선대	22693
미운	23711
엘	1424
어이	11683
판세	20866
빌려	7004
날렸	12807
일신	23595
##워진	15883
천막	15592
어야죠	29860
##개	2019
##글	2701
경성	13885
퍼졌	15963
##폐물	18027
디폴트	27861
노무현	6545
습니다	3617
1921	25067
수개월	20403
##획	2808
79	7593
핸드볼	21583
새빨	28863
Communication	30803
오현	31047
##봐야	9766
소홀	9089
수요자	11416
치과	11082
##냉면	24377
업장	26807
2008	4898
·	100
스스	23956
대림산업	18010
정숙	21127
##밉	3547
발랐	30521
텐	1787
비롯	4091
눈알	30842
##잉	2230
』	175
므	1105
이방	12537
장남	13466
오동	20822
자니	13202
전북	6275
드라이빙	25248
##성어	28926
상해	10289
##중간	22227
간만	25024
자아낸다	26565
여포	30938
참배	15788
장황	28678
[unused417]	31917
얼른	8718
##작전	27026
사변	23936
##말라	13454
다룬	8423
##라이	4893
아모	12669
빠져나왔	28007
㎝	206
sn	30169
가다듬	16086
녕	764
솔직히	7946
로미	29200
체력	7230
잔다	25887
생활고	27863
저작권법	30339
밴	1133
갈매기	20963
연약	19671
백과	22674
형체	21514
후배	7132
메릴	22379
이경	10816
때	904
반짝이	14579
키친	20758
걸릴	10145
상원	10450
마음껏	11170
##터면	27636
##절미	26793
생활상	29223
윤택	30820
##켓	2928
피카	18029
휴양지	19770
알려	3922
용도	8382
퇴거	30014
구심점	23613
가속기	27129
권하	12832
##마차	18492
쓰	1363
좋	1560
찬스	15131
정남	29794
##아보	15792
테크놀로지	17333
꼭대기	15250
##양	2221
인조	11510
베드	15328
국비	9037
##rav	18429
사천	21739
[unused460]	31960
빼앗기	17273
##화원	29741
##if	9066
불능	19435
1915	28664
맞섰	17893
홀딩	13418
연극	5909
使	236
해태	19575
아이오	21089
김연경	28141
카를로스	25840
라이브	10439
는지	3754
광활	23205
조영	13640
라스베이거스	21636
고속철	19707
우익수	26925
트레이너	22511
##습	2219
천연	6707
정정	13157
##㎜	3569
전해져	21505
##렌토	31081
○○○	18537
적조	28569
PC	6380
짖	1592
유세	9812
##ve	6375
전제	6034
주사	8409
내정자	11481
격돌	19475
버무	22423
끊기	19759
바래	21920
신고자	26188
갑오	30217
##데자네이	26889
##그램	3948
작자	18615
MICE	30073
대출금	16708
일족	29058
밝혀진	17746
싱가포르	7926
담긴	6926
경위	9668
##아찌	26795
원시	11397
인정받	6157
펴냄	22771
##답	2723
월마트	26822
정운찬	22530
닐	804
##갓집	28574
마쓰	20196
대포	12423
몸체	27722
배서	28925
태안군	31203
연예인	7638
꿋꿋	22879
##께요	23881
##잖아요	20754
열등감	27934
##값	3046
선거전	21508
app	23356
##관계	8812
다쳐	24854
화순	15437
##이면	24094
모셨	19102
쉐보레	21490
터키	8506
노약자	27407
##눈	2253
가결	15404
봇물	22930
방어	6152
또렷	17065
포크	13508
신경질	20341
신천	22721
이만	10152
오색	23383
대변인	5979
민노총	23551
뱅킹	16132
절제	11588
나주시	31032
집안	5720
##자니아	31103
간절	8915
신영	12952
##혈	2023
한잔	10897
빠질	11212
발신	21612
귓	632
##갚	3382
##은	2073
##싶	2585
애용	21747
##사원	31043
善	291
지시	5317
하트	11411
상학	21441
따른다	15441
줄거리	15735
멸시	25947
##40	9888
##학생회	24531
한정	6594
금은	30664
##와이	12213
##ec	5781
당당	7412
세네	26785
##워크	5344
대항	8721
120	7018
목포시	31441
모형	9322
der	16859
자조	24989
혼합형	29633
무비	20148
다문화	15692
動	265
유럽연합	11971
떠오르	6949
스페셜	10306
두꺼	11121
통신망	13977
거듭	5540
재추진	27506
픽	1883
최초	4418
너비	23439
예절	16757
박람회	7071
만무	27191
간암	21741
독식	21610
실용	8127
230	14413
그랜트	30625
셔틀	17104
##드기	22734
셀러	27007
##디션	7332
동정	10883
백발	25000
방제	20166
종족	13014
태극	8689
얻어	19326
꾸준	5160
검출	11112
국민체육진흥	28711
내쉬	11541
##놀림	21493
가르시아	27640
##피자	29718
[unused260]	31760
남부	6904
##부절	26972
사오	28543
지도부	7016
가져와	17852
상계	22393
구글	7116
의료비	14836
서운	13614
Law	25745
206	21732
##층	2624
조선족	17992
#	7
요령	11624
나일	26189
그네	23512
손승	29398
오스트	10350
규모	3849
여중	15964
화학	5046
쏠쏠	22218
가출	17018
포유	23686
##듬	2908
송혜	27212
640	27291
소음	7516
GA	30647
36	5002
문자	5703
웰빙	13393
떠났	7528
##닿	2992
경향	5363
전형	4995
St	6552
마	1036
정설	25102
분양	4516
넘치	7206
찰스	14340
뚝배기	29165
체구	22456
No	14097
설날	17637
씨발	23349
특별회계	29892
느	791
연어	11346
##이너	5557
서프라이즈	28412
어린아이	11098
##웨	2620
생김	18523
고자	4359
턱없이	15137
듣	881
침착	12050
야곱	30659
칼빈	27062
물론	3843
긴박	20416
쏟아진다	29654
쏜	1356
惡	356
예예예	20911
어려	3878
석굴	25914
샤이니	29085
일류	14800
기대	3869
96	7785
레전드	21443
컵	1716
원광	30287
나타났	4432
탓	1767
As	17421
##박	2042
환멸	27541
##굿	2673
##퍼드	13292
통감	21960
겸임	22229
검찰	4153
##ork	8728
부관	31033
우후	25980
레퍼토리	25599
에게	3608
##문예	25253
대백	29574
세탁기	12257
모의	9731
피츠버그	20378
소하	31031
수리비	26604
대형	4477
##쉐	3174
서울특별	29319
취해야	20264
사탕	15044
수력	18049
데카르트	23106
은밀히	25058
식음료	26509
베어	15024
병신	26784
까마귀	19010
##ring	28255
명복	29379
만남	6291
붙잡	7305
캐서린	27257
죄다	21860
산골	16901
淸	419
##킬	2764
옥죄	29237
따라갔	25834
관할	9318
학연	24063
현인	30765
##쿼	3505
정돈	15767
휙	1953
##상정	21540
후진국	24210
격정	27304
김관진	29525
회의소	11974
연합군	17047
벌어졌	8342
조국	8227
임차	9344
가위	15304
이은	14188
라파	20356
속력	25496
릿	1034
데려가	14517
##낡	3567
따져	8723
고무줄	29792
강수	12068
괴로운	20450
bl	16470
토론	4793
##ents	22188
미관	22526
즐겁	7455
조목조목	26238
풀려	12229
부엌	10546
관계	3654
뒤바	18504
목포	9312
초중	20823
비자	10009
105	11837
경축	24573
##네마	13991
##eph	25225
Red	29778
##규직	6966
신성	8755
이자	5617
레인	11626
당권	15113
오븐	18301
가로등	18550
짱짱	29422
##here	30502
히틀러	13405
##뿌리	16294
다카	15467
올린다	14037
##LED	12247
부동층	31227
러블리	25054
들통	27375
중	1570
월세	9576
##게트	27184
주소지	25245
결코	5231
한다든가	28380
풍광	18407
준비	3864
전광	15868
빨라	9560
have	25009
퍼부	15074
1983	11699
카카오톡	12970
비축	17988
등록증	22947
김주성	24696
범한	26630
한동	30329
부설	18384
탈레	22986
규탄	13170
세부	7350
로스	8138
불길	11244
더욱더	12966
빛내	26326
써니	24200
아악	24479
왕후	15620
스포츠토토	18887
NASA	24656
##멀	2149
않	1380
[unused292]	31792
##ret	30563
문건	9086
1930	11717
빨래	12412
빅토르	25640
##플렉스	12188
픽션	27057
마카	15409
해상도	25515
원수	11489
고군	22350
거절	7236
총체	11059
이슬람교	26383
든다	6759
파손	14147
팔로우	14903
위기감	16282
##파이	11822
출범	5788
##카운	28043
##act	16023
##주택	12636
용법	31214
궁	624
##관위	10528
재조	20879
칭기	22265
입력	9489
##EC	10990
##사이	12421
쌈	1340
인공지능	9128
1963	15363
검문	23365
든	880
대위	13278
##꺼	2679
이인	10415
강구	11313
알림	17669
지구대	22811
대만	6527
甲	437
강의	5432
사퇴	6336
회전	8168
동학	14802
뒤졌	22675
##스턴트	23100
불합	24560
##피스	5917
720	24524
매니아	29484
완벽히	21766
외교	4770
으셨	9185
팍팍	19329
노릴	26819
선보여	13521
싫어	13932
Commun	19949
후원자	17650
同	281
에스	5493
부족	4245
참조	6998
##든	2778
복귀	6236
걸으며	22525
속마음	20287
선후배	19227
일으킨	9140
불사	14279
최성	17152
방법론	17770
시험지	28092
퍼터	30168
스튜디오	9238
까다로운	14775
특활	29850
광범위	9774
동남아	8625
트윗	16401
청년회	30083
손잡이	15490
야성	29533
##가리	10809
##우드	7262
des	16679
필기	16521
운전대	27189
취업	4819
레버쿠젠	31210
##지방	16311
아낌없이	21830
창녀	24048
도로변	25310
##계리	29729
##연대	11020
탄원서	27249
틴트	25805
통치자	19680
팔월	27239
빴	1200
심야	14767
누락	15648
박사	5155
##뺀	3301
듭니다	11815
리치	15253
대면	14956
신다	11323
홀	1929
하이퍼	23273
학도	23079
##솥	3263
매매	6002
미움	18932
어민	15096
주범	14893
함경	23911
용산	7947
경무	30818
사절단	20708
직능	29313
숨겨	8524
한번	6791
##다고	4683
##운서	10138
근거	4952
송영	15199
민망	16118
되살아	23137
더한다	23751
극성	24613
교의	25637
계룡	19089
음란물	25013
##일치	18103
장거리	11585
##듯	2471
기종	16015
##시마	9658
메이트	26010
극치	25992
##어먹	11951
눈높이	12427
효모	28962
망가진	30888
반죽	16530
후속	8830
##베르트	20054
충원	17142
젠틀	29889
댁	824
기울인	27836
##뭐	3005
스물	10514
격파	20896
니시	31115
[unused227]	31727
##디푸스	27227
총출	23461
199	3895
전초	27626
##빌	2548
준설	19769
보고회	17024
도중	7882
모스	20762
휘둘리	27735
##더스	11017
##ution	16803
##ough	24899
품평	27738
[unused412]	31912
아우성	22999
가진다	12676
가인	23834
비대칭	21742
내역	10140
난방	12449
반항	13890
빙	1193
교섭단체	20258
상영관	23111
공부	4244
진중	22559
##더기	15977
[unused196]	31696
단장	6738
훤히	21549
##쏠	3404
##나연	26856
재밌	7478
직행	20710
피서	20322
의정부	9046
몹시	8875
외교부	9548
기일	13625
다이아몬드	12725
무개	23699
자산	4463
##팅	2413
찻	1639
##돗	3488
놀라울	24162
풍년	24385
재수	10970
his	27725
##므로	4566
공터	22863
보건복지부	12484
어서	3709
물려받	15115
챌	1646
##프	2515
연유	17132
[unused287]	31787
##문화회관	24535
매달리	15193
분기점	19263
앙코르	24891
도망가	15002
이즈	19636
고액	12813
놀라	5061
거	568
웨스턴	27370
품종	13031
내셔널	14476
급히	10815
마왕	24300
연합뉴스	26973
161	16956
서민층	31461
할로	25061
ㅤ	199
이사장	6212
벽	1154
도다	19788
화소	20197
누군지	16427
##미디어	14789
공교육	14405
탑승객	28244
##넘기	16076
성남시	11147
학자금	16965
imp	27692
마약	8926
뱅	1137
##ating	24047
감내	20202
준다	4478
으려면	9694
=	33
휴가	6493
탐색	10746
산적	18666
기에	5871
서울	3671
무릅	17064
번뜩	27437
유권	29243
던데	8263
##샵	3284
비명	10158
103	13250
사뭇	15465
##ale	18481
피카소	21773
##min	26289
##셜	2704
성추행	12221
수감	12762
프랑스어	19182
대낮	20841
더디	20907
신가	30107
##다오	19399
광양제철	25894
나와야	15157
암울	20623
루이스	12236
##절	2373
결정	3794
무리수	30165
고마움	15874
로움	11434
숨소리	21403
선보일	10678
온다면	27580
성욕	21618
Con	9336
티아라	29077
인간	3804
나옴	23823
들여	5055
안철수	6577
미친다	14049
AK	22432
[unused105]	31605
불자	30646
재수생	30149
연장	5219
음원	11594
부양책	19785
##연	2156
다만	4575
실에	24416
##3	2195
##텀	3189
잠	1522
이승	5955
후각	27258
킷	1759
##데오	28330
들렸	9596
박쥐	25077
치워	19574
해수욕장	11615
후라이	31466
##각색	22023
옷깃	29952
통화	5071
평형	15528
슬그머니	19280
재우	27008
휘둥	28422
##장사	30437
허전	21097
ET	10413
##2	2302
승부수	19522
낸다	8737
들린	24724
이도	29193
얽히	25747
슴	1321
이코노미	31237
침대	6849
대학생	6120
유심	30250
하얀	7720
수습	9141
col	29536
##뒷	2915
##지책	31480
통	1799
르네상스	13606
전쟁터	16631
대운하	31456
이삭	24665
##기	2015
남대	14930
아브라함	22296
닮	816
호르몬	9653
무자	14544
느니라	20501
##오르	5667
잔재	22756
##타자	23426
부동산업	30417
##삽	2756
살롱	21497
정두	23131
지하철역	22742
옆방	29668
프라이데이	31104
유소년	19230
##㎏	3597
상쾌	15740
대치동	19190
스냅	21733
웃돈	21458
Am	23861
슬럼프	22816
한식	11320
발췌	25729
[unused217]	31717
킹	1760
도운	25702
벤처	6522
결산	11394
동인	14260
그림책	18388
추락	8494
수반	12104
##녁	3235
전화기	14876
세무사	28597
오르내리	18282
윤동	21728
지켜봐	24719
장터	11586
가까울	28837
어스	13788
양방	20383
멍한	28923
##친다	6240
##딩	2500
라기	9279
##옵션	28279
SW	12604
벙	1146
##헨티나	11184
시리얼	30331
대방	30924
1978	12606
바벨	26646
히스테리	27563
캐리	17835
악명	23292
호호	19360
장전	26220
알린다	30686
[unused459]	31959
하품	27224
대학가	21321
치매	8724
##ress	16304
부럽	14551
임마	26432
##똑	3013
받아들여	7302
전도사	19599
ins	29650
발주	8232
오른	4696
묻	1092
불쾌감	25901
##그러들	28588
전권	23289
오송	21444
##62	26406
대체	4761
고소득	16165
[unused306]	31806
됐	858
##산리	30531
45	4984
돌려보냈	29916
둡	869
떠올라	18865
江	413
승자	12438
##깨비	13159
You	20545
##ther	23193
유례없	27791
리콜	13685
헤어지	14023
##샬	3431
##타이	11618
##르트르	22597
거렸	22545
시무	23632
##떻	2888
피셔	26707
해밀	29019
메라	29256
[unused170]	31670
##삼	2443
할인율	28155
골잡이	28904
##ara	30667
알제리	21187
외환은행	14715
195	6012
자형	20965
돌진	19201
분담	9546
들깨	29915
man	18911
기압	28556
1986	10318
도랑	29515
##인구	22138
창의	6346
떨어진	5769
반문	12558
내다보	11182
일간지	14659
인더스	27226
옴	1449
대여	10394
민지	23146
##두고	24355
이북	21123
빗자루	31094
무심코	19787
##소사	30383
인천	4068
자동	3968
신창	26846
운반	11047
서식지	21902
으신	9081
키트	19037
부드러워	21853
반정부	21896
구멍	7645
미시	14989
오찬	15445
##부인과	17715
이씨	25558
명인	19212
하층	23242
라이터	23789
가느다란	25381
모자라	11686
잔고	25504
760	28916
흥행	8380
종주	21019
대원군	22565
스	1316
##같	2246
뭉	1096
제로	10331
회한	31184
##임수	20828
석고	25472
불거졌	20052
곤두세우	21539
후보자	12149
따라잡	15856
判	258
서슴없이	30215
둔치	26090
[unused268]	31768
연면적	14533
감출	26466
랴오	30620
60	4343
발톱	20996
##앙	2167
##의지	22623
페르	9625
골칫	25927
표시	5354
과감히	14385
##96	24046
께선	25332
건드리	15820
ㅅ	188
냥	742
비중	4946
승승장구	18754
르	1019
프리킥	26860
복면	17712
##깝	3361
점령	9013
상장지수	28149
마신	10899
##ral	27419
쿤	1740
학교	3741
플로리	16424
단오	27807
이긴	15810
진보	5359
파렴치	29747
충실	7222
해독	14089
콤	1730
기록	3809
소정	18355
학관	25928
어설프	31289
태권도	20048
조건부	19221
##겹	3319
임성	24460
제청	21905
작곡가	11472
203	16421
##삶	3150
조종	9054
신조	11444
파면	25154
후학	30676
두터운	19440
범위	5371
변동	6156
##김치	15622
노란색	15839
연개소문	31215
친선	19934
화이트	7482
##만	2154
팔렸	15059
k	78
작심	25230
승무원	13256
품격	12661
신승	26485
[unused391]	31891
소홀히	13515
재원	8103
99	6515
151	15752
브뤼	25066
##컬	3019
판	1829
대다수	8199
말끔히	22205
##돌	2324
옥중	29833
##천면	31492
카테고리	17748
메카	13631
급부상	17580
Mus	26592
된다	3622
1956	17916
타우	28571
1995	7394
##탄불	22840
##쿠젠	30471
이범	16998
어느새	8939
손톱	13128
최면	21045
연고	11995
##스틱	12510
튀어나왔	28551
[unused181]	31681
인스턴트	23182
간병	19273
[unused487]	31987
산지	11562
##자리	4189
사로잡힌	27724
重	515
作	235
경마	13513
뷔페	15741
##둘기	16715
찾아간	18334
175	15048
싱싱	14503
아침	4408
느라	6078
승화	16500
##타리	11231
[unused374]	31874
##포도	27241
매진	10072
듬뿍	13314
미아	18304
레즈	23541
체고	25925
ㅈ	190
##꼽	2592
태수	25831
ad	15299
묻어나	23210
저촉	30160
박남	29387
WTO	16103
거제시	26507
##e	2007
내구	18011
벌어지	6699
적립금	19065
국외	11782
저출산	13248
축제	4727
배분	9513
회비	22591
TP	14253
아래	4402
시학	30565
정봉	26212
점검	5304
설레	12105
추행	22402
객체	19162
##잇	2636
##용지	24846
##뻗	3405
##테이	25724
고인	9068
웨슬리	31194
ㆍ여	19859
뉴욕	5372
물으면	23953
피처	27223
놀려	29839
맥도날드	19865
그이	23030
바우처	28685
양귀	28827
기술자	12889
존	1554
즉각	7395
ELS	14324
양악	20551
##공단	13118
터뜨린	24373
시프트	30696
필드	11025
릴레이	15978
바이어	11922
냉소	17486
허리띠	24729
헤어	7917
명쾌	18749
유신	11258
시연	14104
관직	14884
치료비	18014
최수	25105
표류	16777
철탑	28123
김혜	13281
된다면	6499
아반떼	20704
어떤가	15682
섬진	19883
천일	21489
플래그	22430
1954	19011
적외선	29706
그윽	24484
공업	8513
폴크스	23968
위장전입	28791
뜸	935
오디오	14584
에볼라	27665
야지	12491
끼우	27761
당귀	25821
오성	20955
##ipp	30177
반일	29236
득표율	19297
혼신	21376
레베	30750
노출	6208
왜군	22608
[unused5]	31505
꼈	675
험	1909
부끄	7274
팠	1834
[unused158]	31658
장난감	10464
전철	9682
계층	5901
##대표제	29392
프레	6704
원주	7216
е	104
델	845
생후	18277
[unused413]	31913
감	548
빠져나가	11598
##ystem	14720
기판	24648
나진	29909
$	8
아수라	24043
특징	4816
원더	17609
주창	18875
구석	8083
열대야	29098
우회	10532
##a	2011
물어볼	22171
##12	19613
팔달	26685
##TC	17239
##으면서	19292
겨드	24110
끽	713
만취	25337
##EZ	28091
객원	29998
이쁘	13854
##행정	21002
미군	6014
혈세	19598
안내서	28131
괴롭혔	25593
산다는	15657
지지부진	17416
활자	18836
충칭	24550
신세계	7387
굴	619
특질	27617
모은다	15458
##ule	30480
##지마	27841
안양	7870
아크	14005
##왼	2581
학사	12763
침수	14660
갈래	13420
##지원	17138
은상	29808
로또	18503
미술사	25521
돌려주	13522
##차곡	23089
다투	10822
대졸	14974
녹차	12131
##맥상	24449
돌출	17136
##운다	10591
옥	1444
교관	27126
힌	1970
수용자	13189
소세지	31293
이뤄지는	12106
려구요	28787
##접	2469
이승우	28692
과학	4038
토요타	25388
차관보	21810
뤼	1012
무늬	11291
대놓고	22516
식은땀	26952
독	849
주권	10356
ㅋ	191
담겼	16102
염기	21698
좋아해	26746
복원	6922
참새	24633
추돌	26904
페퍼	27663
김재원	31318
1951	20368
불어넣	11162
다섯째	17221
인자	10117
검색어	16865
FR	20971
HP	21165
##ux	30290
漢	420
변호	4737
여행사	12293
파출소	18077
유스	21003
##모닉	26190
뚜	922
클래스	10051
빈곤	8986
전문지	20326
##객	2609
바쳤	20899
튜닝	25525
니즘	28784
연쇄	12653
내려갈	20302
선량	19177
내려다보	12301
##땡	3268
평의회	29354
비난	5508
그리스	5001
항거	24865
작위	22419
동떨어진	23135
길러	10929
리턴	23684
수락	16418
기도	5827
선우	17608
제니	17830
라든가	11325
아보	19645
삼청동	29293
[unused442]	31942
졌으나	29459
Thom	24984
록펠러	30835
##스트	3791
할리우드	11979
인수위	16888
홍합	26474
이슬람	7814
그리스인	26957
뮤지컬	6679
So	30985
으론	9840
삼성엔지니어링	31495
캐릭터	5690
광복	10195
뚜렷	6899
벤츠	11629
놀래	30460
예수	5558
듀오	19150
②	137
##심장	18520
대비	4112
차린	22004
특권	10868
만료	12664
단순히	6044
걸스	29646
오히	4309
인분	13951
이희	15814
##태	2260
퍼시	12594
##춰	2780
우먼	22201
비둘기	17504
비관	12834
##슬림	15392
허망	21185
##으리	21575
건축물	9233
도처	21736
평신	28120
그럽	30100
아줌마	9531
아래층	23522
##박사	27797
광산업	30591
먹였	31211
슬러	27844
##ann	15728
로얄	23006
고충	15362
통념	20625
##매기	17782
Fr	19668
초미	18195
하루	4051
천만	5489
젠장	21195
천재	8600
그간	7644
팽창	13463
스타트업	10581
회의록	19931
##견	2606
안진	30449
발성	30648
미연	22176
해운업	21635
피치	19220
으셔	17644
##동물	27589
##누리	19870
총액	10888
핵연료	23112
ㆍ의	28270
조합원	7235
브뤼셀	30094
폴리	8894
국판	26165
##나갔	14886
앉	1379
NHK	24705
돌아와서	17801
장소	4938
아디	22340
##자원	10638
귓가	26029
아마도	6871
파인	12098
너그	20571
바꿔야	13845
[unused465]	31965
밀치	31280
추장	30594
강가	19080
공사	4079
차일	27793
수원시	10403
차명	14707
볼까요	13982
낚시	10290
양주	10469
유공자	14335
일본인	7743
윤기	15939
다뤘	19117
건넸	13608
밀어내	15891
응수	24906
장인	9277
안팎	6956
도우	9953
야죠	31355
피부색	28512
생각나	10408
은데	4712
빠져들	16889
가감	27784
you	13089
성시	25694
시어머니	13218
화	1933
EU	7504
변방	19587
쓴다고	27857
종시	7083
福	454
국내	3739
완수	17787
중시	7803
감기	8864
정아	30503
##마켓	13319
내전	14640
##릴라	15289
싸인	23373
이른	5115
오미	18330
##uk	20744
川	332
핀란드	13901
의류	8149
기특	26306
둘러앉	27058
웅웅	28705
둘	867
상작	22019
Comm	23368
손맛	25663
가이드라인	12313
살인자	28085
내외	8795
다원주의	29983
##o	2036
##러워서	25964
텐데	5843
AD	13965
스튜어	19044
##쏟	3244
도저히	8422
명문	8738
##그래	12803
청바지	15838
중남	15089
신탁	9464
##때	2775
모티브	15372
교	614
##겼	2484
북항	23889
못하	3818
##오	2168
흐뭇	16798
천둥	19315
노동청	25971
##잖아	9958
에스컬레이터	30797
其	254
주교	14296
##꾸	2660
dieter	27961
외야	16369
민주	3772
마이어	26768
기말고사	28256
[unused205]	31705
해설	8555
잔혹	16430
강력	4817
페어	11036
[unused129]	31629
자회	20824
엔딩	17211
마치	4372
사격	8953
##end	10269
POP	25269
##더위	30665
##is	4641
여장	24636
커쇼	30886
포천	14240
아레나	20539
프로듀서	16110
연합	4637
만두	11817
동급	19097
휴양	9828
부사장	7573
##총장	7382
오렌지	11150
세례	13213
##폴리스	22324
KIS	27587
조광조	29229
칩	1694
정용	19898
안기	22187
PP	14937
조련	28975
생물	6416
&	10
미성년	16908
양현종	20184
##벌리	21678
유엔	6125
집약	14994
##수술	29534
##거주	31068
자분	24587
##딜	3169
☞	160
온다는	20188
유니폼	11300
직종	15266
러	964
남겨진	23735
224	28528
노후	6929
광주비엔날레	27872
현행법	17010
올인원	30731
물레	27954
진영	7092
업계	4382
우빈	22600
옵티	25199
##폴리	30921
날개	8339
카터	20604
청주시	21462
먼지	7801
쟁반	24980
부역	25517
조처	13619
우스갯	29431
무궁화	18674
안무가	29457
풍경	6372
알프스	20922
리서	10447
송강호	29355
여겨졌	16526
##췄	3501
노이	26650
이빨	16381
##두부	23669
마친	7210
##몰	2549
씩씩	27570
구겨	23331
##정사실	22769
신호등	22200
##서니	20690
폐사	22404
書	384
끄덕이	14371
권오	17184
볼넷	11671
죄인	13861
힘겹	16438
선지	18637
##CD	7242
시킨다	7346
측정	6124
맞물	10344
나카	18568
선두	6658
송도	8501
##뢰	2848
꼿	681
글쎄	8911
[unused455]	31955
베토벤	17087
라며	3830
｣	1995
##제이	15881
뭐	1097
늘려	8691
어딘지	19837
깨진	21377
가끔	6238
갤럭시	7275
##ind	13263
멜로	14955
짜장면	21786
##뉜	3589
강정	10204
사무처	22282
괴물	10163
것	575
조그	9059
날아가	11433
##낮	3264
대꾸	13245
몰린	15486
무식	18863
당대	10282
##🤣	2791
곶감	24795
스무디	29345
편익	16018
신경전	16425
장학생	20993
들렀	16913
용수	18602
##바위	20461
빈	1189
중독자	20203
기관차	29286
리아	14357
설상가상	26544
유림	27013
초록색	19786
나온다는	21791
체급	30442
스터	11947
여운	15987
매회	28164
의존도	15440
##ll	10211
##cle	21840
멀티미디어	16585
차체	15754
##저가	23499
발표회	14293
흉악	26555
마당	6481
불러일으킨	30853
여태껏	27338
자유	3936
익히	9754
1922	24798
알맹이	27759
대법관	10535
2300	21829
와의	14646
심해질	30867
부딪혔	25634
수상자	9752
매트리스	20852
겉모습	24159
어떨까	9012
##ㅠ	2095
##서비스	28930
아낙	20404
피츠	15902
농협	6470
다스리	12019
조선업	15018
채웠	16940
상회	13576
##uty	24170
랑	950
##봅	3324
신춘문예	25635
찌푸	12991
##꺼풀	17130
##밸리	17226
좋아	5723
등식	31251
##단체	7631
포브스	28585
2004	5764
얘기	3880
광저우	14647
커리어	17858
##NG	9029
새	1244
남쪽	7831
절실	8027
강철	16026
라식	28753
##시브	25809
뷰	1183
샤오	19298
##ur	4704
##올리	26914
양념장	24038
수행	4636
삶	1237
그대	6834
맞먹	20090
##브	2645
대지진	15861
##읊	3561
먼저	4019
구미	6821
어정	26167
낙폭	26976
##S	2238
카자	17982
스치	16795
타인	7122
라야	19610
룸	1006
스필	29253
근면	24848
전동차	23294
엔트리	15994
봉중근	29551
##RT	19662
부담없이	27810
ㆍ지	24433
윤상	16167
148	16700
고래	10559
신촌	14917
콧	1732
##iz	9579
천주교	11606
나물	15003
백두대간	23141
자넨	27395
윤지	24864
##ham	29358
축사	13483
인해서	15899
양평군	24943
성진	29075
##쥬	3094
요컨대	15607
광우병	19507
도입	4334
##퓰리즘	17651
go	11970
##옌	3027
배심원	20236
내려서	20114
합해	20702
질책	16589
##닉	2955
불행	7284
아스널	21865
[unused184]	31684
김경	8205
건	570
돌린다	26734
수갑	26805
끙끙	29069
디렉터	22651
##퀘	3021
레이건	21719
광명	9020
끼치	11390
냉동실	30632
변증	16090
무언계	30027
만세	12415
##uth	25254
폐기물	9604
##짱	3192
##핑	2192
열악	9644
추신	11135
하도	9055
다정	12346
터미널	8458
UN	10850
협상	4700
접촉	6559
토이	23068
##ures	28288
이미	3768
공법	13455
정수장	19591
유감	9663
##ondon	17277
체불	18950
자취	12274
맛난	22334
쌓았	17037
##충제	20413
하승	24806
##ac	5490
살펴	4613
##라는	23548
특공대	26572
삭발	27745
입당	16506
조모	29053
살아오	22231
헤쳐	16719
아이즈	30242
##뱉	3579
갈대	17362
베네수엘라	20790
##IB	29582
별다른	8581
동구	7522
달아올랐	30148
부러워	17792
구전	26252
꾸몄	20389
피자	8395
##바겐	14497
인피	20133
주자	6788
가방	6840
난처	19313
잡힐	23019
방관	20457
##팡이	12311
지녀	24603
잡스	15373
롯데카드	26097
알츠하이머	27657
지방대	28744
날아갔	21393
의성	15211
물꼬	19825
재건	6968
뒀	872
탄산	14666
경시	20325
슭	1320
헤딩	21095
환관	28573
요동	12333
##옹	2831
##하마	18396
실래요	30175
선동	11662
##잿	3503
##━━━━━━━━	20376
우등	30774
인절미	30115
후진타오	22603
##자동차	31217
네	752
하회	21307
수세	21044
한방	9587
선물	4514
##감	2434
##과	2145
##넬	2829
##54	25986
##경기	10470
태안	13560
감독	3871
덤벼	21152
[unused411]	31911
청	1657
##가요	18119
##ital	18139
##용차	8257
깜찍	25179
장직	30414
줄이	5273
어휘	11414
유방	9556
느껴져	24472
노른자	26653
몸매	10266
##총	2859
##erson	17660
발동	14749
어설픈	24627
명태	22828
접했	22009
길드	19633
Fri	27925
깍	654
순박	28947
[unused478]	31978
정세	8929
이듬	9866
국보	16580
볼리	23871
예뻤	25982
합니까	12085
숯	1303
옐로우	29221
모양	4616
한성	16024
비누	13450
##벅	3092
NO	18168
69	7089
모양새	11429
예시	18369
성곽	22364
아카데미	9101
대감	18622
어떻	3761
리	1028
팔	1830
유엔군	30091
대본	12183
##16	21768
켓	1722
나부	26119
일직	29617
흑	1959
맞히	21599
이용해	26208
은행장	12142
2400	20060
크리	10869
놀리	17845
유대교	22655
##시코	7781
##≪	3177
관한	4293
##굵	3218
과외	15580
방위	9096
time	25808
구조대	30551
공원	4599
비슷	4574
희생	5541
용납	12518
over	30942
서로	4084
한자어	30483
##IE	18577
박삼	30722
요기	17103
self	15367
크레이	24145
보국	27586
지도층	23226
최형우	21342
##in	3898
춥	1677
헬기	11055
씌워	24664
##＝	3438
로지	20890
퍼지	10441
서원	11360
무르	17148
과수원	25251
##읍	2058
독단	20266
으로	3603
지극히	10949
클린	8014
방류	18712
여주인공	18104
할라	29046
♥	163
##igh	20452
##ko	27411
강아지	8522
버거	11439
포스	7806
＞	1990
##중국	17886
렘	978
카메라	5677
단골	11316
꿈꾼	25417
부안	22902
Americ	16125
##식당	28487
손짓	16863
송광	28686
침상	29342
##orge	29603
맛	1045
경신	13498
수비진	29753
고품격	23697
##시	2067
타오르	19492
진아	29284
꺼	665
티몬	31005
유성구	24057
공문서	28382
항로	13075
##마르	14963
개명	25133
매체	5775
퇴행	16157
##눈썹	20235
비대위	11565
[unused204]	31704
##현	2056
리터	14524
개혁	4413
중도금	18563
유대감	29982
논란	4496
요통	31285
전방	9839
##홀	2827
수비	6061
셔	1276
케어	7575
##빗	2978
전일	12123
상속세	19844
역자	26244
피웠	21156
##긍긍	26039
유별	26959
담벼락	28216
El	23714
뒤로	26303
##른다	4280
##ial	9083
패럴	21094
화고	20029
더해	15957
제공	3894
우방	20895
##노미	24625
흐른	16793
파벌	25794
한편	3995
옐	1441
장비	5424
절차	4745
깃발	12683
UAE	14966
256	22774
조지아	27159
항상	4744
평판	15378
최소	4764
우두	15357
용지	7855
To	27878
1984	11044
시어	10062
스티븐	13246
분당	8145
##라마	19045
##oll	9631
타결	11803
##각	2215
로직스	23474
포레스트	30917
꽂	683
줄줄	10780
난징	29546
##뜸	3217
##동안	4157
##L	2237
합한	24103
##석	2055
스무	10791
걸작	19777
전사자	28328
높	772
고지서	30910
원화	9765
신화	6089
고참	23574
조사	3742
배양	15008
연발	25273
칼륨	31117
##마토	9789
오롯	22866
주정	18968
##찬	2166
보사	25261
시야	10489
내게는	18729
영어	4612
백지	10694
거북	10845
세탁	7842
도록	3675
##자기	4569
파우	11994
로드리	28242
여러	3789
##ren	26317
##체인	18255
호환	24461
놀러	21483
두레	24710
##비	2151
메이크업	8016
##계선	27936
라운지	17980
決	414
##0	2082
가져오	9460
[unused152]	31652
미드	10600
##애미	24916
캘	1705
만도	26752
독스	31087
강민	16504
##웃	2852
깨져	28959
도토리	22832
본래	7730
##선거	17759
남양주시	20503
암	1383
필수	5588
시크릿	18603
윙	1489
큰손	26231
도라	20960
엮	1430
막장	22657
방귀	30026
정해진	9826
망가	13731
NAS	23002
##바스	30669
민노당	21338
성취감	22495
파크	6534
십상	17836
베푸	21838
아프간	18592
불과	4544
문병	27367
의료법	31283
SAT	28386
오랫	6311
##ㄷ	2553
극	637
정류	13407
##콥터	25046
라는데	27267
##끙	3554
##무리	4957
딸아이	19183
설계도	25854
간대	26071
##😂	2790
##어요	10283
챘	1648
자연사	29773
지	1583
270	15783
드레	17911
라벨	18745
지우	10585
동이	17723
전해진다	18302
베네치아	22306
렴	985
조한	30988
30	3740
김범	16468
필하모닉	26241
제안	4735
커서	12938
피해야	18002
한명숙	21746
박종훈	30072
Sp	11480
간지	19156
##eak	31146
소구	29207
고창	19472
창구	10837
온전	14109
헤아리	20086
한참	6756
역경	18248
군포	12398
린드	30626
쾌활	28281
펫	1854
노라면	22662
이복	29683
꼽힌다	8799
##득	2537
필자	7012
카리스	12956
대타협	26066
탈레반	23766
수박	13477
Public	23579
끊임없이	6542
따로	5542
보험업	18786
토르	24321
2020	7330
경남대	27995
뉴저지	26563
트럼프	5477
1945	12883
동수	27996
##고기	5129
부상	5223
신입	7225
##브라	14561
가치관	10177
슘	1314
MMF	31085
다행히	8273
성대	15446
통신부	25715
##셉트	9074
맞닿	18179
상급	13295
뭉클	22496
기관사	30268
처방	8576
BC	14256
Die	26742
정규직	8204
제도	4010
##ism	10769
격동	27643
시댁	21227
안내문	23614
빅	1188
섹시	11878
라온	21620
한국	3629
정경	13104
##애플	24960
교통부	9868
##소싱	26803
민의	30593
##털	2669
##att	24064
요르	20392
##봉산	30539
[unused340]	31840
기출문제	28478
##디움	13126
모어	26668
고취	17607
일컫	13488
매트	9996
페달	18626
휩싸였	19209
그래도	4785
[unused365]	31865
말차	31332
테크	6532
결의	6857
고등학생	11284
윤상현	25456
ER	25858
리얼미터	28672
후보	3733
强	346
불렀	6895
거물	18453
구리시	30474
관하	10085
국교	20787
띈	938
노니	23253
[unused337]	31837
가루	9827
짜	1595
##라이나	18510
이치로	30194
갈비	9428
노을	18343
총동원	18609
벌여	9915
처했	16959
는구나	10191
식별	16448
부딪혀	19656
입힌	20222
헨리	12345
빌라	14309
윤주	27572
i	76
##반도	5315
김종인	17054
소영	26678
##칩니다	28502
자위대	24758
조이	14773
해커	16783
第	461
클로즈	30084
고유	6870
키워드	9999
가릴	20424
친목	22304
##나비	23600
장보고	22203
##제국	19057
뒷전	22063
녀	759
세액	12169
매사	14717
맑	1042
엇갈	9399
‥	120
소극	9004
옥상	12338
진작	12425
팀워크	21597
고든	24804
대명	11546
Bl	14571
Frank	29774
先	245
10	3633
망각	14915
통행료	18586
바오로	30537
식품	4693
화전	20543
무궁무진	23460
살아나	12414
##지니어	9257
어용	14812
194	5642
팔리	10426
365	14713
##스포츠	30000
나쁨	28028
폭격	14341
##블	2603
매트릭스	29111
혈류	31127
서사	9935
고성	9952
로비	8637
으세요	11154
긴축	15702
시달	7081
[unused472]	31972
고요	4630
모여	5417
절정	12011
비주	16819
김유	13000
어허	20531
질감	20991
음악	4152
부양	8823
는데도	14682
가능	3662
농업	5321
쏘아보	28239
급	642
##네이터	24364
상징물	26662
안타까웠	27632
강호동	22609
붕괴	7404
##로나	11235
##낀	3429
검술	28296
싸우	6817
임진	10945
##정책	22210
이진	11474
정청	26364
##민정음	30335
질질	22212
메인	9073
귀신	9979
운용	5356
세습	16964
시들	18215
보인다고	18819
지청	15865
지형	10216
샷	1255
##저스	9595
피조	21168
##심히	4903
184	13037
가급	12582
처진	30727
허재	30638
이성계	20026
##VD	19879
##히로	26445
시진	11732
통째	14790
훈장	12932
##했	2371
임하	12147
세관	16085
감회	23224
일보	14170
##집트	8552
송중기	26013
매사추세츠	27031
##red	22213
불가리아	29861
하림	31307
강전	13729
##ey	14954
관심사	9492
상의	10346
납입	12064
##oon	19563
죽임	24783
오리엔	19141
겸한	27337
父	426
견인	10947
##스피	17355
##저우	11110
분만	23095
섹	1270
##밭	3214
복판	15067
손등	20524
##랠	3529
침	1693
찹쌀	19300
목욕	9102
##디다	30009
계산서	20840
살필	28041
외롭	14488
잊어버렸	29179
##딪	3230
인터뷰	5111
미즈	22801
내륙	12468
교도	9313
옹기	18340
삼성생명	18513
적응력	28713
쓰임새	31314
얼버	31174
##트럼	23335
나지완	31442
철강업	23719
한상	13196
정보원	12082
정확	4480
방문객	10968
[unused78]	31578
여가	10956
난감	14350
전량	17853
맡기	8706
만호	31241
부사	6687
딸기	10341
오인	21087
##뿜	3332
##몬	2582
모국	18706
##콜리	25543
IM	7664
##법인	13185
각양각색	25416
##위성	19091
획정	16363
뛰쳐	17004
장현	22859
##볕	3121
Press	11659
관심	3867
줄기	7919
백종원	25869
하나같이	21279
##생	2065
최종	4679
##언스	13060
예고	6262
감당	8703
감가	23957
서치	31213
올려서	22874
랭	960
슬로건	12016
이롭	26203
피닉스	29409
울프	22478
루즈	23180
의미심장	22142
Rich	25463
권리	5114
잖아요	4945
그르	16283
모리스	22639
더라면	10136
비키	19649
토스트	23852
운동회	29585
##스탄	7933
##우마	19226
모이	8990
고은	22622
##부아르	29661
성결	29556
선봉	17146
군부	9619
강당	13179
성형	9252
바캉스	22635
수익금	14079
하자	20651
##유	2298
1960	8348
지음	11655
##ㅜㅜㅜㅜ	26484
School	29522
물감	19977
화덕	28278
##토	2386
낙찰	9259
피력	13173
싣	1328
낭송	26515
항해	11415
야만	16194
번졌	25941
##롬	2981
발의	9770
共	252
이광	11309
양평	12525
##도르	14433
스탈	15374
아이돌	9326
경영진	9243
원제	29172
아동학	30333
태도	4850
외제	23593
안전장치	23761
특위	8641
그런가	9989
쿠르드	28272
[unused171]	31671
JS	26869
##워졌	14578
졸속	23910
이웃	5616
이산화	12579
맥스	13695
##ne	10933
점진	14214
취직	12820
전편	27848
영양소	15269
ㆍ부	21800
수천	7773
##뭄	3285
해요	4552
듀스	28443
304	28737
신경	4628
지하수	15574
be	11356
열린다	6676
기념품	17388
##다보	4974
골대	26017
Christ	28495
아늑	21309
외도	24941
미쳐	14245
##ㅣ	2880
어둡	13382
호텔신라	27969
꿀꺽	27232
Gre	16572
무스	22082
부메랑	29378
지병	30207
債	243
유익	11576
##든지	7634
밀려	6943
유품	26498
##타고	25713
분쟁	6933
좌완	21101
인질	16730
싸움	5498
중앙일보	15724
붕어	19664
안타깝	8863
라멘	21588
본고	22399
새긴	25174
광선	25228
칼럼니스트	27876
전학	20434
짜여	18939
쥐	1573
체육회	14067
나침반	27681
승패	15888
결손	23091
｢	1994
##헷	3242
##에트	24966
##엄마	31245
공정	4646
CP	13123
아산	9418
##몹	2815
골동	27926
형태	4337
원한다면	16560
맞잡	27850
민원	6710
올라섰	15167
물리학	13687
진리	6960
生	432
[unused201]	31701
계수	16415
수신료	19725
독사	29793
##슬레이	29897
##W	2350
일절	21660
별개	11417
병상	20838
마구잡이	27253
왔었	17322
메리트	29751
[unused51]	31551
일그	19446
ㆍ소	19059
##가죽	31430
실험	5270
으라는	17881
木	390
콜롬	15553
걸쳐서	21503
실효	10083
방통	10491
바삭	15218
政	368
팔찌	21258
실내	6502
죽이	6810
##바꿈	12917
##궁	2653
##evel	16753
지명자	29971
워커	15816
값	550
잘려	23780
##느니	31053
엥겔	29513
대추	17288
서안	29082
[unused397]	31897
어도	4579
담양	17694
뒤처	16563
##O	2185
의석	13627
##삼성	13963
카테	15586
걸레	25962
국과	17733
기초자치단체	29129
##어났	4909
판자	28219
우파	14875
고찰	11470
꼽	680
등록금	8675
렀다	10285
로이	16540
늉	790
대운	25728
요구	3917
승계	11992
집어	18736
본선	9080
cit	25004
늘려야	21466
기억	4228
##자실	20428
투명	5767
세이프	21247
만류	18634
왼	1463
메소	29847
상무위원	30438
##운	2297
##문트	30280
알카	28207
원사	17603
##가지	4314
펼쳐질	19056
##스	2255
지레	28797
##큰	2855
일어나	4652
주식회사	13545
##와서	10362
##얼빈	28915
##링	2557
알려져	6420
상대	3904
장병	11492
폭탄	8582
세자	11841
헬	1915
스프링	12327
##나귀	23793
사우	8531
개개	10198
GO	22349
패딩	16221
고향	5512
유틸리티	22802
수순	17147
과태료	11656
How	25567
##른	2202
말레이	10527
교통안전	17186
주눅	23332
##살	2593
세끼	27001
네네	5876
먹구름	25731
Fin	26815
보여	3897
미백	21598
살충제	21752
쟈	1533
어제	5538
##시간	8964
중앙당	15911
살림	9045
핸드백	19874
헬리	22849
깜	658
바라봤	23951
유니버설	22967
유감없이	29761
발품	28651
##곽	2638
##글라	22621
##이스터	18018
상류층	24791
마크	7519
선행	8403
민원인	21871
##베리	12099
생식	16419
화훼	23031
폭발물	26882
결합	5646
##티넨탈	28004
진격	19484
그저	5702
진동	10063
장사	6399
윌슨	19766
걸어오	22038
##민턴	16662
판다	18230
방불	21233
##솜	3163
보충	9084
기만	16246
아바타	20691
상추	17615
리스크	8397
##씨	2483
나설	7153
한양대	13705
주원	17061
에덴	28204
국정원	6696
지켜보	6637
고등교육	24312
白	443
6000	6891
##나와	13199
쓴다	9993
잘라	8533
우렁	23227
입원	8086
##잡	2741
난관	15924
주도	4682
지상주의	29917
##ration	27707
쳐들	15056
A	37
발굴	5681
시력	12699
수필	10612
究	457
광고주	18113
비꼬	24702
지점장	17691
김순	23552
의정서	27217
척	1651
계획안	17590
날아왔	29316
청정기	16447
시설	3953
잡담	30046
리먼	28139
톈	1792
trans	22877
강국	12023
크리스	5679
부디	16321
지탱	13891
깨달음	12788
##버렸	15763
킨텍스	19504
쉬울	26744
김유신	27890
건가	7582
창시	19989
즐길	5916
銀	518
##시설	10171
멋	1063
깊이	5746
⑦	142
경남기업	28274
폐수	16815
마술사	24995
적대	10580
문사	22712
앞섰	14274
이분	8938
##밧	3038
이동	4421
진료	6517
근소	27465
##주곡	20144
괴로	13028
##책	2558
만반	29489
놓치	8043
벌금형	19980
용량	9366
익스프레스	24284
구	615
유린	16697
동호인	20233
걸프	27162
균일	23306
135	14018
위함	15316
##들였	14164
결실	11772
춰	1680
##벙	2539
따낸	21543
숭	1302
발전소	7246
유전	8653
지난해	3736
하나하나	9330
##무늬	16531
무승부	17642
예언자	17920
건설사	8435
해줘	23942
그만뒀	30285
웅장	16011
두려웠	23121
던가요	23069
수학자	23229
행차	29315
친밀	13809
대상	3756
담임	11227
종목	5260
협곡	26842
내신	9845
골치	19031
##요금	23220
르네	12203
마롱	24918
브러	20802
😍	2002
옮겨야	29021
사행	22775
하	1889
전시	4322
이화	10687
리프	17162
인포	21780
##통행	28566
콜라보레이션	28632
고인돌	27354
영등포구	21552
까스	15811
【	176
몽	1086
못지않	9338
소말리아	27600
뒷걸음	22446
조경	12792
##스름	24616
##fl	22287
화웨이	21157
ㆍ하	26796
망한	28924
경기	3682
액세서리	13360
닥치	15251
뒷좌석	22871
스킨케어	20169
길	647
해온	11464
똑같	5218
참된	17825
초래	7298
##덜	2813
##샹	2866
넘어설	18271
포위	14045
##란트	14359
불고기	14564
는군	11046
척하	16168
컬링	19052
체리	19784
백업	22572
카마	22995
강릉시	25522
마사회	19928
나로호	25270
옷차림	15912
성인	6025
##스타	4889
목걸이	15451
이스	6209
##LL	13275
고사하고	26122
##퍼런스	11917
고발	6684
축산업	28719
만유	25298
당사자	6692
근간	13626
텍스	11301
부종	26185
돼지고기	11833
요정	14332
TO	16538
이범호	26157
##노선	28675
소녀	5736
’	115
체납	12687
처하	14674
불펜	11338
##appy	30431
라는	3621
호감	12483
고층	18093
032	30501
##샅	3520
변환	15070
우산	11226
##트라	9797
퍼스	18647
륵	1020
공용	15968
뷔	1182
스파이	13106
본드	21888
무더위	14676
##oc	6624
울분	22684
률	1016
에디션	17997
빈부	20557
Gl	16762
끈질	14580
치료	4159
중계	8137
양측	9240
③	138
사절	14520
열려	9249
지킴	15843
##톡	2685
도시바	24737
플래카드	26566
발란	30709
펄펄	23307
부재	9100
콘퍼런스	17339
##뱅	2882
비범	30544
워싱턴	8017
허구	12555
평창동	13873
##세요	5971
체육관	7335
##었	2359
##기수	29002
자제	8449
큘	1749
로워	12798
자며	23876
##루	2162
드라마	4665
##툴	3069
vol	24956
##잘	2917
발행	5467
땜	906
비상사태	27108
##포르	7731
어긴	26838
한단	13855
의례	15309
공포감	30802
##일관	20299
막차	31394
물고기	8747
지역민	10496
확률	7628
##ivers	12018
엉엉	22688
고깃집	28560
시골	7535
파출	16134
전문점	10615
로리	24620
희망퇴직	24812
##료	2071
##데미	9078
퇴장	15285
##드레	12674
웅크리	24714
박세리	27544
맞아들	30363
주한	8686
코스	4658
후계자	14208
대전시	14984
친다	17009
이튿날	13693
가두	15173
환산	13499
연전	14599
엄두	16193
충치	29456
상품	3959
진열	13306
은데요	10623
박힌	16366
##ens	11352
경쟁사	12086
계엄	17326
##티넨	26077
글루	26347
비에스	29464
김홍	15623
대입	10606
##사항	22640
##21	21289
디딤	21229
제형	22170
쪽지	17877
이호준	29852
##io	14610
애기	12873
##라노	17214
高	538
영남	7188
##U	2309
끄덕	7637
##37	23887
산사	29606
가난	6192
반가	12738
특약	17605
선교	7675
천차만별	25108
전할	17827
틈타	26329
밝혀져	24295
##미아	21374
월화드라마	26693
후회	7977
버	1139
월터	29380
안국	30336
까마득	26667
석권	18874
파이터	18524
급제	19573
지새	29799
낫	725
현수	11294
예체능	23225
떠올릴	23765
누이	13872
너스	17346
##고시	25111
이승철	30482
공소시효	25217
ㆍ중	11270
농담	9000
가져간	29309
접착제	31493
피부과	18610
정의	4896
##노총	13938
마스	20699
제강	20437
대신	4217
무상	6096
지칭	11770
##합니다	11800
##믹	2931
국당	7774
정말로	8324
꾸며진	28693
연봉	6916
##ford	22094
열매	9274
생겼	5810
고대	6584
추앙	28482
두개골	29550
[unused263]	31763
갖췄	9706
통치	7383
보너스	15862
감미	20479
동포	10244
쟁쟁	23200
이봉	22020
##창호	23149
양파	10087
격	584
##쿡	3240
발화	18593
권상	30541
첫째	5919
습성	22258
문화예술	17318
평상시	14129
앙리	25301
쏟아질	30114
벌집	29113
##쓱	3380
글램	29418
때마침	19416
우거진	29173
[unused485]	31985
담대	31013
공매	24841
PE	14282
##유국	23110
영화제	7434
밀실	25374
광안	19483
정선	11915
애프	19805
릴	1031
봐야	5236
기원	6256
잉여금	27111
92	8049
주유	8627
칙	1690
룹	1007
찾아낸	20559
##필드	20847
인형	8439
—	112
##Z	2611
에서	3604
뻤	1215
데려	7064
피폐	26953
조바	25124
미상	30819
맞춰야	23480
非	531
로운	5048
구리	9822
느니	12302
##니엄	22914
나가사키	28282
쏘울	30111
후쿠	10440
[unused402]	31902
건의안	29988
##베	2472
걸어서	12378
수평	11723
폭우	15909
미온	23712
퇴각	28765
자고	5883
단말	9602
커리	14743
충무	15100
휴먼	17409
출격	19715
수차례	10277
[unused393]	31893
수준급	30378
##꼼	2697
##신	2250
착	1633
부합	10077
환원	11073
수교	18714
무서워	14861
Ibid	24225
칠판	25359
올레길	30954
힘썼	30310
해녀	22140
##아치	19153
우러나	30839
●	157
무사히	12356
##Hz	25236
부마	27438
면장	29394
무겁	10804
주파	11999
감귤	21963
지낸다	30814
수묵	31358
하지원	29346
폭격기	28567
벌였	7427
혜원	26934
##숯	3271
Com	9272
[unused277]	31777
천왕	27305
##문고	18217
심호흡	27128
수렴	8178
채점	22818
레이더	14611
증후군	11760
지배층	28299
양명	29875
번창	25828
분경	22309
치명	9848
##ible	27865
려다	12291
동산	12785
두들겨	21500
긍	644
플랫폼	17090
반포	15291
뮤지엄	27875
연구소	5158
GDP	9476
숙제	10166
##란도	20881
공통점	10414
청문회	7400
리모	9118
피터	11358
그런지	9408
420	20491
까치	18256
뽑아내	19547
소감	8669
##오른	17290
쐐	1360
죄책감	16289
정무	9351
1942	23781
미스	10102
##큘럼	20775
누설	23527
##하라	16599
남긴다	28646
정예	18676
만든다고	28598
두근거리	29888
멕	1066
으니	4518
은혜	10155
유적지	16547
##지겁	26992
증정	8896
강남스타일	28731
케이블	7114
과태	11638
유예	11422
##뚝	3124
타이밍	12316
겹겹	29672
견지	14020
디자이너	8222
토했	25612
독성	14899
토머스	19590
-	17
헤드	9323
기독교인	28132
흐느	17767
샌들	28438
치러졌	28762
아담	12647
에버랜드	16322
초인	19801
넓혔	22505
킬로	9810
잖	1520
주시	12000
뽐냈	21822
끔찍	9371
박살	25552
피안	30154
연세대	8880
애벌레	28846
계장	18587
여소	25888
기차역	30909
##도	2119
##amb	19345
문집	24598
정신력	21479
악성	20638
천지	10353
문제집	22644
서민	5946
담보	6484
크로	10552
응원단	24451
소용	8578
ac	13836
진나라	18438
변화	3908
LCD	10768
##혜진	17922
거듭날	21839
였음	15292
소고기	12362
전환기	26577
##연수원	24171
랗	951
##쫌	3462
자격	5109
실상	11069
크루	8448
예산	4135
해운	6138
츰	1687
12	3710
박병	12625
대내외	17573
오디	17944
##돼지	18061
자각	12934
##투어	26936
막힘	30869
가실	30270
염려	8461
기관장	13776
쓰레기	6614
에	1421
태블릿	11125
무슨	4177
언어	4686
은평	16476
차려	9606
소작	18564
##길동	21702
한약재	28592
광동	24930
진기	29144
반듯	19895
빌	1190
석유	5728
액세	12700
스타	3787
[unused97]	31597
하필	13575
등부	24787
소설가	10173
유언비어	29266
##클랜드	28938
경제자유구역	12953
서식	10667
173	18163
엄정	14266
희미	12013
괴	612
숟	1298
글귀	19110
스타킹	23317
맞서	7280
시차	19168
목덜미	24622
뜻밖	11167
주무	10633
r	85
열심히	5021
대흥	28394
종결	12200
자궁경	31473
달라붙	15204
##뗄	3111
수요	4446
온다	9130
플롯	26599
##말리아	26702
프로세스	11142
오래오래	26962
들추	30732
번영	12290
Cor	21930
##슛	3452
지중	13799
껄끄	29555
회장단	28489
공산	6167
업무상	19287
##즙	3102
부드러운	8146
동질	17589
pr	12061
KOTRA	22107
외주	18337
처치	20110
채광	25716
##나리	13330
남짓	11545
터득	16000
동북아	9170
상납	28418
엑소	18802
##렸	2542
##치미	24267
양희	26134
과세	7148
Har	17015
내비치	26352
홈런	5874
순조	12330
239	29642
##글라데시	23620
소품	12199
##틀랜드	15296
##러기	13660
자라나	18525
전기	4450
맥도	15180
질주	11307
##더미	16351
향	1904
답변	6272
기해	23501
기뻐	9221
##돋움	16820
기업체	11363
정모	20935
月	386
[unused324]	31824
비행기	7046
방자	29516
##모로	20776
##건	2332
한마음	29559
갈랐	26435
OECD	10237
절망	8184
고군분투	24079
루소	22938
야스쿠니	25946
컨대	29285
정희	19789
##푼	3145
도장	11208
##거지	12831
흡사	13992
느닷	16344
뒤흔들	20097
드러낸	12273
##뜯	3540
교보문고	26926
강사	6397
LNG	12517
1934	23398
UF	27533
예멘	25384
회당	27510
아주머니	11190
##기계	19346
백색	21971
금남	28742
중단	4967
긴장감	10327
##ons	18528
개정	4615
특별히	7761
김지	9223
원년	16817
지마는	18698
안무	14920
R	54
냉철	20477
광주시장	30613
##air	18529
##베이거스	21631
記	493
##ack	10790
특화	7677
로직	20400
##회계	16696
수산업	27376
급급	14969
숨겼	28068
##TS	14070
루마니아	25960
까닭	7347
일각	7662
##22	14694
일맥상통	30192
가문	9459
테헤	26810
주입	12986
풀뿌리	22616
헌병	23485
타르트	26738
[unused183]	31683
[unused274]	31774
삼성전자	4798
Im	25402
03	8235
##보리	23401
##실	2477
발전	3859
교구	15950
노랫	18983
온실	9874
왕건	21023
##ax	16608
林	396
##설	2068
##뽀	2407
##메라	5478
한겨	10250
삼국사기	22003
지나온	28875
영도	15159
강서구	16104
의약품	9642
수축	15753
an	11171
##웰	3312
저절	10870
##찮	2746
장로	12206
서상	24290
최동	24544
##ase	16348
정	1543
Be	17488
과업	19593
침몰	10071
정주	12945
화사	13379
확연	22329
점하	21901
영위	14909
우크라이나	23975
산학	10516
##질러	13236
##앓이	28935
약효	28128
세간	17335
2200	20706
둘러본	26488
낚싯	24296
Bank	29390
중진	12556
왕	1459
손해	5567
휴대폰	7108
##ain	10134
잡	1523
널찍	29492
252	29538
40	4064
도인	25334
미룰	25763
본부	4522
인삼	10033
흘린	19401
재물	14151
속박	25842
칼라	17278
상거래	13086
풀어내	19286
신년사	23596
1909	25816
알아주	18665
##덴	2906
안티	14947
##영수	16202
다운	6163
회자	20653
샀	1241
전가	16293
PR	11172
##다닌다	27866
줄리	19327
구로구	27913
하이데	19049
물티	19778
기회	4118
자이	10772
광화문	9474
저리	12615
알레르기	13676
54	6059
밀접	9433
1946	16312
##섞	3213
후려	21880
고약	22383
##orth	24180
봅니다	7324
소린	28596
##뼈	2865
진호	28396
문질러	30172
계셔	24938
문화재	7281
쳐	1661
박원	9855
거치	6880
비해	4357
##aper	31055
우측	17734
HD	11421
슈팅	12650
환매	14417
##지우지	22360
내복	29878
##rat	18832
예술인	14740
최태	15430
숱한	15833
가속	7717
##기운	27715
채용	5142
자수	14221
촬영장	19828
모호	10782
김무성	10504
폐해	15716
전세금	14299
마는	17225
포섭	23446
바닐라	24306
김상곤	23050
신안군	30834
살수	30448
객관적으로	17617
단백	8714
영상	4729
유흥	15514
대역	13355
예컨대	8283
더없이	19279
늦춰	18040
119	10090
조아	15015
je	28295
선화	23003
##급식	9034
한껏	12006
##공격	24367
한가득	28702
이케	11818
케네	16837
##둑	2565
바꾸	5016
몬테	25218
처녀	9929
##잭	3507
돋보	7829
어쨌	6073
원서	12789
출하량	28176
✨	165
##의회	19084
##w	2175
1973	12959
어떤	3711
완파	29222
##엥	3007
단의	17151
호명	27105
카드	4399
과목	6292
끄덕였	10935
시커먼	27268
건물	4515
##돈나	28130
상봉	13358
일자리	4649
그까	9607
##코지	23726
이젠	7194
##픈	2649
##다녔	13258
표준어	27482
土	295
배구	10056
수작	17168
벌크	22580
자메이카	30974
버린다	9543
엔지니어	10006
##배	2393
중환	22898
고립	11072
걸러	17023
고동	27504
300	4999
위원	3687
의약	8663
##ev	8751
불매	22507
포스팅	13163
다니까	18178
백기	29412
손바닥	10578
전멸	27823
LCC	26624
부른다	9061
일산	9664
경상도	16251
고려	4146
역	1429
세트	5360
접수	5821
##잖	2513
미역국	25741
장진	27014
룬	1004
순한	21820
성서	8344
재혼	17563
##연구소	19648
헤치	21100
계상	28442
성원	12329
Comp	15149
##학자	6478
넹	758
분해	11348
휘날리	27487
저번	14247
바그너	27982
도드라	30085
클래	6107
규칙	6094
군중	13730
으며	3745
더라고	5626
##hys	27389
안개	10267
최후	9284
미혼	13527
업로드	27762
세면	28263
이라도	9732
회복	4585
우뚝	12477
John	14588
갤러리	8181
세워져	22071
##경	2382
보임	21314
안희정	15797
문화방송	26086
英	478
구보	26521
슈	1312
슬라이드	23532
##능	2183
백승	28835
부담금	13069
十	269
녹음	9220
##거래	7315
##ire	14119
비스듬	23749
화랑	12819
후유	11734
샵	1254
SS	11513
찰	1636
스피커	13615
죄책	15700
대들	24275
두근두근	27543
셨으니	29308
직관	12596
답장	20588
박헌영	31133
워너	17612
건축가	14146
[unused486]	31986
선별	11168
자갈	17312
미자	26179
##절기	17247
보호막	31027
##ole	22387
##샛	3334
마트	6435
아군	19960
리부	26789
개개인	11249
숏	1294
빨개	28439
끼워	13646
답보	30435
##르담	23807
시청자	6373
무용단	21812
전개	5445
다기	23270
코레	11764
뒤틀	20043
부추	9210
밤중	15255
PEF	23979
공산주의	12261
##훑	3591
사인회	27694
베	1148
래퍼	20195
숨지	13822
던데요	22005
과대	17392
신뢰도	14605
연락처	18386
##권	2207
Cre	28794
깔	657
어지간	22179
브렌트	29841
케이스	8726
[unused79]	31579
피켓	23077
대형주	22382
보온성	27029
종묘	21088
고속철도	29479
##팠	3411
지워	11256
뿜어내	23350
돌풍	13137
추론	14201
뉴스	4836
##치기	10547
가즈	23251
촛불	7393
##질서	20300
공포증	31072
소인	15822
CM	19294
##냅니다	26775
휴가철	17523
칠성	30121
매서	20999
전환사채	31288
농업기술센터	25262
신청자	15272
알렉스	20564
##누르	17236
전립선	18072
시노	31163
##구니	9188
진급	23338
씨	1370
[unused308]	31808
##ᆞ	2412
사냥	8056
즉위	16066
편의	5347
춘향	16873
함장	29139
슬	1319
회합	30961
제전	29018
##평균	13504
유혹	8113
농약	13082
부총장	22385
##메이트	27918
은행	3924
부임	11485
뛰어났	23771
겸하	22752
김경수	18423
국	616
##II	25856
양승태	26057
틈틈	17840
무당	14598
옮기	7590
무서웠	22784
공장장	25478
360	12641
##하면	5643
재차	13064
증감	27004
##저래	25833
배틀	20225
피리	20601
분실	16763
우리은행	19407
지폐	17410
분할	8595
섭씨	24398
경기장	6829
bre	30766
중반	7319
처남	25177
에르	13746
Qu	18561
나쁠	26312
302	31274
가까워졌	30451
##프레스	23578
화가	9562
소수자	16824
경합	15463
흔들렸	18973
한테서	17427
##약자	26422
##뷔	3245
장세	16566
맣	1049
멕시코	8099
다도	28391
아니	3614
##넣	3475
경찰관	9358
##샷	3261
[unused387]	31887
부조리	19114
##bl	29178
##ot	5922
강변	10054
텐데요	17623
기록부	21197
##36	23798
등록	4607
홍진	23990
，	1984
관리법	15062
과도	6822
代	231
양사	15618
자연재해	22418
해협	25633
전현	27048
[unused408]	31908
수족	19261
時	382
비수기	20361
##ble	20900
모둠	27989
중기청	22481
##낭	2718
GM	8044
폭염	11283
부품	5469
##컷	3343
종이	5982
마린	18062
의도	5289
긴밀히	22638
날조	31041
[unused338]	31838
##캣	3298
##탭	3133
이틀	6266
院	526
CIA	19314
충주	13642
상업시설	20698
노라고	21051
뇌물죄	28859
##될	2651
더라	3836
7000	7199
상관	5468
##연구	10363
동호회	14490
해적	16714
##보냈	20766
희열	24611
##왜	3132
쓰였	15665
노숙인	22891
요법	9748
ㆍ중ㆍ고	30117
##자유구역	12927
쇠락	27888
마스카라	29896
무죄	9028
##닦	3466
공정거래위	13587
군함	20265
Re	11664
빌미	15734
모험	9597
완충	24139
아전	26036
낙오	29205
약관	13293
cont	23591
[unused18]	31518
[unused71]	31571
나스닥	27456
들였	18793
건너갔	28108
지체	10864
카리	22670
신문	4336
기로	20093
car	28038
톡	1794
고정	6052
부화	26536
##벗	3293
##FF	19548
수술비	31123
Global	22683
이제껏	23415
##동무	30056
창녕	17128
##ver	7521
이분법	20252
강산	23582
담아낸	25527
홈피	26152
산문	16342
아프	5032
국소	31361
손대	26129
연금술	29877
중심지	11058
후폭풍	17958
요약	8861
단합	18846
길잡이	26160
아쉬	5835
eds	30484
[unused177]	31677
명기	23989
[unused101]	31601
허둥	21823
cat	16922
승부처	26140
##퓨	2934
특산품	24403
산청	18171
##운데	3832
##려야	6455
눈꺼풀	23704
TEST	26967
[unused312]	31812
변모	13897
회고	12153
발효	8053
키움	20593
화신	21373
##징금	10867
연습생	27313
야말로	12452
신한	6393
강동원	30346
시트	8599
손상	7465
서방	9500
태만	31171
##aus	18558
본	1163
개인전	13231
요술	30249
비주얼	14055
책임감	13226
백자	27557
아이언맨	28484
퇴비	29177
##이조	24958
##겨운	11166
공존	9719
예의	8828
샌드	11315
##진다면	25241
유재석	21080
출연금	27362
아킬레스	29393
공론	10942
3500	14831
이주영	26308
여비	27781
카지노	12126
그려져	17878
황우	17574
출석	8085
205	20274
섞여	12487
상견	29055
반월	24453
백정	30065
여의치	22292
수행자	25931
경상남도	23945
반란	10605
신뢰	4901
ㅎㅎ	5311
공정위	8488
가면	18140
생계	8471
부근	9485
기강	17251
옵니다	14586
##Q	2681
##린다고	18672
사자	8264
야전	27447
외연	23093
환경청	25790
이양	14315
비니	29656
인파	16537
##보험	12349
투덜	18444
##뭡	3422
##ㅠㅠㅠㅠ	7712
리허설	23416
Thomas	28736
추징금	24466
도시	3763
지침서	27583
스위치	17285
강타	16486
숭실	24816
쏘	1354
마술	11367
지옥	9885
초라	13857
##두근	25256
내색	25621
쿼	1743
철책	31282
武	405
에겐	6783
공장	4345
관전	18748
##저만	26433
빙빙	28756
♡	162
산후	20075
는지라	25691
연주가	27009
##따리	18035
천민	27975
별관	21166
석연	25847
매끄	15640
꾸민	17311
사범	12822
##달콤	31484
노라	11089
독립영화	21769
생맥주	28665
행방불명	30386
식장	28257
새삼	9970
빅토리아	19211
진정서	31249
상선	13066
##략	2773
손수	11537
엿볼	13365
ㆍ동	28936
골몰	25644
떠	909
도용	24450
기프트	27814
센스	11600
뒤편	16244
배우자	9601
두드러진	19510
담그	16665
살아날	25047
대가리	27248
웨스트	15165
##꾀	3126
##배기	17544
정구	26144
##찜	3191
자궁	11929
다던	24409
가벼	7180
양동	16481
##대로	3770
##멜	2683
현기	18436
해법	9382
에드	11353
##igital	30184
유유	19942
서유	28042
짐작	7620
신라호텔	27483
몸통	16362
폼	1866
못할	5964
흔들리	8060
ES	12453
덤핑	29171
아파	4093
아인슈타인	17240
저성장	17216
수면	7944
am	21401
송나라	26072
마쳐	30896
대표	3661
샤오미	27891
외식업	27054
경동	24800
리조	7537
승상	28377
요게	25895
압도	7565
##선언	27203
치마	13296
단행본	28303
작별	17812
[unused360]	31860
1918	24893
바랐	15215
핀테크	15591
점거	16107
택했	13456
ESP	29148
안양시	16551
일터	16577
일정	4362
배트	20964
발각	21306
살아갈	12275
##15	19739
##떤	3407
유임	27466
일대	6394
뒤처지	28373
무적	26456
고는	10049
가을	5272
##톰	2204
바뀌	5042
돌봐	19595
돌아선	22969
무임	27429
##착륙	21532
어떻든	27769
세모	29122
##보이	16555
터전	15426
##주	2223
##두	2094
온누리	27055
체로	30783
민간단체	21096
출혈	14847
도의	23134
양정	24673
##로로	26019
[unused358]	31858
사기	6263
애쓰	13013
##섭	2474
넉넉히	29218
두렵	13186
소장품	30371
숭고	18380
아버지	4096
자부심	9881
ㅠㅠㅠㅠ	17102
발음	10582
에어부산	26547
럭셔리	14336
##스토크	27462
##ee	9739
##애나	20005
찬송	22987
뜻	936
Mnet	28151
L	48
뒤진	16994
##바퀴	16850
행각	20630
##se	9614
체하	16394
##bps	25676
의해서	7079
##소연	10392
Sc	13468
당첨자	15247
외할머니	22039
울진	14593
##깊	3137
북적	15301
##켰	2983
사학	12866
논문	6022
컴퓨팅	22371
진시황	25138
저만치	30694
전관	23327
원래	5057
##쳐서	11049
해전	27418
매실	18572
제일모직	16520
더해져	20335
최전	19899
주름	8608
소도	20394
##플릭스	23007
근로	4797
꿈	694
정황	9146
빈혈	25454
더블유	28591
디바	17479
위트	23624
soc	21974
정철	27648
한국감정원	30788
All	17924
##ural	19906
걱	569
윤활	22708
유족	8752
가뭄	11053
##엔	2614
이윽	12154
벽면	15915
##ip	8300
어려서	14478
엉	1418
진찰	21555
동업	31309
제독	28348
##실록	17701
봐야지	20044
청구서	26874
김복	30238
없앨	23838
##ym	21429
갈치	19123
캐주얼	12435
##쑥	2936
아뢰	22665
양로	30641
겉보기	28531
##빨	2919
대기실	23036
고구려	7733
日	378
드립니다	9334
센카쿠	26994
물러섰	25128
휴게소	14681
뺐	1206
찾아와서	26644
승객	8271
공무원	4668
##톨릭	8816
##도리	16658
고쳐야	25425
방사능	14466
백제	8713
화들짝	27880
시가총액	12935
##р	2492
性	354
쾌	1736
선발전	23506
관계없이	10902
[unused389]	31889
안녕	5891
이뤄지	6031
자랐	15020
양당	16388
##주군	14665
이상득	26535
##uss	23559
[unused219]	31719
전당	7299
회의장	16952
##득점	21387
폐업	12562
##홍	2453
뚝뚝	23105
##로호	23443
장갑	12825
민음사	27874
잔	1519
슬슬	17779
이달	5277
붐	1178
##자료	20057
비집	28861
환	1935
훌	1945
주	1564
##츠	2128
걸어가	10370
혁신안	28308
##공항	10654
##혁명	17124
봄날	17271
추산	9940
오름	12567
개헌안	20975
서장훈	27993
선율	16760
커플	8535
왜냐	5400
오라	14992
성찬	27368
##ath	16012
Sim	28852
묘비	29873
물린	30752
박차	9727
WHO	21534
묶	1090
##샴	3182
가전제품	15075
점수	5543
##날리	18957
##다듬	10851
빈곤층	21053
송파	10169
정신없이	17532
어미	11253
자활	20387
격언	26520
안산	8609
핵심	4325
문고	19245
섰	1267
숨죽	30119
오른손	13817
사칭	25892
오목	31111
진학률	30269
특목	17269
1959	18700
강추	18073
원가	7498
훤	1949
##절부절	27077
망했	26006
하차	15921
오드리	29519
성과	4422
｜	1993
책장	18176
조속히	14583
##보호	23999
동거	14691
##자키	25707
탬	1774
##ine	8626
화합물	22407
홍콩	6616
동대문구	27130
호날두	17134
단가	10683
큼	1753
매듭	16141
기본급	23791
BMW	10067
진로	7295
학내	24582
동양인	23156
물증	30751
해집니다	28143
그래서	3775
닌	803
이하	4547
헤헤	20473
어렵사리	30164
실천	4980
박근	4627
외무	14774
25	3912
폭언	20685
툭	1802
##ony	27704
##le	5083
이드	17379
기업가	11359
171	17437
##새끼	27121
정하	6402
통계	5735
아드	17591
잠복	19889
이군	29764
##입	2372
눈감	24379
저래	30621
[unused315]	31815
뽑혔	18451
화음	30882
퇴근	8194
페니	26778
출간	8189
빼놓	10534
현대증권	19890
##러워	8405
##천동	16183
창호	19213
육감	23930
태어난	7607
군자	17380
현기증	24299
문중	27732
민낯	26130
KR	28334
터뜨려	29562
장난기	30137
나열	15346
나아가	5497
##동강	8328
스탈린	17173
도널드	11908
상사	7326
##ucation	26233
인명	11107
예약	6297
방패	16275
베이비붐	27037
보람	9987
##웨이트	20711
Pre	26092
행보	7563
많이	3732
집대성	31414
한결같이	15731
##ME	16678
올라온	13289
##ities	26106
만났	5836
말리	10803
소방차	24322
Ab	21406
숙여	16894
접전	13010
##픽	3237
운전	5390
##헤	2352
변호인	11603
인터	3938
비즈니스	5928
라디오	6526
##ht	8919
사바	25968
바트	29258
동북아시아	26274
해결사	21440
내딛	18109
가평군	23177
정기예금	18183
행주	27622
EBS	12216
OO	27326
국민대	22541
##꿀	3035
쓰러	16571
공신	13099
사형	9385
지불	7775
백악	9569
서서	8028
부처	5410
봅	1166
암석	25353
롤링	26276
[unused453]	31953
한꺼번에	8307
코너	7849
허무	12466
철학	4825
유나	28948
오픈	5405
[unused180]	31680
쫓아가	22208
억대	22491
##착오	17399
싱크대	29657
불판	30575
올랐	4990
뭔	1098
##딱	2587
일곱	7843
새끼	7171
용어	6436
후일	21576
신용카드	11776
맞물리	24088
달려왔	19172
당초	6051
엄청나	9780
09	12426
##수리	13020
##에른	27346
동점	12134
버릇	12472
가한	24990
다는데요	29583
##land	21900
근속	24107
재심	13950
악재	11440
법규	12796
테스트	7453
래미안	18588
킬로그램	25372
##달	2448
쏟	1357
심연	26074
대화	4386
佛	234
##ild	16831
확성기	26545
실체	8005
SF	16371
뒷산	23717
조원대	22085
305	30597
출점	26699
송치	19352
##장수	21278
Korean	25098
유모차	20109
##춥	3396
이근호	24013
후면	18187
##버터	23262
슬픔	7799
수혜	10315
근거리	26526
실명	11527
##렛	3081
효자	14534
으면은	16979
철조망	29395
원했	12448
호전	12193
공황	15472
뚫어지	29437
주점	17253
##워했	12920
충남	5544
비쌌	31313
투구	12164
이용자	6910
아오	19465
T	56
균	634
필링	28407
##쨌	3586
망고	16647
되풀이	9153
영락	21283
세워진	15550
##t	2013
대림	12783
##을	2069
나체	31244
눈여겨	12595
근무자	23066
위세	23550
중견	8547
##무기	10387
이탈	5338
문어	16687
오오	22905
사서	21513
저울질	25965
교차	9131
[unused246]	31746
패전	18576
##사이드	26470
국내외	6605
과부	18074
쓸모없	23672
종합	4339
PB	12392
히스	22604
현정	25588
외동	29206
초계	30393
로마인	28045
##ld	9446
송정	18493
##지긋	26175
…	121
##부분	12547
미켈란	31175
##엉	2187
한문	17153
엽기	24654
경종	25109
령도	30263
아름다운	5212
소나무	9804
벽지	20037
다오	31130
기마	23395
성동	12839
기습	13076
폴로	27922
서귀포시	22099
뱀	1135
️	1979
투수	5820
바라볼	14824
##ime	16668
전날	5978
옛날	5861
##×	2930
##즐	3002
라자	29680
ㅋㅋ	3725
##탬	3212
스테인리스	21590
허정	19242
지자체	5518
##본주의	31401
변변	23576
레드	7555
년	761
##보트	29254
볼멘	29767
차지	4286
책방	20270
파티	7291
KBS	5644
스타트	8431
대선	4623
우호	10984
응모	11754
나뉜다	15196
##꺽	3198
혼재	27838
잇달	10981
절망감	29126
비트코인	20281
부정	4533
4600	30893
꾀하	14110
완승	22389
피난처	27779
뽑아	21627
봄꽃	27399
시	1325
##눠	3299
복리	16347
보강	9438
근사	17063
쓰러지	13794
외채	28813
문고리	31170
由	436
공공재	28847
밀린	18964
##긍	2711
호실	24952
소름	16109
전지현	25176
폐차	30622
돼야	5615
##창수	22540
관음	21509
##어낸	16260
멤버	5960
연예계	17297
야수	18732
거문고	28399
드러누	29271
본격	4562
헌신	9268
九	223
문제	3635
등용	20207
##부	2144
건강식	23478
수용소	17039
門	521
최형	18720
기지	6521
장롱	28817
부들	21921
호러	26947
물결	10061
표했	16467
들러	12243
품성	29197
##질렀	20194
트위	6883
ᆞ	111
##그마	15729
야스	16027
이바	30403
반짝반짝	23963
과징금	12400
##표	2316
개최	4414
뒤덮	13541
##evelopment	22703
##훼손	23021
삿	1240
##워드	9332
환불	15045
##자치부	19808
안일	22365
투게더	24701
따돌림	25813
큼지막	28621
051	30497
##ple	31439
―	113
계집	14997
부서진	29675
조르	17762
發	442
스트레스	5910
보이콧	20494
뇌졸	16339
혹평	26253
께	673
퇴사	18753
확연히	16843
자화	19338
1940	16131
##ad	5749
춘천	8109
평했	21778
타원	27737
힘겨운	19017
Mar	13613
구명	18541
드실	22570
맞이	6644
##쩡	3479
ㆍ고	15595
그냥	4181
프리랜서	24988
##막	2395
어라	8078
농촌	6411
어마	12245
덮개	24121
그려졌	23096
편식	22032
##v	2045
유류	14160
진한	11710
선주	18091
아울러	6070
연해	23594
기타	5867
철회	8188
속초	12964
마초	30880
디너	28078
##탄	2554
프란	12570
##기업	4371
쓰인	14739
니코	24645
씽	1375
[unused67]	31567
##스틴	13439
광구	25937
괌	608
자신감	7367
세계인	14716
##5	2049
솥	1289
##땄	3593
통증	6595
주된	15549
끼어들	15897
구애	15930
옆구리	17301
동그랗	22805
모는	31328
여교사	31294
석상	18162
나이스	25469
납치	10784
청하	16014
위정	30809
브라우저	29045
아플	19051
上	216
해짐	25243
다급	14178
드림	8079
나트	18148
스니커	30585
순대	18910
##치우	27610
UEFA	24697
##갈이	16943
도망쳤	25157
아주	4129
##닉스	9097
사익	28445
끼칠	18701
보양	28841
##태평	17569
기름기	26367
두꺼비	27190
##포화	30555
각인	14165
##시대회	30883
구매력	22741
김부	15182
식습관	19206
버립니다	30915
팔아먹	30643
박찬호	14300
사적	18777
대여섯	24089
바젤	29010
글쎄요	15817
덴	844
마산	7958
붕대	27040
라고	3609
금요일	9893
헤매	12600
마침내	6451
쏠린다	24256
동족	24991
픔	1881
버린	5715
병행	8371
되새	13361
그쪽	10576
##쩐	3500
수개	18892
##늠	3430
부랴	23691
응급처치	29224
부수	10823
양복	13930
글로	4255
##ople	24639
##산성	14908
거슬리	28730
##으므로	12260
벌써	5442
입단	11989
기준치	16207
##탔	3588
##잘것	27750
공매도	20364
Economic	30720
무용지물	23573
아프가	16740
全	249
##꼿	3371
불가결	26159
불안감	8853
##찰청	20809
##체스터	14043
아파하	27473
범죄	4941
전무	8072
##67	26162
곳	601
보스턴	14140
코미디	10133
리퍼	26287
미포	27380
웹툰	13311
시뮬	13959
AI	7212
내실화	30401
품	1873
정전	11436
218	27548
태생	18539
돼서	7690
박연	19527
만족감	17343
소방본부	27938
들여다볼	28166
중공업	6663
당겨	17683
농축	12576
##텍스	15221
브루스	29419
설	1263
포털	8279
일행	8325
나선다	8314
자양	24421
들이	6433
힌두	19873
##럭	2823
위법	10385
자유형	26808
사령관	9816
케이크	10101
[unused89]	31589
외모	8169
담사	23928
쇼팽	30035
뒤쪽	12101
순결	20658
자택	13161
[unused232]	31732
매주	7507
아무것	6321
장충	23471
규슈	28322
##언	2347
##굽	3083
티스	21594
##좌석	22471
개경	31421
타로	21191
활동	3746
제스	16588
여름날	31065
북유럽	19385
타임스	9387
솔선	21986
정몽	11143
의뢰	7358
궤도	12010
제멋대로	20779
##오피스	29776
표현	4074
김학	14787
덥석	31412
콤플렉스	14590
달려가	10207
모듈	12516
머뭇거리	20411
타박	27018
꺾이	20432
웃겨	18281
##디어	4234
무역	4902
330	15746
토록	9193
순순	20662
그린다	21545
보세	31153
딱지	18154
손수건	18977
미덕	16949
소크라테스	16514
눈치	6523
##동생	9639
도도	19498
##쿨	3028
쿠팡	26691
크리스털	28967
유언	12891
어긋	10463
##ill	8207
##fic	14633
발레	9174
##산부	10302
디스크	10946
CI	17243
토탈	21437
SNS	6691
포르쉐	30405
점차	5992
[unused409]	31909
##날레	12768
실소	27288
예년	12982
브론	30543
받아들인	18807
김광	9184
기뻤	20179
완패	25492
마운드	10755
빠	1196
수놓	22106
최애	25547
외형	13190
개탄	24020
##㈜	3331
첨	1654
경유	10698
보탬	17901
바친	21083
6	26
만찬	11902
뿌린	20966
화이	25670
소장	5366
벌칙	28631
동	856
치료사	24777
ㆍ영	28378
사후	8500
강직	30767
##75	19918
1932	22224
더구나	7674
되	859
세력	4815
love	27415
오물	26322
연출자	26279
의인	23497
총리	4866
이동해	21117
발목	8286
예식	19253
디지털	5476
##ure	9124
공과	14271
고속화	28384
140	9589
했으니	10830
덱	843
sm	25191
##ag	5436
문제점	6178
멀리	5765
##젝	3120
지바	24378
##나이	7461
전염	11337
su	19835
##amil	27538
양일	29043
밑천	30302
축복	11503
귀양	26766
사들이	18096
성폭	7460
뒤따르	21715
불러서	21112
본디	26791
그칠	14887
##ㅋㅋㅋ	15352
태	1770
로서	3975
##땅	3000
냈	738
통하	5608
비철	19597
##q	2032
전미	29500
모퉁이	21007
동원	5627
공백	9718
경북	4724
박성현	25448
##팔트	22513
성별	12444
##ts	13077
동지	9787
리듬	10228
대견	25185
바그	18450
혼례	23809
rel	22455
외장	24649
##읽	3149
표하	27691
##례	2793
정우	12475
속보	18094
주임	16080
포부	11912
악행	29928
터져	8957
함성	16152
여건	6015
겸손	11663
요것	26489
시그널	25572
한일	30662
레닌	16145
루마	22956
유목	18320
극진	28589
ㆍ안	30017
diet	13917
##irst	24507
정상회의	24051
고하	21177
유효	8870
의과	20384
로열티	21535
금주	22339
##장면	14014
##ering	31415
##췌	3314
통관	21171
##느	2922
##벨	2403
꾸밀	29965
저거	12181
가운	21565
용액	25152
##걸	2249
처절	17659
소망	9444
범벅	27579
##립	2339
##튀김	22692
담당자	8122
테두리	17766
##MI	23912
플루토	27201
낱낱	21828
9500	27623
타고난	13436
배달	7301
포지셔닝	28695
X	60
역대	6057
저게	15872
보건	5308
밀어붙이	16664
파라	10278
잠든	18357
[unused98]	31598
난개발	31278
캣	1708
##판	2025
Stud	21224
매스	13254
컸	1718
경전	10572
도취	27086
##찌감치	10792
##ke	8010
으뜸	16466
양강	25636
버전	9916
##양이	28186
정호	17991
일정액	29884
토지	5250
##핏	2946
의학	6407
법무	6845
문물	22437
얕	1403
##없	2899
게시	7952
홍삼	11785
근본	5514
풀어놓	21765
대당	22698
##마는	16605
일궈	18696
경의선	27382
##벡	3006
손질	12890
욕심	7340
##부진	14354
인도인	25426
아직	3919
대명사	15627
##첫	2966
모든	3721
그치만	28468
야대	29756
청취	10180
사거리	12850
리크	25516
기선	20770
그리고	3673
😭	2003
가솔	15512
깨닫	7173
누드	19461
현직	8623
방향	4367
입장료	16539
##릴	2388
방송사	8903
도가	17307
선진국	6652
##텔링	18878
들어온	8182
영사	14779
마침	5462
이뤄낸	25872
圖	294
연맹	6990
이뤄질	9733
현영	27286
경쟁	3855
신파	27137
구민	17115
섀도	22249
교리	12923
장치	5427
##헌	2627
실리콘밸리	18111
눈여겨볼	26170
판시	20928
##alue	26294
개진	22421
세로	12409
통신사	9806
행해	12591
##더니	17598
눈가	17161
##괘	2655
절세	19126
결정짓	21271
해준	26499
일과	16924
노점	17105
실탄	26602
_	66
182	15315
존엄	13652
소릴	24153
커밍	30182
편집자	15966
확실히	6768
목마	28608
건설업	12795
기상청	11945
정명	20399
н	106
깻잎	21260
고체	25215
의료진	12263
각막	22629
기관총	31178
은하	14196
술집	11285
생활비	12033
##omen	26888
불응	27311
져야	10181
##활약	17046
불러오	22847
##결	2489
주소	7862
패티	28406
보일	6441
##솔	2437
[unused414]	31914
집행부	13414
가계부	29385
재선거	30429
초미세	23382
희수	30821
금리	4527
데리다	30758
발맞춰	21979
치러진	16602
##은경	28536
[unused23]	31523
##칙	2426
급속	8133
거들	14039
휴양림	20173
결말	13489
학번	22095
##뇨	2597
발행인	23138
계기	4944
번개	14415
츄	1684
고법	16091
여긴다	20328
대양	25905
올라탔	31090
칼칼	31135
뭘까	16273
까칠	27044
##깍	3215
修	241
다녔	8649
감금	18033
경원	26093
조롱	14275
내달	8474
페미니스트	23203
토익	19952
성적	4610
어우	7439
오징어	12009
##출	2102
관망	21143
##ator	25784
헤게모니	25042
바싹	22709
생전	12385
[unused63]	31563
기부금	12790
##RA	11881
##훗	3519
양손	16098
줘야	6175
박물	5786
##식물	17487
끼쳤	18274
준영	22308
해병	27686
##칸	2694
심장	6036
師	337
좌파	10361
Love	26998
갇혀	11884
창의력	13054
자격증	9150
소생	15539
실험실	16841
순경	19420
클레	12906
갈라져	28269
전임	10126
코디	13303
특정인	23959
연상	7764
##다르	14367
##찌	2596
쿠롱	28220
##재해	21873
스카우트	18500
850	20467
##app	18927
회사채	13433
교황청	26295
유학생	17760
기능	4039
거머쥐	18905
승강	14629
좋아했	17027
처가	27998
쌍방	14982
공석	19637
서양	6482
박선	19609
##잦	3454
연습	5505
문창	22118
총성	27567
머물	5630
일품	16458
##이드	5102
포근	18814
남다르	20730
1917	24030
클라이	20103
교육감	6357
[	63
전단	14327
군사	4721
스즈	23965
##시고	24563
넘겨	7651
##ear	10220
Paris	27417
##십자	13181
헉	1906
오일	8292
샐러리	23231
모았	7368
모텔	17556
단절	9792
포켓	14927
##음사	27816
두께	12226
틱	1820
힘내	18332
##닥	2646
수두	23475
판촉	16190
특사	12536
잡혀	10476
지주사	17764
##특별	20000
자리매김	9973
따라붙	20500
누리	4246
##센터	9544
##륙	2607
노골	12496
붙들	13840
들어설	12741
도사리	24491
삼촌	12495
상속	8548
##흙	2876
적나라	20318
촬영	4937
##진우	24725
유민	20458
불러일으	8781
긴	646
1914	23648
LG	4326
취업률	16008
사업소	20786
프랭	14287
둬야	16684
쩡	1610
기라	22896
민	1109
훔치	16886
북대	23483
역사	3846
초딩	28883
만듭니다	31404
농림	10354
##수원	13479
씨씨	23405
만든다	17011
학기	6348
합니다	3803
ｔ	1992
기자	4055
강물	11455
유어	29174
발명품	25718
아들	4200
어째서	12531
코리아	5551
##매매	11305
보쌈	21528
틸러	30925
흥	1965
무릇	24548
았	1386
억누르	23283
法	417
제프리	29291
도지사	9035
각축	24504
영회	29818
호들	26728
광야	29156
##걸이	9301
##리스	4397
설파	26705
분절	27684
##룽지	25380
##코올	10118
##팁	3435
의미	3805
김신	16437
피디	16510
매겨	23703
동고	25438
닉슨	25551
원본	15548
들릴	17941
이홍	22584
이레	30320
낙후	14394
남대문	20675
한경	21556
##백산	24486
갸우뚱	26711
노량	22509
진심	7254
##뻣	3453
원대	9781
조각	6123
마실	11286
dog	15238
##티나	9688
살펴야	24383
수신자	29094
되살	9985
고아	13045
닷	820
체	1658
카탈	22554
농심	16239
목조	24010
타	1761
노사	6487
효도	19008
자족	20493
극작	24092
오이	10481
돌아간다	19002
이수	8416
만족	4671
지피	25630
무한도전	16722
##ere	16387
期	389
탈루	25294
게릴라	20422
자산관리	15598
다녀와	30299
##ive	15743
천억	7991
단위	5385
탈환	18116
껍질	10037
##삼촌	20953
㎎	202
못내	28504
##78	24075
經	465
주주	6322
강렬	8766
샌프란시스코	13898
kW	24350
##갱	3207
비일비	27432
셔야	9392
해석학	24521
넘어간	21848
천천	6847
재판소	9740
정은	17915
바깥	7536
연출가	19698
정수리	31086
1	21
왕권	20715
##감사	27065
유희	13668
심한	7321
어쩔	6421
경부	12079
통칭	29415
전위	20886
##끄러미	20092
퍼진	27361
##센	2563
통해서	5154
[unused202]	31702
##마을	14207
교부	10366
##au	21230
바삐	31218
식물	6330
양배추	19015
교육법	26351
토드	29138
##시피	14062
활약	5943
물러설	27860
쟁이	16214
남인	21751
아이스크림	10390
사교육비	17994
고농	25173
셔터	22865
관현	22835
서문	12034
거쳐야	13750
스케이팅	13766
국회법	20139
##tm	24207
독차지	27187
##갯짓	29088
불법	4849
느니다	29426
코치	7102
사촌	13908
까마	14757
드러났	6613
하리	20578
교원	8716
개점	16655
느긋	16988
##터카	17476
노상	25534
개체	11389
외상	11658
오래가	24437
환장	30090
교체	5357
##J	2303
카리스마	13132
객석	17181
파르	17218
혼선	19063
퇴원	15390
당은	21523
490	29084
受	273
광물	15496
들린다	15961
우루	16868
컨소시엄	11895
종신	15395
발기	18131
차인	18896
듀엣	30705
탄생	5632
탐정	21042
##ological	26923
귀농	13536
평택	7812
##레븐	20859
루머	19070
세분	12627
##네	2203
##효	2380
##전자	4284
고강	18640
중심부	20372
##보험공사	29757
OST	20885
공복	21994
문희상	31164
청원	9984
갯벌	13465
##장어	27558
の	180
##대문	8413
상여금	18102
영암	17875
홀드	25423
등원	29608
단백질	8942
콘크리트	12875
외삼촌	21754
inter	20157
별장	16767
[unused499]	31999
상하	6610
##핀	2858
독촉	23260
조각가	24743
하이닉스	11193
영화사	22976
꿍	696
꾸려	11099
##호흡	17448
힐끗	28703
실익	27514
도량	27551
드래곤	12166
음양	18417
내놓	4707
조승	22520
이나마	13299
중대	6651
법률	5075
비석	20031
정준	15350
320	16184
대일	23453
연가	26590
투	1801
사립	8362
영천	15019
깐깐	29924
떨어뜨렸	25130
분비	11534
차입금	19962
강병	24605
로라	16334
##징계	17639
서리	16397
키워야	20686
증명서	15730
의제	10175
##OU	28721
안토니	21405
돔	853
##사의	26214
유월	20149
임해	26866
영종	14796
틈새시장	29028
활기	9538
흔쾌	19095
편법	16119
적어도	6591
섞인	12391
분향소	18551
사가	27237
##캘	3424
트레이드	13338
##담	2408
말미암	14132
니	801
주지사	18470
##보라	19582
##ju	25051
원정대	23473
일문일답	29365
공립	13586
분향	16593
강연회	23316
십이	27416
사대	14086
단돈	30691
일일	9479
쌌	1341
천자	18690
가망	27908
자오	28258
재료비	30827
##샤오핑	31128
뿌렸	22637
상기	10652
담판	27181
올레드	27180
두꺼운	14649
북한산	22211
과반	12196
시즌	4161
##태영	19921
임박	13916
##찡	3100
사업단	13862
불린	19596
와이프	24271
장상	26720
뭔데	19954
배임	15108
봉제	26453
##니지	29389
현대모비스	15517
새까	27985
##크스	7266
눈썹	12698
정우택	29587
코스트	19188
마이너	9491
직거래	18024
샘물	21877
##재료	17349
사라진	9524
군단	13350
가뜩	17866
이용규	28020
동부	6369
배상문	30294
방도	22903
번번이	17935
신지	11888
##sy	19917
홍준표	9687
겨레	27262
##뻤	3534
택지	10789
##짧	3449
갈라지	20642
몸부림	16101
내몰리	29381
증가세	11695
힘써	17049
열강	22631
후대	18441
맹목	18919
치솟	9884
배회	26504
1880	30225
폐막	17159
색감	17467
##동산	20277
신라면	29167
공기	5495
탈세	16462
눈동자	12198
대주	8289
송재	29337
다르	4405
가용	24181
카바	24542
류승	25753
칸트	15614
흔쾌히	19840
##ction	23312
로렌	28206
선풍기	18516
대학원생	24354
고스	8318
마요	19720
가졌	5989
로만	25146
조부	26149
게끔	11634
클릭	11843
토의	16992
##쌤	2988
승부조작	22294
창업주	21817
태양	5275
빈손	24827
미일	24953
결	587
##다가	4795
해졌	5568
스콘	22727
귀금속	25377
##토르	28715
움직임	5504
판매점	21582
불어	13931
렌	976
##쫓	3369
평균치	27923
막혔	18963
지긋지긋	26184
LTV	24771
사료	9982
163	16559
그랜저	21029
배관	19078
와요	21382
##클린	17678
##노소	17353
노태우	19259
새겨진	15424
골고	12471
표명	8313
석방	12353
프레스센터	25037
##상부	12298
두드렸	23308
스노	13249
##윤	2399
府	341
포장	6211
개동	16613
##빚	3535
러시아	4694
유인	9372
슬램	26187
꼼짝	12630
##차례	9723
떨려	29813
쪄	1611
MVP	13539
무패	23028
교부세	24022
미역	15200
##속기	17585
상권	8961
ab	19086
으쓱	23038
##인권	30315
어리	7252
[unused173]	31673
청약	6615
##버려	12432
거장	14794
총통	26669
법관	11365
두드러지	16099
하염없이	24285
명료	17834
진지	7060
급진	14801
##유리	22910
앤드루	29097
##카페	27894
힙	1973
##스민	30188
##걱	3229
이청용	17450
##에너지	27147
##러미	13144
나흘	13887
칸막이	23842
레미	17752
##주부	20763
htm	26731
새로운	3824
##들인	13147
묘한	13446
SDI	17276
뱀파이어	25793
조용필	26004
휩싸인	24632
미납	29007
##벼락	19023
내시경	16749
송지	26656
연근	28899
##ger	20049
리서치	10555
##칵	3351
효	1942
##리스타	19566
고달	23265
사고방식	14395
예감	14592
제주도	6530
한국가스공사	29454
처신	20164
평창	6505
예술가	8560
겨울철	11218
##께	2678
2018	5787
가설	11535
제네시스	17283
보위	21955
금감	8709
웨이	9343
거미	14316
난제	21463
너도나도	30139
[unused77]	31577
도련	23027
##흐로	22443
판매자	19646
공무	14173
서태지	21140
던지	5991
식약청	24954
##eau	25744
총격	20041
실물	11558
쾌감	17581
명망	31351
~	97
반성	7309
아껴	15688
후드	19330
트레인	26511
이글	20882
김시	16944
지저	16120
배역	19713
##치락	27734
목도	29441
함석	30615
거꾸	10478
ㆍ일	16187
던가	7259
사회단체	11442
거든	4250
롯데	4324
메이저	7195
스케일	20247
##RC	27073
쫓	1617
닥	810
첨부	15359
필립스	22529
맥아	22726
공소장	26497
우체	12690
발사체	22955
res	19408
정량	24994
오토	8272
##팎	3497
부풀	10372
공모	5637
베이비	9273
데	842
울	1472
##본다	7471
저희	4940
떠올렸	14669
유형	5563
선반	22139
##yst	13593
여우	12784
카메	22087
세션	15678
대머리	26495
삼성그룹	11753
선풍	14411
##ics	17865
기품	28770
부평구	23803
신흥	10475
김영	5553
정형외과	28783
##툭	3474
d	71
위기관리	21290
누릴	9919
##ound	16752
암스테르담	30307
함께	3655
속히	28546
등기부	26532
첫발	20618
4200	29856
잡아	7726
초보	10703
심심	11174
유니버	16780
파악	4591
主	221
땀	901
심장병	22654
신설	6039
둘러봤	29260
⠀⠀⠀	17108
원천	7848
역풍	22046
윤곽	13061
기구	5255
지금껏	14100
요동치	26064
넘어갔	15474
망쳐	31363
제일	4920
내추럴	22663
지점	5530
강모	29781
##덟	3542
거센	14211
안타까운	11491
권익	11826
했잖아	12922
수문	19981
##다닥	24537
호령	25770
느껴진다	12110
##DA	12366
그럼에도	6681
변형	9172
리비	21114
친해	14379
모범	8699
##튀	2709
디펜	23494
현저	17088
황영	24815
리차	29710
구치소	19838
참석자	10706
옵	1450
cons	29280
걸로	7823
애타	24205
몰리	8591
치이	25292
겨루기	27654
##77	20569
특별상	29304
주위	5712
총기	13984
포상	12568
솔	1285
공항	4771
##권력	12383
매기	16899
차두리	28500
한도	7932
김대	7082
들여놓	20074
카시	24375
인하	5426
뤄	1010
청신호	28823
가로지르	20681
88	7215
운전자	7688
김치	6260
강습	21138
발버둥	25781
BIS	26538
빼돌린	24890
반대	4138
미화	19842
축구단	26895
나사	18056
최시	28246
임신	7452
빌려서	29226
행정부	7895
김일	8877
[unused80]	31580
청명	30357
북경	14011
십니까	7109
새콤	19833
##ss	9864
동경	11136
품위	15524
프라자	22374
쿠스	30186
##♡	3401
김병현	29080
아닐까	6781
메아리	22277
백두	11566
임파	31096
가라앉히	26345
형사	5804
닭고기	17378
소멸	9304
지망	17500
케미	19740
어가	28361
강원	4972
뻗	1212
학예	25730
어이없	15365
넘쳐	10402
줄어드	12376
계약직	15900
사전	4858
박은	19075
신학자	19907
섭리	21457
캘리포니아	10771
wh	14092
1907	22755
소요	7372
베니스	24042
바지	8802
##켠	3506
가느	22762
정태	17123
##자치단체	18758
인체	8946
플라스	9815
##호테	24840
레인보	28922
에선	4409
인용문	30851
임야	23872
좁	1557
세용	24224
##53	26462
대표자	15561
위스	29736
변국	20696
##iet	10321
##NC	18989
Bar	19170
시식	20262
##por	21504
대법원장	13777
아아	9702
줄어들	5968
고흥	15361
넣	751
갔	552
철기	31349
STX	11052
침투	11724
무단	11965
##캐스트	25878
황사	14392
승리	4644
헌	1907
신약	10292
뽑힌	21776
키위	27881
퍼포먼스	10743
블라디미르	25231
구인	13117
전직	9293
면할	29697
타고	11532
미네	11500
프랑	4377
##르	2131
숙성	14180
스펙	10511
했으며	4800
##셰	2705
서핑	25113
반공	16799
암시	10139
뾰	1222
밑반찬	20778
소각	15340
부딪쳐	24767
Power	28739
동남아시아	15376
측량	20366
무장	7747
##폭	2277
과감	7437
꾸미	11744
##긴다	7617
자	1517
피겨	13552
신규	5089
메이지	20340
갱년기	22135
[unused317]	31817
배웅	23777
야산	21297
처해	12588
세포	6603
##스트로	26169
[unused172]	31672
다빈치	28156
솟아오르	29251
집계	6602
기댈	31075
##테이션	11001
부릴	25169
로부터	4108
기지개	25907
심사숙고	29376
드레스	9605
[unused121]	31621
##루엔	15124
교류	5459
침범	16223
실패	4717
바쁜	9064
##트릭	20246
달라진다	12462
치러진다	29643
필라델피아	22080
표고	22796
국민	3735
발바닥	19643
어루만	18871
지리학	30718
리필	22436
위로	7587
원활	8262
시끄	11092
서울역	17471
상보	27787
대학원	6798
설전	23808
진짜	4229
넓힐	28620
올	1446
숨진	11197
심포지엄	15712
모티	24055
드로	16148
299	28964
오죽	16801
Mon	25560
라던	16497
줌	1568
잔뜩	9114
실형	18267
순리	25508
성과급	17208
##리나	16794
도주	13682
집중력	10742
아마추어	11756
##조합	6398
첨가물	23608
제고	7928
la	20563
급락	10540
모닥불	30710
밀어붙	12225
시켜	4212
툼	1805
##배추	18069
Chris	25963
B	38
낙서	21867
인텔	13492
병들	21162
기웃	23163
단종	20315
말년	21409
역할	4008
장년	14285
역내	20071
##교도	15126
연주	5485
추운	11385
밸류	20530
니콜	14745
이리하여	23113
사이판	30556
울트라	19339
고개	4783
마무리	5029
48	5552
종말	11607
양조	21145
배기	13112
그만	4416
위한	3694
나돌	18160
남성	4576
어지럼증	30301
경각	21745
수컷	17643
파운드	11139
[unused130]	31630
칼럼	11497
영리	9391
車	503
##i	2014
기쁨	6683
일단락	27230
갱	563
느라고	15619
지긋	19358
칠곡	17189
고시	7996
IS	8374
무허가	26128
##릅니다	9260
테러리스트	23108
침체기	28535
손가락	6568
예탁	20720
##wo	28021
뼈아픈	27712
##났	3166
곤욕	27255
촛	1667
단어	5591
##ust	10550
고품질	16680
매직	13362
##케미칼	17837
밸	1134
왼쪽	6561
멸치	15715
증여세	17032
빚	1194
느릿	25917
겹치	13110
재취업	19225
로제	26014
이한구	26040
천연가스	17905
성심	22146
찡그리	31434
##력	2526
취항	16573
미래형	22552
##다니	6047
루니	26586
만일	6412
##둠	2647
억제	7546
껴안	15322
낙점	22164
지멘스	31254
떨어뜨린	30536
##힘	2622
##ise	17953
마닐라	29023
해소	5343
사교육	9880
##😍	2805
##혈관	26714
탑승	9756
132	15664
놓쳐	22719
二	226
재정부	8139
구매	4625
수급	7418
절기	25321
김해시	16629
##학파	26933
란	944
신일	28036
##쟈	2654
호황	14303
다이렉트	25198
위즈	21040
##볼	2345
##소타	25660
도쿠	29433
기울여	9983
어서요	24483
남기	6804
시행령	10918
친문	26688
##준혁	24615
##여	2173
손발	15842
미디어	5127
결과물	11693
힘쓰	13460
집요	16151
EP	15760
강우	21424
편곡	22347
재현	8620
항목	6749
##ok	8191
저서	9698
##orea	11643
금관	29038
매카	30943
아쿠	13707
뛰어드	26478
227	27981
나아졌	27552
두통	18844
저격	16768
계명	12622
지나갔	12613
즐거운	7924
포문	26296
방울	11281
비탈	22461
갠	560
노예	8121
행실	28943
독약	30871
統	464
##43	22928
권	627
언행	17713
선례	23348
함유	8158
그래	3672
##old	14283
컴	1715
기폭	28460
가액	15370
배우	4165
나아지	18241
발포	23598
##우병	18403
##체육	16356
이륙	31389
박미	26730
보험자	28197
의심	5292
##이	2052
경차	22014
돌아온다	18902
명실	14521
남양유업	25665
##잎	2235
##넌	2360
으실	15932
한다니	29820
가이드	7861
water	30347
Econom	20464
교시	19468
위시	22185
장모	15536
북서	20332
속눈썹	20441
임창	17703
##짜	2244
##민정	25200
15	3749
스윙	11625
독대	28792
압박	5952
숙인	23916
꼼	679
특	1813
디젤	10992
중장비	30945
훑	1946
한강	7718
해진다	7723
자상	19262
두말	19691
우주선	19969
싸이	11065
옌	1440
History	25122
폭침	28659
부러진	25005
##에르	12242
##빛	2753
한입	18324
##26	22024
Top	28611
뭉친	24339
##유사	21027
Te	29486
따라야	18105
##선미	24821
전원	6468
[UNK]	1
이해	3923
수성	8878
행사	3925
용해	28516
둑	865
낀	714
ㆍ전	20113
보름	10454
Ins	20172
살릴	15009
김만	22136
오미자	23504
소설	4393
##☞	3406
아기	5346
보안법	17533
일변	25446
신해	26802
적대감	30392
치렀	13566
헤지	12375
좌익	14495
재무제표	17600
##거래소	25239
##보감	24694
##마당	21001
유출	6554
도청	7900
심리학자	18849
공천	5492
SBS	7164
day	30577
진드기	24520
텝	1790
번복	18185
초콜릿	10524
##30	7556
아미	12096
다신	26024
뻔하	18988
랬	959
드	878
비록	5771
과열	12161
미쓰	14907
또한	3819
열흘	12191
대진	21345
✔	164
화목	22470
##대포	29117
징검다리	26124
##지오	13758
##ier	15431
트이	30458
동메달	14498
개	558
마니아	13276
🤣	2004
프리랜	24552
2005	5656
숍	1293
상근	24024
비열	24415
최고령	26618
묵묵히	12943
은유	15416
터졌	13260
古	275
숙종	18801
조진	25056
찰칵	31014
다를	7673
산림	8214
##셋	3136
資	501
명사	11715
어쩌면	6869
어려웠	8503
사귀	11679
실수요자	15385
눈부	11570
양면	14469
저층	27430
천시	27597
들뜬	24044
IC	6715
##국사	28008
##㎎	3571
혜화	30337
엇갈린	23391
❤	166
댔	829
##뮬	2830
우상	12032
추후	13397
신시내티	30195
[unused252]	31752
균형	5238
버틸	18864
##스태프	23214
개강	25722
판권	28177
st	7982
##EN	23500
포고	21510
##OC	8952
기아차	7476
공격	4283
##테크	8055
직결	12696
종식	17014
성안	27655
꼴찌	14813
못한다면	15110
포상금	20648
242	29166
잉글	10330
아사다	30367
제갈량	22725
활발	6062
독일군	26177
욤	1467
박주영	13580
뽑혀	30545
부릅니다	29925
223	28747
의지	4659
폈	1859
벨기에	13214
기본기	27809
도식	18869
망국	31494
FDA	24236
##OL	29091
봅슬레이	30042
계단	7328
포스코	5853
아시아	4501
소비재	18872
요점	25276
양육비	28217
스펀지	31141
어울렸	26970
댈	826
##껌	3350
기조	7898
오히려	4312
##갈	2577
김병	9697
##축	2174
수백	6843
팩토리	22236
아이언	14424
##쎄	3378
식생활	18313
##물살	26113
뱃	1136
포터	23232
시장	3648
구요	5163
계	593
청주	7959
곱창	14979
郞	511
아니면	6342
##탄두	31177
##직	2084
침입	10423
거룩	15174
##은이	6176
##ense	29855
##렴	2271
議	500
착잡	27767
음	1500
징계	7352
사이드	12490
배경	5118
##가드	23736
치가	15364
목상	26783
프란치	21866
##영향	10925
였으며	7636
바흐	18252
##iation	23449
호프	16773
냉방	18947
화염	19751
부록	23611
여심	29477
장기	4376
클렌징	13408
경과	10663
내실	15276
비틀즈	29830
재추	25342
렛츠	31413
OK	17129
성품	15156
##ers	6314
선호	5877
유저	12640
방점	20794
승천	31457
쇼핑몰	7576
사들여	22854
스님	6058
학비	16738
시킴	12902
##ea	7322
골든	10202
쏟아졌	13230
서경	16196
##볍	3455
남경필	16482
레깅스	31327
156	15356
노사정	17800
지인	7707
엘프	19027
베라	25411
한자	9554
U	57
전자파	22283
매운탕	26977
허점	18263
##제철	11113
용암	25277
솔루션	8463
154	14162
방바닥	24839
유아기	28982
쉼터	13819
수사대	20122
종금	26297
##ㅋㅋㅋㅋㅋㅋㅋㅋ	14502
단군	13922
전도	9532
움직	4247
마땅히	13697
영희	24695
검토	4513
시원	6005
朴	393
그로	25687
KDB	18393
판화	26596
##95	21946
죽여	11287
군것질	31228
##뱀	3206
교내	14473
##녀	2306
청와대	4449
대제	21689
원세	22214
프린팅	20108
시티	6088
착용	7845
##여대	13826
간질	23670
China	28116
패션쇼	20519
##으	2279
JP	19857
동서양	25843
후끈	23797
끌어올렸	18398
청계	12714
양보	8745
파생	10934
작업실	19121
인력	4862
강성	13272
##꽁	2864
프라이머리	28290
무효	8991
엇갈렸	23297
불안	4732
이종	7545
다우	15293
템포	25507
동성애자	23829
약제	25395
지니	6067
책정	9833
막스	18954
강석	22982
가성	18008
지켰	11118
유령	12424
필적	27991
투르크	30001
기관지	16524
로저	23903
최대한	5939
강유	25015
##검사	30224
선입	16233
어원	23490
이정미	31060
베가	30235
외벽	20132
중대장	30067
사스	30968
##메스	23633
라곤	16315
여수시	13480
ㆍ경	26961
힘없이	21999
라덴	31362
운전기사	18127
너무	3760
미수	15106
노화	10894
시큰둥	30303
통곡	19750
대해	3643
거래소	8070
진성	21485
일어난	6657
종국	28115
찾아가	6083
초등	4885
##OS	10856
직사	26491
농사	7527
느껴졌	9306
찬찬히	22348
매표	26419
생각났	18958
의복	21980
성희	13923
용의자	13277
주재	8361
##ㄱ	2422
##랜드	3929
측면	4859
##얼	2617
아우	6164
갑작	8748
쓸데없	15397
펼쳤	8566
토막	14435
따분	28767
##코드	14393
로빈	18512
##BI	18009
해안가	30063
사명	9331
##내셔널	13814
MC	10099
##ol	4634
띈다	12685
社	451
결부	19395
##유진	24663
다면서요	23604
##어넣	8160
##북	2547
지나간	13985
##ㆍ	2022
현미경	21897
박지	6930
원지	29746
귀여워	16612
##ulation	31471
여주인	15379
서대문	15655
[unused41]	31541
##택시	22539
테슬라	20717
저마다	11402
##흩	3558
##one	11814
##nal	16833
요람	26402
압축	10930
##맥주	24279
年	340
##뭉	2693
두들	16390
##ar	4092
풀린	20541
3200	24760
잡화	22273
잭	1529
못해	5794
발주자	26284
##11	14189
통기	23693
아세요	21183
##치마	22444
##멸	2820
##마다	10598
##art	8443
새만금	17440
최진	15239
노조원	17209
##하이	13957
스마일	22475
마오쩌둥	24612
채취	11454
수십만	19140
애슐리	27904
그니까	5785
OP	20808
##쾌	2809
돼지	6060
팬	1839
##스카	10734
[unused207]	31707
구사	9622
일자	6846
궁녀	23429
깊	652
저렴	6206
##팻	3550
리전	30553
개교	14218
봉사자	10342
##iron	28968
지훈	23103
속내	14723
야영	27535
##휴가	19605
아트	6508
시책	12767
죄악	19978
굳건	15696
상용차	31474
면세	7572
김종필	28145
춧	1678
Free	31443
감성	6672
75	5951
스킨십	28548
관자	29170
짭짤	26137
확고	8763
내재	10903
충청도	19747
무형문화재	22123
이요	22195
보톡스	30247
즐긴	25252
내보냈	22199
##믄	3199
역발상	31069
여주	8804
심재	18416
진사	23897
이문	16149
##vern	27043
구용	29125
불법행위	16252
줄였	12800
##ould	22209
##스토리	29645
다운로드	14071
챔피	6252
포스코건설	16761
박태	10764
##컥	3037
포르투	11926
태세	12701
분식	14436
습지	12499
조심스레	21645
둥그	29072
무인	9173
대검	12401
대체로	7663
단추	14229
밀레	16016
##버릇	27035
민영	9375
강점기	13548
협회	4760
##펑	3195
##캔	2950
동행	9217
##세우	15473
KS	16071
갖	554
안과	22971
어처구니	17234
계곡	8858
세월	4922
임종	13116
소피	26451
##스타인	30794
##아졌	21142
캐피털	17584
웠	1480
로망	20797
납부	7954
담	818
남학생	16306
차차	20433
##랭이	22858
[unused423]	31923
서비스	3838
매출	4270
국문	15643
줄기차	25639
아웃	6826
쑤셔	29405
공학	6745
라면	4002
대자보	30972
여인	5981
블룸버그	19576
##닭	2836
##보도	27963
푸른	7219
영속	27515
난조	30998
##ii	25364
발끈	24241
전격	10235
이면	12289
##텔	2659
말소	23184
동시	4213
아부지	26218
편백	26625
붓다	27941
인기척	30495
治	416
프리미	5770
##험	2663
필름	9657
성황	16268
기념행사	19583
홀리	20370
오영	24099
해야죠	20349
수칙	21193
한남	24693
존재감	13340
모국어	26417
권위	6642
no	19665
견고	13529
7	27
윗	1488
중원	13657
주걱	28570
남동구	23866
나뭇가지	16033
##ays	21954
패기	24054
##퇴직	15150
GS	6860
철폐	13074
ㆍ현	26143
들어선	8546
튕겨	24178
##낫	2458
추모	8212
럼	968
개발	3720
부여	5173
##aily	9660
대리인	13573
##금니	29920
알아채	26776
바로잡	11022
대응	4509
생사	15624
불량자	29708
##공간	29107
네스	23944
이사회	9314
상표	11432
##긁	3394
후기	7541
탄식	16839
토크	9157
참석	4391
뒤돌	17327
가신	22830
선선	24368
[unused40]	31540
##야마	12950
파도	9241
몰려들	13868
백혈	17078
투사	17179
칭송	19351
##부림	15223
해왔	19540
묵직	16161
안정	4262
八	250
주어진다	14799
치열	5837
##랄	2519
때론	16084
표방	12402
저감	14421
완강	19996
불식	21182
int	20641
손녀	17662
##솟	3362
전두	11808
Ad	14219
契	310
아쿠아	17771
스모	19572
지아	20986
##산지	24440
새하	24667
최철	29649
표창	11892
정겨운	30236
굴곡	20761
모아야	23300
화난	28978
흘러내리	20120
터스	30374
싸웠	15222
옮김	12231
사업자	5539
비켜	15516
지그시	28275
초고층	22301
디즈	13926
##라비아	14131
접대	12761
사막	9673
맴	1053
구도	6985
수준	3921
갑옷	19174
##쐐	3344
##어내	7927
마르	5906
무함마드	30445
체인	10571
임시	5937
담가	20985
노회	17539
물려	9449
스퀘어	14680
영화관	12742
##냥	2995
얀	1398
만난	5271
투기	8527
격변	29106
##뺐	3578
라지만	23102
부시	9799
스마	18419
신수	29294
시일	11733
보통주	26666
라딘	30695
전집	15146
품안	18123
##통화기	19365
흐르	6134
##코스터	30361
녀석	6144
뿌듯	13349
160	9712
라트	29980
일렉트로	23681
형편없	22314
##넋	3576
##코니	19185
##에다	21652
맨	1052
으로서	4220
Li	26966
##룽	2826
파이팅	21317
평탄	28096
동료	5604
##톨	2777
환희	19565
전자	4299
세웠	7068
경관	8978
文	373
지루	9734
야	1396
##봉사	20069
아브라	20861
나빴	26727
머리말	28449
Eur	23569
귀	630
##레이	3930
##세이	11205
잔존	25991
남달	27758
고소장	29532
성악가	25824
##그머니	17745
도내	6950
물러났	15348
제주시	22492
넛	750
성공	3920
고치	9995
회수	7883
호기	6564
질투	12122
이장	12972
절로	13353
갔었	16330
##놀이	8913
대교	12116
늘어놓	12775
##iter	26825
죄	1562
거느리	14883
##돈	2765
처사	15813
01	8671
쉬우	27689
그쳐	15558
해냈	12631
볶	1162
##녹	2912
시내	6011
스웨터	28563
필사	14664
게으른	29505
간선	21256
아까	5663
포워드	29810
다산	15803
청했	21790
꾸며	9431
백조	20933
치	1689
##99	19748
계보	21264
맹렬	19627
행인	20339
김기	8236
발아	29336
현대인	11443
##미안	14650
피서객	28735
침식	26415
하룻밤	13948
##롱	2498
과천	12319
습격	15324
안주	9570
왜소	30830
##나물	10632
흘러나오	15544
펜션	16185
바로	3785
예순	29704
이점	14514
㎜	205
애착	15557
야경	17855
모일	30064
타입	8800
눈치채	27081
##익스피어	18078
##ㅠㅠㅠㅠㅠㅠㅠㅠ	25083
입항	25539
##㎾	3601
나이프	29352
나선	5120
허름	21906
재빠	22450
겠다고	27940
투표소	21827
거칠	9843
##멘스	27374
휠체어	14699
士	303
혜주	28319
석탄	9817
##ilm	29103
[unused326]	31826
##숲	3262
##감독	22551
혈중	22523
결탁	26833
당구	28323
##berg	25609
##훈	2034
##엑스	11812
화주	27808
도래	11517
자진	10909
난다	7857
거액	11957
침팬지	28557
랍니다	10834
굴뚝	18007
포대	19708
치수	25603
킴	1758
거머	14636
뒹	875
제후	19278
확인서	30043
견	586
폭스바겐	14645
정해져	15770
주장	3831
대내	14768
넘	749
##ience	18017
유람선	20880
매우	4230
왔으며	15946
실시간	7665
감흥	28918
나니	21067
라비	30975
노동당	8719
마켓	7931
다닌다	19321
##쌍	2686
버스	4942
농법	27716
유종	24909
내게	5863
회사원	16501
꼭꼭	24357
임자	24794
병마	25956
여서	6901
회견	5549
：	1986
##느질	23535
스위스	8251
테헤란	26908
pet	20590
학원	5266
원생	24411
케이	5157
온화	19429
나위	16360
맴돌	17079
[unused467]	31967
##민주	12095
그만큼	5569
문정	17937
KIA	7220
제조사	13333
음반	8842
레버리지	24457
허브	9022
사옵니다	16429
붓	1179
특정	4814
들어줄	28869
드러내	6038
불순	18705
유시민	20348
꾸준히	5619
파드	30410
％	1981
색소폰	28065
프란체	31455
##비엔날레	27812
소송	5023
신세계백화점	17367
함평	21623
키우	5688
아나	8496
전조	23421
안절부절	27087
##인지	8969
East	30996
살아남	7783
유사	5670
극찬	17452
##의사	12733
하야	21385
##하하	22197
승용차	8960
급증	6757
##몸	2895
긴밀	11694
천문학	15677
압수	14510
밀어	18306
도당	11502
볼보	20837
할게	25043
쉰	1308
식물원	26111
지났	8679
왕위	13269
트랜스	17811
턴	1779
나타나	4621
##어링	21416
냉랭	27566
찍	1626
마르크	25678
혜진	28720
조정	4221
손꼽히	16705
골자	12017
정확도	23243
호미	26780
찬반	12303
쇠퇴	15000
##사스	11538
##철도	13784
권력	4730
수월	12322
넷플릭스	23026
187	11132
인승	19066
헌팅	31168
##툼	3436
이사	4188
통신비	21360
세라믹	23707
여학생	10588
혜	1925
뀔	702
##중기	22117
오더	25538
배신감	25685
논거	25307
[unused213]	31713
엄격	7233
##존	2869
지름길	17537
중앙선	17977
濟	421
충돌	6563
##그레	13183
자문	6842
AFP	24495
기관	3860
과소	20020
철원	17534
잔인	11103
지각	8955
찾아낼	21943
##지물	22255
휴전	15719
수돗물	15931
정반대	12750
민속	10347
영아	22031
근성	28913
눈썰	31122
위대	6592
##아버지	5866
사슴	15387
허덕이	21587
현대사	17019
##일체	19368
보합	23502
[unused234]	31734
##니언	21531
내려놓	9572
평양	7141
재임	12658
독소	18031
레오나르도	25091
[unused60]	31560
능	797
정착	6587
##공개	23083
우미	27179
바른	6417
##경화	30913
[unused477]	31977
아리랑	12197
흐름	5203
##커녕	10575
촌장	29805
海	418
회로	13063
##보기	24374
은행원	30123
슬퍼하	21226
氏	408
##지사	6721
당직	19046
셔도	15099
엔드	26256
강요	7318
탕진	30069
주연	9529
너무너무	15179
로웠	19388
드러냈	8125
고안	14465
풀렸	20205
됨	862
##괴	2629
국회	3906
소매점	28518
##ush	30838
##몇	3325
속상	15405
싸이월드	31485
##구나	6074
##해하	20676
논밭	27702
한화건설	28103
대주주	9608
분포	10339
든든	9726
##쭉	2828
대첩	29248
정류장	14602
다그	21136
##aby	23794
밝	1124
밝힐	13594
숙면	25512
아슬아슬	19473
압류	16862
국사	12418
지질	13282
마셨	10692
유승	9666
체전	13325
조림	20670
##라리	7184
대학	3723
묵살	24600
운송	7642
해양수산부	15995
[unused218]	31718
##식간	9247
굉음	27675
비빔밥	15764
주행	6816
##9	2236
교란	18854
##공주	22465
뒷날	28432
[unused372]	31872
로즈	13257
사연	7871
도로는	21526
##스티벌	7800
찬양	13597
영구	10296
연필	17411
도움	4144
서서히	8364
속하	8770
진행할	12150
남해	12358
이창	12172
당한다	20724
톡톡	9645
##6	2248
인허가	16805
장내	17796
건장	27977
[unused96]	31596
네덜란드	8445
##세데스	18743
상민	22800
귀감	29600
##악	2376
발달	5903
##충전	29730
카디	19679
혹자	26922
저택	14363
브래드	27526
프랭크	20024
기틀	18895
저널리즘	17197
땡	908
불화	15230
春	380
시방	30239
어려움	5117
##냉	2576
약탈	15599
##웅	2564
##동	2328
리처드	14407
취한	10783
공적	20454
면회	17212
가맹	7737
치유	7935
##멋	2937
볼게요	17002
쓰리	17756
과하	20171
상대국	26724
##가와	18474
직시	19363
철학자	10301
상점	11806
##용준	27992
액체	14306
나타낸	15937
아킬	23555
##늄	2708
소국	29434
강팀	23388
트레	10479
회의실	10917
불합격	26585
침울	29100
잡음	18373
연료	7297
지내	5958
더더욱	14236
##꿈치	12467
##데스	11106
메트	31391
##종	2033
[unused189]	31689
가까워	9421
향상	5144
체인지	18076
발라드	20636
##덩어리	21332
CEO	6191
위해	3627
후자	11482
세균	10969
고고	10281
김포시	19888
이것저것	13377
신비	7635
레슨	20920
David	24755
##수지	13331
선대	11476
총탄	27142
경제력	16088
스터디	17034
진학	7193
좌지우지	22362
갓	551
##ON	18946
논점	31120
끝내	6145
배고프	23044
난폭	21917
울릉	11737
미쳤	8760
가로채	30312
들르	22345
가브리	26424
분홍	16143
그제야	13368
약혼	16930
방산	18047
면직	27524
나고야	27827
와해	23254
셜	1278
더라고요	6376
보정	17280
신관	21558
송년	20333
봉산	25589
111	13030
조선사	22175
##콕	3012
경선	5918
병사	7009
빈도	12764
거닐	21000
82	7569
중령	22569
까지	3610
대량	7679
겨우	6462
항암제	20858
청구인	21718
치를	14522
##ward	21181
혈당	14114
장점	5472
고고학	22875
누른	30171
##◇	3478
ATM	23372
태양광	8057
돈가스	28033
《	170
107	13752
170	10833
##lect	21305
연기자	12851
[unused436]	31936
갈아타	20308
윤증	30969
시비	9436
채택	6279
김연아	10154
유두	31387
아랍	9337
연구	3692
바위	7076
씻	1374
어울림	22747
PL	26267
Cons	27518
체육	4856
##mt	30630
임대인	27301
술술	27620
내진	20142
하토	27604
世	219
소지자	24830
##MA	11721
야간	8478
굳어진	30078
일러	11393
과오	22260
중사	25851
형상	7530
미행	26870
##려면	19644
선거일	25340
그친	15080
우열	27685
남한산성	24185
성장	3877
테오	27330
##떴	3484
##GA	12170
단상	21881
℃	124
반짝	8727
시험	4448
계주	23554
아시아나항공	14778
샅샅이	24062
맞출	16958
사토	26085
떠나가	26237
어음	9651
기후	7147
맞춤	5987
##마음	15826
[unused291]	31791
발자크	31458
##뜰	3188
엄지	12509
모닥	30699
근처	6328
쾌거	20374
꿈틀거리	27641
국토	5222
기술원	14419
부하	7904
카이	10640
완화	5364
##★★	23263
선종	22086
냉담	25908
구불	29068
부대찌개	28951
컨설	6703
곡	595
적립	8767
##황	2334
청장	6247
##IS	7554
지반	21924
보전	7649
투박	23997
일부분	16400
미개	25394
유혈	26341
끼니	18579
##진다	4067
##복지	24779
##그네	14404
갑작스러운	23109
257	30612
이런	3667
70	4531
의장단	26749
愛	359
일용직	26455
##아	2227
[unused446]	31946
브레이	26094
폐기	6544
지식인	9803
태워	13920
평지	21798
굶주	14718
##om	4434
곧이어	20460
앞길	24405
떠드	29349
준호	30075
반응	4555
복권	13313
웅크	19500
[SEP]	3
퍼트	16346
쓸데	12962
시리아	10074
##차	2232
쟁탈	26298
원목	27280
직선제	20269
알칼리	29086
화천	20396
거의	4167
산양	23417
##둘러	7713
구형	14667
방파	23627
콘서트홀	30342
하마	15434
교대	10738
적힌	12903
##세웠	21851
기법	7385
켜	1723
자면	5717
적기	25697
작업장	18926
금	641
디렉	18834
定	320
으면서	4618
코어	14317
궁예	25080
자연히	14697
즉흥	18915
본다고	24386
나프	31240
삼월	22445
중산	10048
심화	7417
괴로움	17515
펜	1852
샴페인	25026
##ffect	25819
오산시	25795
마음먹	13052
꼼꼼히	10422
텔	1788
사인	8377
스테인	19557
##뜨릴	15026
부락	27092
현진	28185
투스	18643
1998	6813
맞췄	14115
[unused147]	31647
앞두	5018
교통비	24685
ㆍ공	19138
아닙니까	8652
이걸로	23698
블로	12351
발랄	16303
김도	17337
참가자	7197
질량	21190
Le	13339
##치	2225
모	1078
맥	1051
청순	21477
네이	6636
트램	26210
##조각	19795
FT	19505
부제	17873
떠맡	23853
서두르	13419
릭	1029
##타	2256
권단	13425
산악인	30295
장혁	30562
배추	10381
겁니까	10541
휘발	11689
송이	11938
귀여움	29227
都	513
전반기	16422
링컨	17358
전함	26931
도미	12771
온난	15527
##가분	27746
감찰	11473
CCTV	10030
마수	28010
물러	5724
유가증권	13175
클수록	28235
직업인	30052
III	30116
동의	5187
꾸	689
능력	4053
##ℓ	3582
인들	25063
##────	11828
BIFF	29296
상담원	24886
##톤	2634
베트	5580
프로야구	19344
145	14383
촉각	15329
부원장	21011
바디	10599
연수구	23130
뤘	1011
포트	8180
헬로	17868
##훈련	12367
따질	24023
배울	9402
양주시	22398
고려사	30983
반반	22459
목장	17299
대관령	23813
##말로	5466
수직	10566
수혜자	20522
㎾	211
##되	2496
덧붙이	21571
슈퍼맨	21904
ㆍ성	30817
범법	29326
아벨	27900
갈리	19772
위탁	8190
합니다만	24510
신나	9716
두드리	13385
j	77
##뭘	3522
훔친	18707
랫	958
KI	31436
설화	11016
사이트	5274
신령	24129
무	1088
모의고사	15981
집	1589
##틸	3043
어두웠	30143
부르주	15828
삼위	25418
차트	10016
##타오	21755
징	1591
남길	20206
Pe	22628
##봉	2126
불현	25123
으셨어요	28897
##48	23281
쇄도	20141
까맣	20154
성행위	27144
철광석	21369
영업자	30793
풍토	15194
레저	9401
거기	4370
둘러	4791
##재	2070
크루즈	10184
미나	23414
오르막	25545
하키	29079
댓	828
국론	29838
이낙연	22668
바랍니다	9434
취소	5974
업종	5742
혈연	22851
냐	740
전류	22193
동남	7075
##기름	13643
경실련	21916
불러일으킬	25031
끌어들여	22576
모성	17571
條	398
김성	6576
넘친다	26919
격분	28124
편	1856
콩	1733
##빠	2574
시인	5362
풍족	25189
미흡	10042
도형	24863
반사	9248
가혹	12359
세워야	16786
기념회	21418
##눌	3158
절절	24319
##좁	3532
마주	6198
도전	4726
향기	8118
나폴	12859
담아내	17433
귀속	16626
##탄올	29679
농작물	17728
##EX	26228
버디	11269
AT	13219
재가	18780
간헐	30840
##iness	18768
수표	13559
양극	10671
극동	16847
구술	20527
보여서	18722
놀림	27036
##미	2044
시간대	18374
회상	11266
휩쓸려	26045
325	29691
드래프트	19038
##지배	30267
빼앗긴	19215
이끌	4597
아이러	14331
##사인	29141
전담	7971
패러디	17566
보좌관	10832
조달	6808
##롯	2877
저자	5750
약수	21911
예물	26871
귓속	29153
퇴근길	29065
문성	18269
로버트	11907
it	16050
해칠	28830
차액	20117
상법	15081
방치	8095
##농	2630
넓히	11673
가파	11383
완주	16039
감춰	18769
mod	23269
Inc	25758
재앙	12675
##얗	3373
느낌	4307
폭동	19487
매장	5077
1992	8442
메모리	11330
느려	22425
높여야	20440
어쩜	20878
소문	6327
가왕	22267
아르헨티나	11214
거두	6387
친형	30097
쬐	1619
지와	30390
AC	16047
##짙	3524
제격	16997
법률안	20738
번	1141
##쏴	3456
디디	27299
[unused379]	31879
부친	10950
노크	23341
사병	20759
혜안	26082
출산율	22729
원전	5731
대북	6308
일전	19318
##만장	21329
날아다니	24317
스토리	6354
활동가	15216
엇갈리	15906
전년도	24388
##나르	27146
[unused82]	31582
야당	5178
감독원	10673
먹거리	9542
##랑이	7727
박신	24801
선처	30277
의사	4206
싼타페	28200
강자	11265
##끼리	12804
헐리	26135
instadaily	25757
##국장	16323
##겔	2101
약화	9104
다목	22318
하락	4720
기름	6565
##ore	9633
보낸다	14352
불협화음	28998
갈릴	17538
Day	27528
양동근	30189
가평	12253
NP	18931
개인주의	19275
브이	16277
드려요	20469
토니	15459
쉽	1311
피렌	23250
660	24964
포르	8419
Do	26234
청소년	4857
##61	26421
철쭉	27885
메르켈	20510
1894	26891
대비책	27341
장단	10890
지나가	7129
##뿍	3514
예비	5251
등본	24838
요하	15965
NIE	27753
##택	2467
준다면	16324
법원장	24661
전월세	27149
펼쳐졌	16726
손아귀	26779
박영선	19845
신데렐라	22488
매달	6018
욕망	6444
이규	14827
볼티모어	26820
Me	18530
정개	31152
감자	7860
24	4056
어워드	18085
할래	25541
촉매	19916
문파	29340
교수진	28743
느껴	4975
소연	25768
비유	8550
아하	9493
울타리	13047
었잖	18692
자괴감	29049
나서	4718
독자	5086
평론가	10212
상층	24761
##텁	3511
##IP	10393
##히	2468
##클리	16228
놓이	16112
우스갯소리	29914
사드	7203
햇볕	12160
[unused203]	31703
쇼트	12254
##왔	2907
같	555
증축	16604
스위	6799
아이슬란드	28111
##예산	18212
닥쳐	20201
김석	15609
면허증	27498
요즈음	17466
수익자	28471
중앙선관위	29870
정조	10317
Sh	11551
치른다	16378
잠자코	24017
##펀	3039
샘플	15107
껍	670
간략	16522
사와	22568
##유키	29795
형광	19417
우르	26447
페트	21176
支	367
나우	23841
여류	30365
##닳	3600
##첩	2619
쓴맛	29066
전설	7769
야유	22489
228	23393
녹	767
브라이언	19464
동작구	26861
적당	6701
페르난	29279
재킷	10224
파	1826
요식	29449
삼성동	19431
고위급	14376
발부	14536
치고	22167
제리	21767
주검	24263
##검	2736
한화케미칼	29272
산파	29748
다이아	11446
촉감	27512
소란	14163
와사비	28052
하도급	12361
임산부	14390
##eb	15412
래	952
떨어진다는	20105
읍	1501
늠	796
반역	18170
신자	11133
##북도	13191
관세	7258
융	1494
##맞이	14567
항만	8796
낮춘	17957
골다공증	24091
굴절	24414
훔	1947
매번	10345
들어와	7107
##도사	27260
양도	8931
관용	15402
박진	11946
HS	20255
알아듣	15575
사찰	8220
항복	13221
이리	7026
채워져	27306
카레	13914
미지근	29765
동래	15742
조절	5857
도리어	17338
메스	22172
식단	7539
고해	22222
살림살이	23000
재작년	27463
##ian	10129
쫓겨	10781
[unused197]	31697
드린다	9890
재산세	21013
용두	24175
발해	18765
##훼	2480
동사	11940
유람	17174
미티	30071
참패	18650
간간이	22567
2015	4912
und	15452
내원	31182
일조	12980
is	11376
찾아갔	13138
레벨	12217
위자료	22363
동화책	24045
담수	22156
화합	8412
##곡동	13506
꽤	687
##은희	21517
생산력	24108
약재	21199
##져야	7353
몰입	11306
##심	2361
東	395
채널	5748
간식	8381
돌이	10664
피임	23741
앙	1387
북조선	30885
셔서	7133
관중석	24359
백종	20577
상아	27089
김건	27892
##망	2087
기업인	10167
제방	20088
인쇄	9017
탭	1775
치우	9586
폭로	10445
어찌	5470
##노동	18699
캐리어	22406
하오	25683
##명	2211
##tive	10148
펼치	6140
영빈	29029
팽배	20067
##손	2390
모던	12981
상상	5025
후발	23868
나타내	6269
구위	30156
하이트	16290
나왔었	28949
약세	10936
가져갔	18735
거뒀	8734
오른발	18934
어렴풋	21638
뻣	1214
어질	26717
배영	29184
##온	2130
##항공	6955
타당	6997
셀프	12240
교과	4923
직업훈련	28575
구로	12648
방역	12133
프린트	17107
[unused328]	31828
500	4667
능선	16333
때려	11635
영조	15837
##으나	4381
추워	18064
있	1513
중년	9412
##랬	3219
[unused294]	31794
하시	29062
갑상선	18486
이천	16781
소화	6053
냉연	29161
##벽	2710
메뚜기	31243
속출	14931
슬림	14976
산산조각	31319
두어	14492
모면	23612
for	8672
수학	5193
수선	18930
##덤	2840
애스타	25362
먹방	9225
과잉	8647
숨기	10425
플라워	17960
레인지	29840
[unused69]	31569
오정	20830
효능	12276
은근히	14638
안종범	25974
쪼끔	15923
책무	17089
신분증	17832
미숙	15007
에밀리	22264
살려야	28049
흡수	6919
##ficial	22018
니트	14874
티셔츠	10878
박석민	27066
타도	25482
였으나	9133
무궁	13093
쟁의	24657
##회의	7288
목구멍	23285
간다고	14381
애드	26817
검은색	21092
쯔	1623
리메	23221
##굉	3385
어부	17017
意	358
##79	23700
바빌	25566
거미줄	24083
지네	30468
[unused275]	31775
대부분	4057
우후죽순	29306
표지판	18536
##진보	11296
성완종	23170
##の	2769
중종	22821
여백	24167
건성	21253
둘째	5532
재상	17738
유빈	28760
커진	14305
니당	22710
##댐	2342
연이	9913
##계약	18600
대통	28276
영광	7430
양태	22194
인칭	26380
오재	25938
파나마	26663
별반	21320
350	10906
장판	25382
나빠졌	27317
차종	12139
마차	12140
##음	2053
악몽	14145
##est	8119
관장	8645
한바탕	16543
의왕	11950
완성도	16308
무색	15757
익	1505
보라색	24682
뜨	930
빛	1195
슥	1317
가져다	8999
여단	20856
퉁명	27094
진술	6283
##버지	3974
중저가	23950
윤영	18667
탐사	11428
수출	4264
적시타	17823
가만	6836
맹활약	17156
좋아할	26020
어울리	6861
당진	14017
㈜	201
이주	7296
무도	18604
특급	13589
교두	21453
보내온	27798
주방장	27711
서천	21927
[unused27]	31527
##ald	22524
##수록	4556
시위대	13723
당정	16439
##쿄	3058
##산물	5439
머뭇	15805
마이너스	10767
동방신기	28317
네거티브	21428
필지	15436
외출	10003
역행	19357
웃기	12494
국빈	25329
스틱	14973
부기	24517
시아버지	25764
남궁	18971
농가	6546
중성	17284
용	1468
재빨리	11199
얽혀	16756
강준	29108
06	10260
다시금	12602
##ournal	17483
1927	22831
지부	7854
##로지	7683
핸드폰	11740
물	1093
다이나	27231
별도	5614
관악	15840
가린	23734
가져온다	26500
[unused100]	31600
나지막	27591
│	145
저지른	11060
홈페이지	5299
편히	15867
뇨	777
교단	14612
역서	30108
괘	610
부쩍	15485
교육비	14609
출현	9526
소진	13547
걸으면	28780
하승진	29356
딸	900
개인기	29796
동무	16586
즌	1578
경이	14459
간행물	30077
대기	5889
이겨낼	27106
연장선	16247
食	535
2009	4877
듯	885
귀추	23943
##텔레스	16844
도시민	27168
이세	13511
륙	1014
불륜	22607
##업자	10109
줄지	13734
##교사	22034
2700	23451
연준	15628
730	31468
Med	18703
젓가락	17547
껴	674
##평동	27334
비법	12022
근린	16671
기호	8166
도읍	24543
에너지	4291
##X	2312
포르노	21845
최저치	20237
안마	17824
무한리필	30003
이러	3839
천식	19508
워크숍	12363
별거	19827
해방	6276
판결문	18891
우레	27445
지켜온	26171
일일이	9629
취향	8281
김기춘	20544
생명	4333
##덜미	22044
##랏	2641
비자금	23840
##마침	19393
호주머니	24780
미스트	14573
까먹	18908
##테스	10814
기립	28668
##45	20898
기술력	8068
모유	19529
##연료	22791
예정지	23040
##an	3947
공부방	21895
##FA	9294
할머니	5256
움직여	11223
산책	7533
지민	26315
##레스	4443
THE	29334
알몸	21464
아동	5332
서지	24809
정윤	23811
보상금	13972
재정	4426
허위	7441
서부	7515
##자산	25750
사모님	22225
독거	16902
아까운	22596
於	376
91	7907
허리	5803
차례	4356
마우스	17735
존경	7534
인먼	23117
노령	17692
팥	1836
찜	1629
##서	2112
원자로	18944
콘테스트	25033
좌회전	27182
[unused17]	31517
궁리	17647
포탈	24825
동주	25055
공탁	20924
아차	28097
크리스마스	8347
##파	2160
의뢰인	22145
시전	31284
##데이트	13131
서거	15333
인다	19519
드러난다	12624
##oung	26078
브로콜리	29367
##컸	3560
비닐하우스	22927
비추	9695
##과이	17894
살상	21180
멈춰	10770
근절	11676
소신	11396
MBA	14945
편견	9354
데이터베이스	15626
어릴	8115
떨어지	5056
당론	16443
중국인	8116
카자흐	18578
싼	1338
##진다는	23909
군기	27467
변호사	5026
##에서	27135
##간접	22126
버티	8899
한라산	19567
수지	7011
투혼	25756
메리	10435
줄리아	26828
내민	19028
애초	7998
던진	11304
련	983
우승자	15396
이남	18613
담뱃값	29212
##콥	2986
중등	24588
현대그룹	17118
난로	24014
##얌	2670
스테이션	22353
89	7948
들여와	31263
단행	9267
고금리	19792
국산	8549
##덴티티	23994
사망률	28280
지지자	11006
희	1967
지진	7163
아뇨	17879
세터	23239
입출	20118
수송	9997
##성	2047
인용	6427
##게티	19909
회장	3873
역외	21352
우월	11540
즘	1580
거침없이	17897
아쉬워하	31400
지낸	8490
케네디	17119
리오	14628
분규	30297
얼큰	25701
노동자	5019
티아	21151
별미	21621
노조	4602
원예	22833
##개혁	25317
석유공사	19054
형벌	15755
루비	20167
시위	5754
갯	562
관청	17518
방송법	19817
##맑	3516
미끄러지	21371
66	6448
불협	28223
중기	9652
계십니까	27565
푸틴	15042
어렵	4258
허심	30204
수목드라마	26697
##가운	7922
의자	6881
몰라도	10275
미비	17282
터보	18044
그러나	3678
모하	25393
협의회	6097
김우	14320
훨씬	4716
자못	27390
킨	1756
[unused266]	31766
리스트	8372
연임	14111
##낼	2523
보복	9308
탕수	22150
앞장섰	21350
수상	4812
강인	13699
수온	23967
펼쳐	5063
닦	811
550	17458
민국	15455
##못	2495
남아프리카	18057
신세	6129
돌려	5414
##커	2506
선고	5779
권고	7940
##러스	4968
성수	17341
갈지	19129
UE	22856
검찰청	20223
속해	14726
원희	24738
전면전	25810
꿈꿔	30656
자영업	9521
##다지	8945
척추	9956
뿌려	11213
유영	16747
98	7456
성당	9693
유소연	28218
취임사	30582
어머	7772
다물	12020
처할	27532
해프닝	21541
運	507
생겨났	14511
나중	5294
##곳	2455
곰곰	18122
귀퉁이	26164
키웠	12871
사이즈	9471
프리	4778
닥터	11380
기통	31030
서성	21397
택하	13207
착용감	27948
회원국	10740
##욕장	10629
고맙	6659
엘리베이터	10874
##병	2394
##지가	20257
Business	24837
그루	10125
방석	28117
상복	30332
미사일	6224
pp	8123
TH	16433
기부	5546
2023	30226
인즉	29790
단신	25751
물으니	28505
달해	15825
어떨지	28893
스폰	13481
납	724
##eek	26729
올렸	5649
전시관	11746
염전	31359
창고	8481
목표치	18873
차릴	29292
웨이터	29114
십자	9703
BM	9251
수탁	18938
강단	24040
부서장	28059
후안	25345
##렵	3147
대타	15679
랜드마크	15297
元	244
위업	30566
[unused162]	31662
친족	20983
제아	29953
입성	17931
생길	8238
행태	8618
말미	11152
一	213
챙겨야	22327
미우	30388
고를	18092
##st	4350
240	13434
벼르	26222
알아들	16880
경찰대	27434
##똘	3442
실외	24056
NSC	26288
쏙	1355
제왕	13760
분대	22731
비문	21167
##통령	3695
아픈	7797
씌	1369
선험	24332
재소	29540
[unused95]	31595
##전히	4058
도발	7858
지양	17932
드러날	19161
냉면	14543
바야	19945
##룬	2841
가까운	5376
상투	21132
꿀벌	29325
##꼭	2801
계양	18365
알아차리	20819
아깝	15021
##oney	29324
된장	10911
세운다	23757
##좌	2584
버핏	17267
후세	15750
프로세서	21952
크림치즈	25930
방공	26361
지적도	28107
하이	4899
##오카	15789
소치	15917
光	246
맹	1056
##닝	2944
공산당	10082
##쉬	2893
패널	9264
WBC	18191
창작	6661
슬리	18293
##CA	22026
현미	13842
키	1754
붐비	26576
##사이클	29012
Park	31040
##궂	3277
메타	16382
215	22813
쟁취	19950
라고요	14722
봉하	19878
고조선	23452
그분	7244
예선전	30423
Z	62
응시자	23518
캐치	21961
캐서	25106
아리스토텔레스	16909
흘	1961
되새기	20923
쿠바	12797
나인	16451
순응	18071
시종일관	21988
此	404
면모	10986
사회주의	7486
바꾼	9506
Management	24749
다가	3722
펼쳐진	13464
휴전선	31099
##건조	28193
원양	28741
##orm	27751
저금리	15377
알래스카	26907
데이터	5189
솔로	9623
386	23010
##극장	23295
원비	24782
##지근	27259
줄줄이	12355
##처리	20111
윤아	29611
##사랑	15581
특종	28061
수소	9161
seoul	30498
출동	9846
잡아내	19452
광역	6187
경남	4528
##라도	5121
작정	11178
경인	11405
끓이	15435
요미우리	20289
##트라이트	27038
각광	11333
학부	5135
공학부	22093
블룸	17191
무언가	7969
이별	11240
벨라	24688
퀄컴	24912
삼국	9192
몰두	10849
동일시	17033
거리낌	24420
쌍용	8643
개포	24562
##신보	25287
##스트럭처	26955
[unused127]	31627
여사	8294
메일	9573
직원	4070
후작	17320
면접	6149
하워드	28346
애호	16491
##둥	2680
연구원	4736
기수	14425
허물	10785
스트레칭	17313
부사관	29921
000	5058
아서	4111
눈여겨보	28026
곤두	12837
굳	618
져	1550
덟	835
반론	13815
김관용	24427
기념일	15781
##도어	11369
어묵	17962
콜라보	19891
##다랗	24578
퍼뜨리	29507
가단	29616
공공	4437
##레일리아	25573
지킬	11471
심층	11698
무너진	15562
##국수	9473
주문	4867
소풍	18912
IA	24610
피보험	22244
클리	9504
좋아하	6992
KA	10876
어기	15158
교육자	20652
올가	25092
향응	26763
동향	8588
최강희	22765
무디스	29109
마네	29506
초반	5962
한라	12335
NLL	16432
전용	5119
동의보감	27609
다라	28601
##덩이	7211
2011	4840
##ail	8077
자식	5428
靑	530
스럽	4265
##십니까	14042
황폐	17758
자세히	7505
단일팀	24303
天	307
누렸	15245
변이	19305
##갸	2989
푸조	26883
임용	11401
다량	17068
참상	31187
소통	4740
[unused108]	31608
먼	1060
국기	14788
환갑	27283
여겨진다	19096
부도덕	26126
딕	888
##약청	24889
문학	4242
저물	19986
셨	1279
체육공원	28838
응접	30452
율	1493
##formation	22081
가점	23389
상륙	12987
Mor	30376
연수원	16490
##■	3048
불면증	22439
묶여	14096
련관	31423
박자	17841
예비군	23934
베이스	9763
##tion	4596
##ict	25408
장만	15444
돌아와	8200
##핵화	8567
개도국	18432
가리켜	19549
치맥	29275
IBM	15738
머무르	13402
[unused394]	31894
##키지	8176
접한	11973
태릉	31021
다간	25891
변명	10980
늄	789
내음	28522
집단	4674
특산	21153
곧	597
방편	20673
[unused228]	31728
올해	3753
각별히	21722
내면	7422
경제난	30757
아키	15244
광기	18225
대학교	5461
갱신	14112
정혜	23392
합작	9342
나타난다	8045
깃들	23583
양천구	22834
막막	15232
민생	8646
보이	3783
##ai	17896
의전	21724
투지	26349
골절	16912
지갑	11019
고추	8102
완결	19396
##베이스	14200
일목	31469
##PS	10144
選	510
##arket	17481
공시	7380
급성장	15162
엿	1435
주석	7370
외식	10105
영하	13105
##반짝	23929
부풀리	24878
I	45
##instagram	24913
##행사	16049
여파	9508
생체	14939
現	430
##른자	25434
사리	11955
극한	14686
엘지	17360
잉	1514
##세포	9200
게이	9709
1987	9175
선착순	13201
」	173
맨날	11879
보일러	15936
##ㅌㅌ	24850
군무	30054
로우	15913
밀집	10679
4800	27461
지름	11981
##승부	15756
##슬라	18364
[unused47]	31547
간절히	15086
교육청	5220
##퓰	3489
금감원	9002
청자	15928
변함없이	21706
권능	28459
혁	1918
부산은행	21438
프랑크푸르트	21512
face	28332
원두	15256
드레싱	27834
몰려드	30044
황무지	29034
관광공사	16404
취업자	13462
애경	25044
단면	17736
원내대표	5980
##청사	19134
김여정	29801
나주	11666
f	73
승강기	24102
경제학자	16061
들으	12684
원유	8218
계급	6647
놀랐	8179
꿀맛	21202
과민	26133
추종	13588
지천	23211
지분	5570
##퇴	2550
헷갈리	25433
##ㅂ	2243
속도	4780
전념	12554
##yn	17635
##부리	18442
주성	21449
##싸	2935
부대시설	25149
녔	763
##젤	2262
Fe	30936
마님	24997
블로그	8958
歌	402
파업	6748
미친	6925
[unused443]	31943
망상	19580
웰컴	29373
##랭	2398
우의	22713
##버둥	25559
헬스	9127
회개	22002
능통	28298
박현	18152
##캉	3379
맛있	4550
##비안	28907
클라우드	11079
##듀서	16093
자서전	17636
실과	20637
##요	2182
##리	2059
장부	12659
덮인	23905
원금	10025
조업	13008
낸드	22204
공로	11435
했었	5393
발휘	5693
구세주	29651
##슥	3339
몸값	16297
##러웠	13929
안식	16469
판단	4150
뛰어	5603
늑대	13828
올레	10766
범하	16209
프로토	27886
작목	28603
유해	7609
##먼	2615
##데이	8665
저	1535
116	15085
대판	30202
금오	23236
검진	9550
거창	12340
배타	15798
출연	4734
영사관	29281
강	553
실무	6488
누적	7955
꿈틀	16485
골반	19860
맛봤	28650
버드나무	28667
상어	20608
감사관	23940
향수	9776
##stagram	9315
단식	10153
남한강	29874
한마디	6549
친일	12399
1931	23022
경기도지사	29714
##뎅	3249
애칭	24733
조선총독부	28779
해진다는	29247
되돌려	15877
이반	29283
냉각	14748
물어뜯	27825
스콧	19884
##조류	22237
도비	22542
태웠	29785
홀몸	25742
한결	8869
최우	7022
강제성	31181
se	17219
집념	24942
협약	5598
행시	30424
피에르	24250
무기	5290
중앙은행	11827
혼잡	15799
정성껏	22827
생과	30847
##락	2521
씩	1371
차량	4467
세율	12660
특공	22010
##ong	9971
단점	8685
왕십리	26529
정품	22894
혼혈	27251
언젠가	7496
메가	11556
##ph	15672
그친다	29664
##질랜드	12258
배고파	20511
천	1652
물량	5760
산티아고	30723
집권	6952
가스	5809
합일	29040
##ㄹ	2317
상고	12382
가령	9773
유치장	30624
이석	11159
이충	31131
ㆍ강	29213
내려간	21433
안중근	18817
묵	1089
##곡절	16403
##잣집	21348
성향	6203
##로우	9151
##ry	10659
##MP	25576
반신	22815
##채기	24070
##뚫	3577
매립지	18960
시제품	23012
겔	580
벤치마킹	15033
예루살렘	15415
중부	9775
삼가	14866
고속버스	23674
시끌	24965
노렸	20175
고객	3916
천문	9818
부딪쳤	28494
내고	30524
선하	21603
몇	1077
유래	10397
중개업자	29854
따를	15491
테이크	21266
가든	14333
정치인	6680
파급	12159
막아	19626
피해자	5379
동네	5602
무수	11704
트로트	21308
1911	26963
##축구	13574
울산시	11617
##멘터리	11156
he	14712
왕래	18685
거실	9574
##수도	22757
가람	22149
최다	8587
##EF	29472
×	101
블랙	5676
身	502
중공	23183
##공	2086
조끼	23196
여겨	7091
찻집	27935
잦	1527
떠올리	8636
권위주의	16887
關	524
개구리	13761
162	16535
##호우	25495
침구	19782
젠더	21940
프리미엄	6319
늙은이	22184
초콜	10097
미분	10747
[unused124]	31624
휴무	17442
에어컨	9413
래도	28212
뢰	999
동조	12744
##는지	18246
어우러져	15198
w	90
##껑	3355
잠자	12205
파이어	22021
획단	23380
뇌혈관	27501
##내티	30058
승	1324
계획	3716
자는	5105
무료	5263
아베	8302
김한	12476
코앞	17850
을까요	7000
표고버섯	28752
솟	1287
담배	5840
붉은색	25299
틴	1821
대부	4023
선덕	23985
단호	9011
의료관광	20442
두려움	7391
애널	14504
단국	18776
부감	26942
장도	19033
온열	31295
병장	18831
프랑스	4510
리카	21677
##휙	3498
차도	23374
Best	31378
누수	20682
시달려	29307
종파	25210
여과	19780
발돋움	16827
순환도로	28080
다면서	9711
불거진	14846
윌리엄스	21530
매끈	19094
##싼	2929
이것	3982
힐스	27220
##하우스	17975
마사	7621
Psych	27706
휘말리	27063
붙일	21391
밀러	17387
상수	10819
박재	12848
명	1076
잡아먹	15066
파전	19819
쏟아진	28844
봉투	10417
##아내리	30334
괴리	18940
업체	3816
##햄	3041
간부	6601
예일	31253
##오프	9178
개구	29779
찬바람	19496
국민체육진흥공단	30415
540	24979
베리	12740
조세	8622
저것	15759
전염병	15327
학위	8237
시미	28523
통사	13577
경영난	22302
구설	23330
마감	6356
en	14970
##넥	2635
##드라	9831
단수	21174
핏	1887
폐허	17968
채울	19006
라인업	11870
덕담	26492
편협	24528
저속	27986
리모컨	25999
유럽	4227
∼	132
##무사	17394
이뤄져	15819
출품	14844
고승	25192
나간	7623
소자	19284
편도	20390
##린	2466
네티	9062
집어던	29744
접종	11361
##PA	19672
콩고	28553
##빼	3161
한신	27474
주미	29752
일고	31453
방면	12239
∙	131
발맞	18680
골목	6996
승승	18543
조선	3957
총력	10686
맛깔	26211
버리	4481
사무실	5841
랭킹	9040
점퍼	16703
public	30604
284	31287
신생아	15181
이룩	12215
카프	18717
떴	914
＝	1989
고양	5307
대리	5716
공휴일	16644
총	1668
징벌	21059
어벤	23228
석학	16590
진솔	17822
지드래곤	30127
감촉	25814
끝난다	21277
베이컨	20227
제	1545
그럴듯	24382
##테일	10866
외딴	25775
##묻	3469
끝없이	14250
네이트	22049
불어났	31416
페	1850
딩	895
알아보	6761
였을	9835
권장	12308
와일드	17772
##의식	9512
환승	11738
Poli	23310
패인	30813
의향	18505
[unused298]	31798
갈수록	7013
##d	2039
봐	1169
추경	10108
이르	4285
여호와	21106
법치	17468
알리바바	23379
##날	2401
아랍에미리트	19518
서울시	5087
##my	21996
료	1000
미르	15406
##점	2532
네이버	8111
안면	13534
밑돌	20946
아라비아	25300
##움	2894
박인비	17206
아날로그	16834
일말	31158
시초	22442
##무성	9047
우수	4639
이해도	28044
위아래	23656
누룽지	27307
역모	29605
##패	2499
기초	4608
과학관	26710
##뤼	2789
##키스	16052
수출액	17430
당시	3817
증명	6216
##룹	3090
매달렸	22453
봐야겠	31201
##괜	3052
멜	1068
##eng	23562
무서	6338
서도	21245
다짜고	28434
윈터	28991
면하	20941
상부	15344
자결	25838
전문대	18704
목돈	18469
市	335
난항	17259
건달	25760
사업가	13102
박민	17903
빙수	18750
최근	3744
##ICE	24195
##갑	2141
댕댕이	31301
아이유	17964
단숨에	14127
낙원	19710
중고차	13780
염색체	28012
뒤집	6762
아세안	14471
움직이	5375
여행지	14040
자판기	24835
기미	11872
매출액	7074
깨	662
명세서	29130
강탈	27405
아닌지	9834
##저	2190
상설	14414
##찐	3287
의병	14679
##상조	30349
서른	10593
출세	16227
지지율	7469
중도	7223
##we	19742
회선	27703
FIFA	13027
페스티벌	7805
호박	12396
온정	25829
블레이드	23467
이만큼	21605
그야	7489
동전	12204
통한	4742
한국사	16357
무심	11852
##다	2062
행방	15959
##als	30670
##거리	4015
븐	1185
[unused176]	31676
수동	11996
파이브	30557
『	174
노동계	20883
난무	17604
푸코	26304
김수영	28728
박인	12230
中	220
돌변	23779
베르디	26069
개신	16484
회심	27041
콩나물	15133
허겁지겁	27011
##늦	3167
매장량	30844
은퇴	6879
외교통상부	19821
자락	14729
기린	21554
두려운	17803
작품	3967
양념	8326
전두환	12493
토미	29905
##개구리	30275
엠	1425
[unused301]	31801
##ream	20229
별명	10348
고속	5517
th	8276
##두르	9309
날	721
걸어왔	22466
산악	11252
무형	12171
기껏해야	23696
맞아떨	22850
##성대	25601
겸직	23287
680	28582
열정	5870
주황	26505
테크윈	30407
기어	9416
성격	4768
##ㅇ	2188
냐는	6454
시금	18446
슈틸	20286
담요	20931
구축	4525
힐	1971
김윤	12157
비핵화	8573
##내린	26215
최창	30120
수량	12395
밑	1117
무제한	18638
시음	30231
해진	6046
전진	10590
규율	14719
대세	9648
경우	3640
진화	6747
##카오	6782
값비	22181
개발비	23815
조선인	13011
공교	16298
지향	6114
117	14724
맛본	27755
구례	21129
전원주택	30080
진달래	21448
막아내	22750
비비드	29881
부녀	15411
떠오를	22582
밸브	22843
가시	6571
예상	4045
내과	17204
나눌	10040
DJ	12031
교차로	17414
천진	19628
전구	21292
##ich	9620
남북	4711
선도	6793
기고	17073
발암	19571
전기금	22720
주어	23723
가지런히	27670
##uf	29185
네트워크	5502
예요	4302
낸시	30811
차세대	8475
[unused221]	31721
유산소	24019
과언	12469
박탈	11703
##평생	28231
촉촉	8974
##떼	2959
메트로	15775
쫓아	12846
수채	27696
[unused31]	31531
##렌	2479
도적	18400
자포	28510
등등	9681
사역	15006
##지수	18618
재충전	29990
빙상	19448
##BC	4953
중력	16153
격상	21038
pomeranian	24594
중구	7363
물티슈	19841
희생자	9686
너희	6928
보안	6041
미제	24369
돋우	24371
영자	25990
안동	8239
동화	7373
인사이드	29444
진실	5352
들이대	20848
##기사	14036
주방	8155
국면	8019
##근무	22285
수협	17902
달서	27061
통닭	27134
전화	4117
Market	25398
##율	2534
비칠	30510
##저축	24564
다녀갔	26960
착륙	16635
死	406
##상가	16875
BSI	30683
##부랴	24443
정부군	23120
솔직	6093
땅값	16861
부러지	21316
이구	24776
빠짐	16258
들려오	14881
book	28480
##로드	8032
순방	15635
천신	23973
바로크	27243
역학	12357
생태계	18254
진해	11567
날치기	24120
의술	25110
##의학	30857
중소	4349
##귤	3067
알카에다	29448
피살	23160
통수	30153
정식	6718
##밋	2997
살아왔	14286
노동력	13178
관해서	10573
고난도	26619
##슬로	28214
##델	2423
126	15660
칠곡군	24709
설명	3788
흥원	10034
스탠리	21522
박시	22186
파란	9378
Op	24315
##리에	17016
문재	5161
각국	7120
##저곳	20435
레알	14714
감정	4554
##앞	3297
듈	877
개학	27379
질서	5744
객실	10821
##단다	24718
김근	25265
쾌락	12869
어법	17060
참외	22469
완공	7744
공제	7117
부응	13143
290	20576
2017	5668
승강장	26938
CGV	16995
전병	19309
싸구려	24130
##타인	8250
물밑	30443
다쳤	16898
수질	9613
외관	11975
그래야	8741
아랑	14224
제설	25089
##EA	10840
##버시	22941
##as	5199
설움	23896
ㆍ사회	28793
장례식장	19489
주전자	25481
참모	9610
현금	5797
박태환	15745
지평선	28267
테이프	12238
재판장	16191
수임	21855
총책	28579
118	15206
쌍꺼풀	26835
향후	4914
안중	14746
##arm	24298
날카로운	11153
기억나	17426
백범	24754
원거리	27720
옮길	16556
오만	10404
문	1091
##슈	2601
##목	2612
흙	1962
사월	20451
고행	29979
축출	25403
옷가지	28506
기획사	15345
연평균	10998
오락	9882
헤아릴	21017
벨벳	22408
괜	611
김진태	27158
##녔	3153
아프리카	6815
내세웠	13057
갑작스레	25320
유명	4455
염색	11015
첫선	26151
손잡고	27056
논현동	26798
영감	8612
기반	4568
##트니	27562
이라든가	14334
올바	7030
저승	16778
980	29846
##통	2140
##ri	5660
자청	22219
제사장	29458
귀환	13915
연주회	16385
하토야마	28810
명소	9877
흐흐	24137
살	1236
유급	23900
튀기	24844
토끼	8981
##틸렌	23444
득표	11002
공산주의자	20795
모함	27269
적료	31490
때우	27235
펌프	16769
리빙	22261
하객	27034
특전	20487
루카스	30733
상공	7542
사르트르	24629
간파	20163
적자	6371
할리	10695
없애	6697
휘말	14496
두만	24947
약속	4680
자장	25997
꿇	693
대행	7162
활짝	10682
밴드	7503
여정	11557
정화	9737
비우	14935
야훼	30745
러시아인	29950
26	4210
반세기	20629
히로시마	23770
서비스업	14084
콩팥	30904
##운용	12818
##oe	29961
##챙이	31303
배변	26582
광양시	21472
##mp	13632
탐험	14013
##◈	3594
재검토	16372
핍박	26375
상위	6298
##연수	28614
180	7995
냉혹	22799
##③	3437
##메달	5924
내보내	13006
기뻐하	14292
말없이	13843
다승	18430
항공모함	29539
거래법	17805
##감치	10787
차	1632
유다	22438
##ler	21734
KAI	24559
역차별	30902
성명	6712
##저것	13373
박철	21155
##ese	21173
쓰러졌	16891
SDS	21664
최저임금	11041
제각기	24265
청사진	17846
남강	29241
맞추	5739
외부	4993
읍내	20611
2050	25473
주택	4031
만날	6490
##히드	27186
애원	20336
타리	29815
기분	4754
다	809
토트	18449
연간	5341
가가	26573
증식	15603
던질	19219
최태원	21574
##응	2026
서툰	26773
장석	27621
김국	30572
죽도	31360
교착	27843
짬뽕	14558
협찬	18497
Ex	13166
67	6769
소라	21476
##lin	24126
버젓	23599
영상물	21758
오프라인	9783
노키아	20534
색깔	7177
안구	21646
##찻	3291
잃어버	8980
쿠페	24372
속	1283
사용량	13987
원자력	7655
구천	31058
정부	3659
알파	10368
상	1242
협력체	25036
살며시	26217
쿠리	16826
금형	21663
교무	27937
고노	30955
##숟	3376
##시오	5805
넥센	8368
##구치	23376
지면	11684
불공정	12049
응할	30897
##하여	7488
수자원	13421
때렸	17719
돌연변이	26892
##쭈	2825
프로그래머	25650
하물며	21330
나란히	8015
도모	8840
##V	2392
체득	23088
근저	20811
걸친	9199
3700	29333
달라서	24488
막다른	30675
가르침	9854
##충우돌	30749
제시	4277
급기야	13233
다거나	25555
고추장	15695
①	136
알루미	13304
부르짖	20021
탈피	14585
박제	23107
오너	13841
##⠀⠀⠀⠀⠀⠀	31406
노역	26030
줄기세포	15246
색상	8817
브라더스	30496
out	20956
짓밟	15948
탐지	17775
우편	10457
##진로	22256
##캐피탈	15989
권태	20039
스코어	15041
이기주의	20293
왕성	13531
##m	2037
빠져나	8293
괴테	21310
서재	12565
##뚤	3260
포화	16035
1962	15535
이대	9324
유의미	24973
영향	3979
큐레이터	24221
선한	18623
후반	5683
큐	1748
##올로기	9031
장본	20654
##포로	26161
승소	14978
흘려	13395
내렸	5740
##각서	20033
미미	11493
령	989
영향력	6640
행성	14183
깨지	14606
논할	28040
차츰	12618
조조	11081
248	30927
끝날	12638
基	299
휘두르	14174
카다피	22448
개천	23955
관람객	8369
##TV	7375
계정	9389
크레	12774
##iff	20970
좌초	24132
##원식	30425
벌어들이	30201
영동	13017
가동	6219
부추기	15155
##아이	7760
이루어져	9914
문체	11528
철	1653
##ity	6588
끌려가	15925
테러리즘	27949
선동열	24490
허정무	27428
블라	10913
허공	11844
벽화	13114
프로필	17984
##그릇	16776
유입	7445
##ies	12073
돋보였	21486
귀담	29127
선양	21691
반동	19630
사죄	14087
베르	8702
[unused133]	31633
양현	15905
산림청	20463
레이	5395
##딛	3009
찍히	27485
럭	965
##화기	11211
마하	21357
동두천	19109
워	1476
차곡	22687
##아트	23848
##특구	25074
네이션	28095
外	304
호적	21407
확실	4592
이용섭	28554
특단	23176
곁들이	30546
##쩌	3097
##orts	30798
[unused288]	31788
[unused253]	31753
성호	23288
문대	30475
성산	14741
가려	7937
實	325
됩니다	4844
자칫	8062
마찬가지	4600
어울릴	18376
베이커리	19851
군림	17697
##케이션	5926
출연료	25093
건수	8319
##티아	13238
수양	15651
세도	28050
[unused439]	31939
느끼	4491
떠다니	26109
여행기	27554
저탄소	17334
korea	29099
연거	26568
지방비	29175
결석	23161
즉시	6832
종량	29791
환호성	23208
도덕	5657
나온다고	22780
보내	4209
인지도	11448
장자연	30678
##레인지	17993
##문화	6977
Rel	19850
##비드	9980
롤러	19167
바야흐로	22454
챔피언십	12779
im	22401
마드리	14339
##DI	9166
##떨	3016
당선자	9540
구본	17813
브레이크	12272
정형	12573
알려준	28175
시현	26786
받아들여야	19257
도로공사	16472
코란	30873
문맥	22512
##orean	19264
임진왜란	15294
##대사	17246
배부르	23542
영농	15668
기거	30434
성황리	23817
한명	19217
가담	11573
HA	25550
##떡	2807
ㆍ인	18929
말렸	23892
웍	1477
특집	10914
귀향	21107
숫자	6197
잠겼	21546
사정	5183
뻘	1213
피노	27245
구대	26346
##주얼	9168
미적	30131
Cap	27488
##od	5052
상관없이	10320
려	981
##시스트	15341
[unused169]	31669
##포트	11483
루크	26173
마크롱	29996
기표	23510
힘든	5455
인멸	27607
##당	2481
준수	11354
본점	12195
[unused122]	31622
입히	15017
##르르	9959
##보레	19545
톰	1797
가정폭력	23659
성직자	15658
한국가스	28706
첫날	8807
모른	8048
##샘	2378
고의로	25979
##속	2354
198	4231
뒤떨	28788
활로	21887
##학년	18458
##꿇	3490
올리브	11962
##IM	21295
사탄	23082
흐른다	20874
저놈	22022
##반구	27069
띤다	29494
##uck	24869
영호	19107
춘천시	18475
CPU	30088
##ard	7811
##놓	2850
與	475
스스로	4201
SUV	10774
독립	4751
동등	13002
이룬다	13981
맨체스터	15185
미션	11960
부끄러운	15386
앨리스	19258
##크라	10688
군데	9289
건대	14206
[unused404]	31904
몰래	8905
투입	5113
반발	5398
숙식	26658
스팅	30150
풍문	29322
##캐	2898
##it	4412
81	7561
##묘	2543
건가요	12039
머스	23412
검색	6102
기저귀	14892
쿨	1741
베인	31050
비리	6143
주유소	9926
일컬	16455
고뇌	15203
o	82
##퉈	3566
자자	19524
믿	1110
어종	28352
지랄	26457
오로지	8746
교통사고	8687
기간제	19579
한다면	4560
곰곰이	20230
그리스어	29663
##다수	7804
탐	1765
나빠	9537
향신	27441
느닷없이	18297
쁘띠	31034
가족	3937
박하	25557
##칼	2600
지냈	8340
념	762
긴요	30711
놓아	17667
지명	7119
장	1526
낙태	17365
세르	13078
▲	148
대담	11838
거쳐서	22289
1899	28462
[unused438]	31938
마시	5012
세제	8255
서당	24034
공사비	14484
[unused401]	31901
52	5842
59	6105
국화	15780
티브	19441
리버풀	19775
들어야	14523
전업	17501
하부	17545
##암동	14817
##티나무	25943
포진	15325
쫓아내	24140
용모	25050
현관문	21225
상인	6390
감산	25759
태경	30228
최인	20251
노래방	15569
습니당	24549
펀치	20267
품목	6852
슬립	29442
##뭇	3139
전과	17951
맨해튼	22131
거북이	28355
해서	3689
예측	5501
기무사	23144
tv	11771
##뻥	2099
페라	28447
머지	16759
신속	6786
##카드	6299
외신	12533
ISA	24499
법칙	7273
아야지	17983
ch	10189
전투	5635
##자루	20591
다가와	16058
견적	25867
##증권	7072
##정식	16238
N	50
##멩	3281
하염	23311
싹싹	30517
도시락	9451
##챙	3318
대출자	26323
급식소	31046
지적	3970
스위트	19116
재빠르	26414
복안	20913
월드컵	5339
유목민	26472
카탈로그	30959
했어도	21008
직격탄	17553
파랗	30353
초급	30740
가하	9144
정대	15295
왓	1457
광주	4104
그린벨트	21609
##LE	24734
##구이	19125
주기	7267
대책	4272
배럴	11274
급속히	13354
완성	4976
일으킨다	21234
주경	26412
오리	6121
##살이	10893
사투리	16804
마오	16063
전신	8793
##우먼	30105
미야	16256
##AR	13374
찬성	6802
문의	7421
##이어	4378
E	41
방방	28293
공판	11530
협동	8030
쏠	1358
눔	782
뇌	776
김연	8363
경매	6890
독점	7839
결연	19629
아녀	25094
기름진	25978
몰아쉬	27976
볼링	20846
해제	7598
동의서	25936
옐로	28804
박세	15267
[unused11]	31511
백신	10098
129	16281
내란	19743
마마	12184
성악	16408
구먼	18993
조급	16728
스킬	16920
칠	1692
의혹	4829
음료	6915
##럴드	22115
##그려	28069
절실히	20327
민혁	26459
자명	17768
막무	23271
피해	3992
소독	14081
짜릿	14618
##렉스	8965
구덩이	22441
변용	30296
##광	2222
스팟	28812
이송	14007
탈북자	12751
##수무	21404
니코틴	31061
##레라	24888
사랑	3784
높임	31208
##타운	9626
자랑	5229
빠뜨리	21362
뚫	925
부문	4457
포스터	11811
필	1885
당국자	12628
##ection	26814
숙취	24245
로드	7602
달달	12394
거동	20483
악령	29300
요구르트	24894
아버님	10958
김태균	18204
##옷	2428
파행	14226
경리	19353
모토	13781
노아	27051
↑	129
패셔	26679
라운드	6383
달갑	30573
ㆍ청	29907
대미	16694
##rop	27124
37	5319
답안	19130
오비	21907
알려진	6360
실비	28891
똑	919
장관	4166
꺼리	14168
차우찬	29738
心	351
다섯	5437
자연산	31082
명도	31234
따	897
##D	2134
둥근	15207
감량	17781
시민운동	20061
우선주	24529
그려	5652
敎	371
했잖아요	17732
맞이해	23986
제트	20398
오답	26293
억지로	11057
워터	9478
항공모	28802
착실	27627
차마	14150
우즈베	17230
##위원	8956
벗겨	11913
##동력	10697
정복	9898
##거품	21809
숙녀	28343
음란	15034
##래도	6743
난도	25095
##멘	2879
상무	6911
여린	29383
레이스	9742
지껄	22912
레이디스	30688
달린	9285
툭툭	22773
原	271
전파	7719
업	1414
##즈	2228
돈	850
##ment	9025
##바라	10596
이중	6807
나폴레옹	15258
시끄럽	17616
스프레이	23978
돌파구	16186
김선	10365
외교관	14805
대대로	21723
핑장	20066
장생	25536
넘어졌	29659
잊	1515
플로	12759
날라	21116
뉘	786
뮬	1104
##MC	11505
들어오	5452
득세	30140
두유	21672
##드리히	29521
창가	16512
보단	12843
휘	1952
(	12
서명	7056
구력	31242
엉덩이	10194
인문	6795
이어져	10121
##ak	9669
경부고속도로	21643
母	407
부호	17725
압록강	22343
총애	28666
스리	11858
반미	21158
적셔	30848
##뒀	3551
전성시대	28555
입점	9536
수거	12589
갈구	28390
찰떡	22939
라디	29081
아카	7899
##발전	11146
페스	23919
아꼈	23750
보고서	5243
베버	29215
##디아	7970
가까스로	16938
1800	13691
회동	9910
Ber	23185
##라	2181
황재	23619
유모	14507
노동부	9163
연보	30907
예찬	23835
##겪	3536
대검찰청	20938
주체	5282
어때	10604
구치	18142
SSM	18972
병든	22148
용기	6153
원유철	29360
므로	4837
감초	17000
##츰	2943
##생활	6894
유공	12913
칸	1699
당황	7389
쿠웨이트	20821
생육	27196
68	6737
편찬	13032
오랜만	7449
글	639
들른	29134
이인제	30603
전수	10286
##까요	6301
했어야	19675
정렬	27278
면밀	20038
민속놀이	31267
감돌	20263
고백	7473
스케이트	19090
대영	26890
영양제	20153
상암	28140
짭	1601
모션	21408
책봉	26483
적잖	13273
양형	19439
퍽	1845
125	12693
의외로	20068
국민카드	22250
##가내	18590
新	374
##옥	2349
물색	19127
보입니다	13974
京	228
##팩트	15449
출제	9837
제인	16750
뛴	928
말린	18025
요시	14753
실권	30134
안내판	26389
가지	3663
##불교	26660
보상비	30677
셀피	18182
취재진	12853
눈부신	15694
##나스	23029
・	181
추석	6734
넘겼	11391
소매	8696
의총	22281
업주	16745
성탄절	28521
제일은행	30136
##55	19578
유식	27749
46	5732
부유층	21537
담백	14052
##티	2747
량	963
힐러리	14711
추	1672
박대	22968
##ener	20488
##썼	3391
탁월	8040
역효과	26631
미세먼지	8315
인척	16682
처우	15687
안타까워했	31206
경복궁	17587
수도권	20134
부산물	24735
대물	21726
공대	12808
내시	14347
##쪄	3036
혼동	17315
농악	30965
안재	22499
황인	26337
공안	13164
288	29653
감수	8561
취재	6081
섣부	25862
##ie	7234
이게	4380
선제골	19762
산출	10197
컴백	13376
[unused483]	31983
##7	2254
[unused120]	31620
부질	24882
잼	1530
이뤄져야	14351
일으킬	12379
간격	10232
문단	11467
구체	4468
조희	20506
##금리	10015
꺼려	19983
[unused473]	31973
날까	30125
부정행위	30039
##미리	22502
인기	4316
외국인	4631
퇴	1800
작동	7538
는다고	6325
해피	11144
廣	343
다가갈	21770
정회	30252
신우	31102
파나	15566
내팽개	30564
관내	11668
##모니	12716
택한	16089
우선	4174
구운	15885
깔린	19409
[unused267]	31767
랜	954
소수	6700
파고	9197
##니스트	9590
전장	12552
UHD	18283
신상	8936
IoT	11297
데려오	20788
덜컥	24946
찾아오	8859
one	23828
에스프레소	27912
모닝	14159
패거리	24856
보궐	12244
못한다는	14091
들썩	16616
##거려	25951
시민	3857
테니스	11547
막무가내	23286
양재	16043
터질	16155
코카	15857
길거리	11998
레전	21243
소비자	4297
2800	22899
오뚜기	24606
매개	10213
용이	10871
우습	17270
칙칙	22722
[unused70]	31570
외로운	17474
확인	3915
안전	4040
방대	13430
반쪽	17632
##리사	24168
다저스	11751
보류	13095
##리학	14486
접근성	10704
생각	3628
슬쩍	14709
반대파	27608
찾아온다	23651
제천	18499
고조	8502
문화사	24523
찮	1635
##23	21455
윗선	27408
틀림없이	13023
어째	10626
유태	14849
하버드대	17741
드려	13244
게이트	11105
알린	18573
경미	22061
이낙	22290
[unused90]	31590
슈트	21847
##연합	8948
##n	2012
용접	19940
마자	23640
벌어들인	24871
수능	5662
몰이	22305
自	473
일원	7708
on	9098
끌어	5484
봐요	7646
번호	5733
속수무책	22614
##죽	2449
내릴	9276
하인	12265
된다고	5283
배상금	25494
법령	9964
농기계	24086
고르	7709
팟캐스트	28163
어느	3875
Phil	20664
와라	24802
62	6677
로선	12583
기체	18020
의존	6075
##ing	4586
올스타	14213
도교	17348
추출	8736
카네	18575
##der	21933
그동안	4532
##증	2304
##룻	3095
##가짐	14094
MOU	10681
자릿수	14690
현충원	26559
CSR	28820
틀	1816
뚝딱	21714
누구	4061
과일	6900
통로	9373
서	1258
색다른	11332
자카르타	24391
걷어붙	30708
한다며	13039
달려	4969
설치	4198
핸드	7676
가톨릭	9423
롯데마트	11239
장동	16838
오카	20678
빽	1203
그래픽	11531
찼	1640
요강	25569
##빅	2940
손흥	11234
##띠	2972
알라	16734
심했	15972
##댕	3180
##암	2562
평원	21983
씁쓸	14242
생태학	23621
오우	25911
경호	10677
##반기	4578
너지	25953
뒤이	27219
죄수	17714
아세	12097
취미	9008
##네스	11651
신라	6423
자부	8299
칭호	21651
##베이	10019
찍힌	19323
천성	19796
##방위	24896
난소	28071
자바	29214
기지국	26005
탄압	10537
스핀	23041
흐리	17798
잔디밭	24213
반말	25346
동상	11552
소모	9838
##리니스트	27090
독립성	14975
빗물	15421
방탄	15243
##깨	2844
유보	11203
진땀	27247
심지어	5929
아프가니스탄	16835
그럼	4292
저질러	24233
매끄러운	30089
##감정원	30729
난장	21075
오묘	26903
로그	17854
travel	25360
부위원장	13459
[unused405]	31905
교보	13893
바라	4156
스포츠카	24619
징후	13716
유비	10756
유망주	16993
미팅	11909
사태	4821
##스토	6806
출판물	28513
은밀	13663
튬	1811
값싼	19793
실증	12605
연제	23914
선인	16285
장원	14244
채무	7128
관절	7559
##몫	3432
통과	4963
##맥	2176
##레마	14905
스톡	18540
외무성	20894
브런치	18766
빵빵	25159
파노	25935
운치	31190
[unused126]	31626
청도	14890
건방	25167
노벨	9741
게시물	22216
화들	27862
달빛	12723
악어	23076
갖춰진	28016
상국	15432
##멈	3317
일지라도	17928
기념비	19964
안토니오	30283
IMF	8682
긋	643
RP	26490
일본어	12806
med	28725
##장구	14009
결함	11271
옮겼	10047
왼발	19024
##er	3762
비로	7174
분담금	21818
대책위	12632
식감	12694
제약사	17689
공명	13904
구역	5480
##스키	7891
옥스퍼드	23470
조바심	26186
독도	8499
##연금	29542
숙지	18886
##에프	24722
청춘	9300
으므로	5622
릎	1027
미나리	24016
##ith	10229
토너	13337
순탄	20476
덮밥	23155
마쳤	7994
전산망	23983
퓨처	23468
골	598
삼화	29570
쉐이크	30213
대성공	30262
결핵	16661
구단주	27265
극심	10045
불구	4784
금액	4921
정파	18642
전시실	18797
##습관	19043
드문	11592
엣지	21204
쇼	1292
당연	4685
소셜	8758
Cont	24708
내놨	8962
지울	19165
[unused148]	31648
킥	1755
드라	4361
배터리	7847
남동	12519
쫄깃	15119
부드	5503
트레이닝	12354
거사	23364
보육원	28819
반출	19823
정월	20584
됐었	16205
쩜	1609
##RI	13607
단서	11096
준우승	20582
다짜고짜	28435
##rid	16130
책임지	9136
오차	20106
배당	6464
선보인	9794
넘어가	7192
MS	10898
##나	2075
안다고	22307
철도망	29531
ppm	29359
명부	18811
관성	26003
##ruct	27000
오메가	19295
제비	16632
명장	17449
형국	16234
##운드	4792
폴리스	16445
금과	27170
영동고속도로	30032
잖니	30241
김포	8152
해도	3978
어리석	9790
솔라	24134
다각	10928
될수록	18415
에스파	26240
##∙	3485
남매	11669
저편	21071
청결	15849
가져가	10068
그러다가	11873
관동	21942
##친	2720
크레인	16692
연연	19451
141	16454
느낄	5855
월성	19539
분석	3903
공영	9507
캠벨	31336
Program	31147
갛	557
영영	22672
⠀⠀⠀⠀⠀⠀⠀⠀⠀	25844
대의원	14872
다이어터	13538
벼슬	11727
협소	22323
##둘렀	26022
근저당	25335
샬	1252
헬렌	20176
홍명보	20912
##DC	25263
[unused376]	31876
하사	14377
꼽히	8789
##자유	12342
수강	9325
##틴	3113
소개팅	27140
존나	11366
팔꿈치	15468
입니다	3714
케이블카	15879
##르노	22588
인천대	24037
어장	26206
고난	10399
뽑히	26327
징역	7300
챙	1649
##렴치	29721
날카롭	15979
##어진	4847
밤샘	25151
저기	7069
으십니까	28344
몰릴	23806
##돌이	11116
논산	19060
안영	26647
내수	7435
비대	7751
아시	7562
어처구니없	28236
한중일	31074
##컨	2700
왔으니	26390
범인	8825
[unused103]	31603
##머리	6536
한수	28335
알람	27444
Tr	14472
추억	6469
##잼	3468
정중	13624
캐스트	28379
윤창	27329
##son	12057
연차	15669
트위터	7040
석가	18791
인프라	6087
받침	19384
탄산수	31006
##프리	11845
늬	800
는데	3620
[unused295]	31795
베를린	10714
연내	11083
임팩트	22648
##te	14210
##ero	30354
기간	3960
건국	9091
과로	31270
천마	20135
엘리자베스	17737
사민	25532
피우	9099
출정식	29913
법전	27211
유발	6746
원활히	24318
벌어져	22291
개간	30513
##덮	2911
상한	9179
본인	5006
스탠드	19347
스푼	23322
머물렀	10836
팔다리	24522
자욱	26583
조광래	28389
메세	29290
나경	16699
퀴즈	12246
비디오	7652
법안	5698
##bid	20161
햇	1901
카스트	18526
[unused43]	31543
요르단	21082
앞머리	24819
무력	7950
##화물	12885
가로막	10750
낙지	15644
막혀	11864
육신	17658
스러운	4799
##호텔	10861
태동	24851
cc	22316
모은	8076
부가세	22284
친수	24623
땠	907
점장	26084
##싣	3531
백만	8317
##어스	25286
작중	28243
떨	912
##자	2155
알차	20726
이순	9024
생산량	9189
sec	29318
펴냈	23763
##자식	24727
##야구위원회	29955
명예	5587
빨간	8013
광경	11148
식량	8651
쓰레기통	21400
##팍	3125
버라이어티	27104
증자	12691
환전	17293
불금	20186
곳곳	5844
소문난	20760
미국식	23432
따돌리	18841
껏	671
진입로	25328
대궐	29128
##⠀⠀⠀⠀	9125
[unused480]	31980
터무니없	19956
동굴	9972
생도	30209
흑백	16917
상습	13764
정신병	22066
향교	28853
불이행	30074
플러그	23360
연주자	13449
잠긴	22336
2013	4910
CS	12035
하역	25196
기약	19076
데이브	28341
김정	4971
reg	29263
##ont	21934
지라	20627
##난히	10451
어우러지	20447
소피아	25439
##림픽	22669
구정	23104
和	287
스파크	21557
현악	25626
어려워	6767
접착	22501
SD	14194
1994	7756
니라	17001
저지	6196
잠적	28370
오프	7410
실태	7808
바이에른	28426
부산	3902
명암	26482
그리	3636
들어갑니다	30472
좌	1561
EPL	27553
명종	29848
##베트	13684
##썸	3428
향하	7553
척박	26806
보르	23643
예언	9934
인센티브	10669
미대	26849
##펴	2761
전골	29036
투표	4653
求	412
북촌	30440
추스	21593
연희	16146
근까	15890
인플	13829
사나이	10621
##릇	3225
##경궁	29154
김봉	25392
암각화	25090
비장	14615
때리	9844
묻히	21312
추려	29363
예외	7493
子	313
터트렸	24408
##녘	3448
에디	14318
故	369
살인	6255
격리	12706
전세가	27919
mg	19908
탠	1772
##병대	11228
연체	11839
경찰	3858
초고	11931
지배했	28184
라	942
전유물	24968
총량	19083
캐시	16985
분지	30081
군더	30786
죄의식	25857
카를	17802
者	468
마돈나	29557
일으켜	10230
위조	11549
래리	29733
측근	8351
무수히	20579
##히트	26999
공룡	12052
까다	9886
치안	11409
윤활유	29063
무너뜨리	19355
제보	10477
야기	10013
안겨	9805
속속	10247
찾아왔	9847
풍부	6007
##괄	2962
척도	13846
강박	15400
권리금	23758
BT	24305
##부모	13998
속인	24525
##쉽	2961
교두보	22490
거친	7869
원조	9137
박모	15653
2900	30010
경내	29739
저런	7043
##어로	12529
뜬	932
주자학	29450
주저	8065
무서워서	24304
##②	2923
%	9
열량	20665
특허	6271
투숙	22778
##기야	11163
四	292
계세요	20260
이이	15225
이윤	8774
다비	27799
경남은행	19515
직항	31478
임했	26176
기다려	8935
영웅	7073
벅차	26712
쇄신	9477
출가	18484
나들이	16578
얼음	8022
소개	4348
[unused463]	31963
명문화	28581
병기	19731
[unused433]	31933
ICT	10070
##손실	28371
입법부	27631
##부터	3797
La	20140
한승	22998
정일	24217
먹히	25681
業	399
##릭	2870
ㄴ	183
##총액	12921
내팽	30234
형식	5146
한심	15120
합산	13628
비선	20617
##과학	20011
예기	16732
##E	2105
꽃게	24503
세가	29926
고흐	22153
장주	26913
위촉	14781
교통	4352
사춘기	15308
##식	2096
이토	20217
식도	21544
슬라이	13765
달한	28241
대령	14284
환자	4295
이뤄지면	26654
변한	13307
家	323
봉기	18235
군요	5582
족장	29250
달하	6638
##ans	16654
##암리	26121
##박자	26551
여라	21043
면사무소	29168
김구라	24432
계망	20474
[unused484]	31984
안정세	28885
##게이션	16929
문방	26001
CD	10078
끌어올	7643
배치	5132
조식	19525
수영	6379
##컬레이터	30741
망	1046
없	1415
[unused111]	31611
화물차	19036
지배	4831
2016	5217
4000	6537
WSJ	21850
반해	9564
젓갈	23357
측은	12386
만들	3679
신조어	22577
응방	30746
150	6082
옥수수	11905
공조	10161
전태	21126
물질	4883
금지법	19722
드러난	9582
##네스코	12878
뒤통수	19228
통했	22154
##네이	21682
출금	25875
당규	26782
시베리아	17869
##업체	28289
[unused351]	31851
치른	11563
핵무기	11590
##RE	27605
쩌	1605
##옐	3421
홍	1932
끌어들이	14515
골키퍼	13038
흩어지	21870
백화점	5269
반등	19558
양방향	24133
흥미진진	21032
단독	6095
분산	8058
경제학	8949
쏠리	11157
눈짓	31460
뻣뻣	23606
##너스	11222
##폴트	26002
경락	26751
냐며	18868
금속	7440
색	1245
77	6995
변해	10557
물줄기	20701
##펠	2559
정수	7508
수완	23154
여대생	21701
##코프	26043
왠	1461
상영	8452
에피소드	12321
후견인	30856
태평	7973
친위	28245
이집트	8571
다양	3757
능히	23863
##거릴	25721
기혼	25923
원상	18189
무조건	6512
의결권	17340
처리장	17900
딛	890
국민당	21743
##엉이	28105
전소	30462
본원	23546
컴퍼니	13973
허가	5897
정리	4706
stud	28093
##렉	2973
저소득	8150
##킹	2883
김수	8892
장려금	20023
소매업	28577
박지성	10430
Engl	29994
벗	1145
허술	15807
들꽃	30884
얘길	13524
헨	1914
윤	1492
##서야	15469
지친	11207
렉서스	20700
면허	9362
따스	16073
##ations	14073
인권위	16867
CBS	13234
##itz	29893
협정	6323
##뿔	3306
도회	28993
남경	13770
불태우	23679
##류	2397
타지	21777
넘어오	25316
포토	11255
[unused352]	31852
##훔	3345
포도당	29152
항소심	13569
연령층	28642
상정	9691
강림	25961
##헐	2896
늘어났	7983
##관리위원회	17050
운동	3815
히말라야	18744
소견	20897
##얽	3050
세무	8845
광산구	21431
깨뜨리	23543
모차	17140
암세포	20231
통찰력	17751
비엔날레	17012
지부장	14375
naver	21192
철분	24114
태음	28229
황색	27300
내정	8321
끄집어내	27455
주거지	17954
퍼져	10391
##작	2333
소회	24843
폭소	25116
주로	4746
추진	3835
양심	8542
양키스	21475
각시	31498
따라서	4113
##천리	17543
열사	19526
가압류	21328
쑥	1362
다녀야	22547
##경찰	16584
NA	19552
Reg	26984
암자	31148
업무	4148
孫	315
참여	3844
자서	16523
모른다	5322
떠오	8757
투자	3703
정력	20298
도농	26442
건조기	26522
자구	14509
KE	14786
러시	17716
책임질	18918
회의	4011
디자인	4482
껌	669
##전지	13717
가져갈	23340
셔요	26743
에어백	25284
기를	26055
상징	5122
Min	25886
##е	2463
주부	7121
과천시	22192
막힐	25114
시동	12262
공식	4548
중앙아시아	21703
유채	20803
모음	16544
최소한	6820
이승만	10848
감시	6315
전언	24400
이라	5763
김영철	20875
선수	3825
배급사	28157
열렬	16915
손아섭	28657
##에	2170
최첨단	21413
댐	827
연지	24949
지역	3634
##오드	16953
자선	13895
좁혀	15178
불현듯	25505
미트	26148
댓글	7757
잡아가	22888
내다	10495
리버	12202
##able	14204
센	1271
봇	1167
##풀	2461
응급실	15873
응징	20310
인신	20397
##태프	11094
우	1469
##뚱	3142
##41	23577
과수	26245
미네르바	28872
진가	22243
##ㅠㅠㅠ	28094
##훤	3047
##나항공	14759
고위직	20863
경주시	18684
불분명	19394
##줘야	26812
논술	8206
텃밭	11976
##러지	6620
##딕	3004
보도	4256
봉사	4810
아파서	19820
私	456
CF	13748
브릿	22357
다다랐	30323
열광	12371
담겨	7136
뿐	1225
상수원	28970
완비	29612
##로그	7155
[unused72]	31572
멧돼지	20570
세련	8614
에로	18202
kr	6609
초월	8486
아용	30179
으흠	16683
졸업	4934
[unused223]	31723
줘도	21982
##av	10702
서요	30990
병원장	18439
TF	11176
버지니아	20927
파일럿	26204
사방	9677
중국식	30953
함의	23078
Bas	29432
핫라인	30590
관리인	20981
당위	14763
보수	4687
##고래	14910
공채	14232
아랫배	30178
귀가	16741
더욱이	8147
명회	8246
MM	16402
뜬다	18746
녹취	31008
##─	3440
조양	21781
모서리	22482
앞둔	7447
##inc	18734
도선	22646
청담	14595
닫혀	22803
and	5433
##려	2370
##ank	15175
##폼	3458
비통	27529
그램	4085
색채	12666
오늘날	5738
##축제	19428
가브리엘	28866
동작	7331
마리아	11692
시카	10884
대행사	20939
^	65
청룡	23895
안젤	24963
칭기즈칸	30284
##임스	9942
낙찰가	25166
세원	29413
2001	6367
밝혀질	28901
단호히	27019
나마	10644
##스테르담	30031
진보신	17698
위도	30463
폐	1861
누리집	25247
기존	4078
보여준다	7313
미얀마	13694
결선	13848
안시	29187
둔갑	22100
如	312
블랙박스	20094
냉난방	30784
레이싱	19741
우편물	24580
놔	774
제너	19311
버스터	27884
풍속	12900
##라미	12614
상견례	29594
物	427
인맥	11977
[unused12]	31512
286	31323
을지	5078
##것	2728
##렁이	12546
글씨	9771
이니	19418
순매도	21175
놓아두	31224
지켜본	16553
이를	8345
5000	5033
검지	29149
머스크	28035
클라이언트	31083
지리산	11611
취해서	30629
익혔	24419
선단	29849
허드	28414
##ach	13329
플루	17446
잡채	30113
들끓	18860
홍성흔	26062
##he	4237
시한	11880
일으	4802
공공연	22963
상술	28950
갈림길	21806
도메인	29565
표기	9495
원하	6422
##HD	14241
깨어났	28150
임무	7564
조력자	28196
저널	9176
##갱이	14850
완도	18272
강했	14156
수속	27033
외교통	18042
바지락	27776
른	1021
감면	9341
모처럼	13763
[unused65]	31565
당겼	30271
굴리	18410
1924	23489
어류	22735
물어야	20112
높였	7759
1300	13849
##EST	21511
비뇨	30658
과학자	8446
##89	22934
거니와	15313
박테리아	23128
통화량	31022
신고	4806
구청장	9218
##러움	9858
김남	14308
일러스트	22368
##케이드	27710
굳혔	24715
펑크	25207
흡	1964
멸망	12112
노면	25788
유명무실	27817
축축	23571
##범	2511
펼쳐져	17949
눈덩이	25297
찔	1628
구스	24164
처벌	5581
입안	14053
미뤄	11236
##편	2578
진출	4526
봉안	30872
손익	13735
죠	1563
남녀노소	17456
##코트	23152
바이오	6324
띤	941
암흑	15537
건재	21584
주최	6771
푸석	30024
길들이	26524
켄	1720
교문	22518
압승	24349
사면	10601
빈자리	19361
과실	11104
혐오	10530
##sych	22717
지하	4670
크리에이터	28940
表	483
[unused449]	31949
시그마	28451
허수아비	28533
164	16106
판문점	13756
##파리	13727
뿌리	5369
엘리엇	22367
했을까	30348
##핸	3251
돌릴	16856
##어머니	26131
구제역	10176
기숙사	11085
##활	2424
굴레	22479
[unused322]	31822
잦아들	29289
##합성	29689
온건	23259
논증	15601
그리운	21894
##가락	5355
##쿠라	25271
위급	21454
鮮	539
##총리	6384
아티	10583
시에	27603
##셸	3368
버릴	8402
상호	5230
For	16919
##일비	22690
레인보우	30181
예치	20160
[unused186]	31686
##산	2066
감나무	28127
인건비	9961
명함	12645
##벌이	11705
부담	4147
1000	4951
마리오	23004
신협	22069
조선일보	8515
##뮌	2726
##ors	21073
얼떨	25696
한민	29159
97	7815
브리지	20003
이택	29734
경상북도	19301
엽	1434
긴급	6494
종종	7286
##맵	3481
항변	18560
클라크	27161
Pro	10966
강남역	17676
자의식	24601
뒷바라지	26550
아마존	12388
음절	26207
##뱃	2861
##어난다	29992
오늘	3822
河	415
세미나	8540
식료품	20765
##트	2265
카카오	7270
op	17630
[unused143]	31643
부작용	7680
테레	21090
트랩	21460
현행	6785
西	485
부풀려	22679
끌어안	13490
비껴	30919
손연재	23692
해인	17453
돌이킬	22110
스커트	18188
OB	24986
[unused314]	31814
쓰이	8026
고속도로	10568
국제축구연맹	22566
올림피아	27204
횡단	11936
속삭	12979
불임	24732
원회	14032
일감	14677
dogstagram	25010
이치	8806
수사관	16095
##94	25447
기술	3726
##ir	6492
##토스	16483
심부름	17810
에는	7963
##소스	16564
2022	15419
##레타	19476
적폐	13523
통산	10693
##재단	12563
DS	15476
만족도	10209
호치	27828
덩어리	11328
경로당	18034
유죄	11043
참으	22120
힐링	9009
학파	16059
##kin	28340
지배력	19071
프로세	9552
주택가	18341
달라졌	10174
워크	7809
а	103
소비량	17867
우스꽝	22072
벌일	13804
장어	15649
타파	17809
법대	17457
저스틴	29759
이	1504
신앙	6635
자유민주주의	21255
치달	25611
커트	20034
##케인	16162
##정	2287
도마뱀	31024
남편	4507
민간인	16742
우위	8385
마일리지	17722
MB	7669
##포스	26823
주일	5453
태극기	12341
교총	29386
##운전	10926
유치원	7146
부득이	20008
융합	6555
정사	14731
자주	4695
대할	22109
상했	25624
vs	11461
외지인	28119
레이첼	29843
거릴	30352
##아시아	16579
Development	26427
연루	10943
윤석민	17560
##찰	2524
벅스	12109
언제	4252
특히	3727
호흡기	13503
각급	20343
베스	21710
하반기	5860
##바	2100
비판	4199
문명	6690
##힌	3246
강남구	9549
김치찌개	23358
돼왔	24112
##ML	25365
토털	28549
갖춰야	15953
조인	15543
타운	8211
발끝	19493
양구	20517
별칭	24011
교통수단	21102
토벌	18157
##글리	27005
쏟아지	9403
##처분	12892
대단	5403
압구정	18985
어린이날	29939
방랑	25233
학과	6021
##92	24240
끊긴	26339
놓아주	30509
##든가	7889
비밀리	23217
pe	23801
최고위	21841
USA	28979
가습기	16743
갸웃	21115
스웨	8553
성금	14310
帝	336
인디	8798
올바로	27970
폐쇄	7049
근거지	26034
##슐린	19069
애호가	20978
반야	30030
##봐	2998
방비	30493
물놀이	20107
##긋	2450
떠올랐	8234
기괴	25735
cafe	21358
##s	2041
##ky	18472
적발	7238
브로드	15334
변덕	22062
쿠	1738
저항	6257
##믿	2560
어로	26095
##틸리티	22768
바이저	27080
전성기	13590
김보	17264
IBK	16195
독과점	23610
인형극	29239
옮긴	10137
풍산	28540
어시스트	19111
##악단	16706
이태리	24478
썩	1346
의료인	29305
걸렸	7591
심경	15864
##카이	25219
전략	4012
타수	11229
공주	6717
ISO	25141
시상	7789
수은	21028
봐라	13206
김치냉장고	28450
😆	2001
공유	5194
신학기	28583
비좁	24689
발열	19392
흑흑	20295
세워졌	22666
스파게티	23115
거시경제	27584
일률	23658
안전사고	15556
##17	20835
사라지	6293
밖에	4044
반기	10259
##int	14557
레바	19419
##수정	22161
기뻐했	21861
기다릴	14826
동참	7614
반하	13364
프로젝트	4979
YTN	18770
보병	20646
참전	12146
[unused233]	31733
스토	5367
##atch	21670
시급	7289
이겨	7918
빵	1201
관해	9149
항공권	27364
반환	9951
올라갈	12521
느린	17135
뱃살	24301
앙상	16307
앞부분	25082
상반	12501
해상	7755
##erv	15271
잡힌	12277
들으니	25967
꽃가루	28067
실력	5473
따끔	26564
11	3718
후송	30066
민원실	31145
사계	14683
낙선	17158
見	487
드릴	7080
케	1719
133	15381
##독	2405
목공	26420
십시오	6513
##해	2097
爲	425
뻔히	24630
관군	31364
##LPGA	17265
조기	5729
양양	14619
당국	5015
형	1924
##랑드	29202
민가	28839
거침없	22788
株	397
옛	1442
규격	13738
황교	15192
그림	4238
히로	11868
##orn	13940
군정	17898
손익계산서	31140
판례	12737
백혈병	19716
끌	706
유진	10248
간신	10882
체질	9258
대적	26695
좀처럼	10043
한화그룹	19442
날씬	19654
해운대	9568
행진	7911
도박	8902
노력	3973
이코	24936
불의	16967
##ness	21570
스타디움	14198
퇴적	23472
은퇴자	30384
1900	14688
장학	6893
독한	22887
여생	29687
##️	2652
강진	11982
날씨	5792
밤낮	16601
귄	631
김관	14751
재배	7362
야심	12036
##째	3135
달러	3976
부엉이	31452
비스듬히	27914
장학금	8437
일간	10378
본회	14422
##○○	29719
ID	17077
다락	22035
헛	1910
썬	1347
혹시	5697
##k	2038
시드	12287
영원히	8868
접할	13266
환한	17074
판별	26449
u	88
학제	27099
끝냈	17324
특설	31089
이념	6382
##자동	26070
강령	15997
기독교	5776
서술	7819
랠리	23587
주군	23454
갑작스럽	17291
재외	18339
꺼지	17224
소년	5950
육류	18201
다가오	7865
알록	26850
추수	22076
한복	11641
준비물	25604
찌든	30978
##매김	9968
##공산	25156
##AP	14918
[unused212]	31712
##△	3176
공고히	22178
가주	28018
예대	29750
부러움	23718
에비	24211
##찢	3537
진경	25461
인사	4004
211	26366
##갔	3254
여간	13500
은수	19025
회계	6223
부자	5741
증원	19641
틀어막	26319
1500	8695
유찰	27997
씹	1373
나들	20214
수업	4851
강태	25600
“	116
국무총리실	23070
tr	17619
피하	6174
SG	30146
아쉬움	8497
사라졌	7901
믹	1108
결정지	30221
강릉	7825
사은	18197
내려올	29348
아르바이트	10674
지만	3612
[unused178]	31678
금메달리스트	26486
메르세데스	18755
##라면	19669
독립군	26800
굵직	17454
이끈	12297
파인애플	25811
##숏	3512
비밀	5361
창작자	30197
허탈	18733
건축학	30887
어떠세요	31202
##㎝	3208
덜미	27556
##ro	5613
Joh	13825
##패드	14360
훈훈	16384
이뤄냈	26139
임할	29335
낳	731
학살	11248
630	28148
최신	8201
밝기	24742
전지훈련	17525
##자와	31405
절약	9282
New	8909
목수	24363
##키호테	29041
박계	11293
출산	6831
불편	5153
##les	15546
배불	25989
빼앗	6838
##웨어	6617
밀라노	21480
##윙	2900
블	1186
##일으	8779
9900	26320
이용한	28349
심	1331
폐광	26519
Char	23061
##스티	6800
아토	13012
프로모션	10932
##워	2667
##lex	22532
지닌	5895
##탤	3228
캐슬	17726
스트레이트	27967
김민	9195
역임	10335
##잤	3544
시네마	17831
협력	4203
⊙	135
華	479
##oun	12165
한데요	17979
아람	26201
##혀서	25955
##펫	3222
루키	30047
파사	28768
럿	970
則	262
fe	25922
━	144
쥬얼	22793
타사	24174
가구	4304
##83	25101
확보	4194
[unused187]	31687
일광	27813
##노조	31143
##킥	2958
[unused290]	31790
##튕	3518
장아찌	29577
꽁	682
間	523
##㎡	3389
라지	23539
애당초	26205
지선	22241
폭주	20619
팜	1831
##신문	10000
슬픈	10645
싸늘	15487
아홉	9162
왕조	10052
취해	10446
대치	9603
돌격	24933
창간	13997
다고	3623
설득	5838
[unused55]	31555
벌크선	27960
지휘	5872
##ce	6259
내걸	9743
탄다	25695
알리	5234
접경	18348
만성	9305
달랬	29006
인준	20285
##소드	11862
살까	31398
##부지	24895
##껍	2599
##보내	14179
드셔	17966
면목	29264
두드러진다	25708
서라	30836
포격	15985
손보	20465
자책점	15205
별안간	29973
[unused85]	31585
스페인	6385
해명	6750
홍석	24637
강화군	28415
배재	24599
주선	16272
실은	9744
저렇	13291
##쿠니	24182
적합	6273
내	732
이랬	16169
월간	12994
묘소	23850
밀가루	13712
대한	3618
미안	6148
욕구	6765
관점	5535
민병	19106
호찌민	30777
퍼팅	18711
보급	6754
골머리	25163
재규어	24925
확대	3989
실록	22822
도가니	26037
간호학	29891
LH	8761
##HA	27002
타진	20816
몰아치	19623
##ember	28831
크리스토퍼	27763
##을까	16809
현대차	5610
수배	18627
요셉	24209
##져서	7787
[unused164]	31664
##동원	12248
곰	599
Em	28485
그만둘	30940
##짝	2661
나아	8242
기득	11575
동양	6471
웅진	13525
원통	20624
골프	4824
복당	20974
##머스	10065
라임	22303
보냈	5755
效	370
당	821
끼리	6511
토로	10041
##태우	13194
##덤핑	23329
##x	2296
개연	17535
펠	1853
회고록	21435
MWC	28126
향신료	28732
##크리트	12794
전한	13332
시킬	5044
[unused119]	31619
##긴	2411
밀도	13864
WM	26120
[unused299]	31799
카누	24320
가져	4406
퍼시픽	13053
옥천	25774
왜	1460
미달	12709
##통일	14894
미라	17562
스트라	16625
정인	16782
선취	23191
##밸	3057
長	520
지방분	14264
리온	22583
간간	18595
언뜻	15078
수사	4103
변화구	29181
활력	8879
생성	9600
P	52
송환	19005
[unused50]	31550
라스트	28225
파이프	14085
노려보	13902
말살	24873
##iam	18686
심플	14195
자성	20659
금메달	6937
빚어낸	30878
강동	9830
져서	11071
리그	4469
우애	30518
애처	27574
시사	6305
애틀랜	22862
캡슐	17249
지동원	23998
힙합	13892
페이지	8427
분업	20893
먹일	30173
내주	8966
조타	30560
당신	3994
내려앉	14022
속삭였	22108
EX	20892
217	27916
450	13103
##ca	24500
##러진	6814
##anc	15195
인터넷	4254
탕수육	23280
후천	26418
##EP	30229
단기	6010
벼락	19617
대리운전	27175
저소득층	9494
##애	2348
캔버스	20558
김철	21451
해맞이	28307
폐렴	19231
초교	16032
온기	19349
노스페이스	29268
that	16845
＆	1982
##ㅌ	2400
지나쳤	27842
##매장	22414
청소기	16054
이스탄불	22881
##니스탄	15956
화장품	5890
서투	30901
[unused380]	31880
##쿠스	16420
##민주당	26007
##oT	11206
비싼	7837
foodie	28075
의구심	14166
친밀감	25703
위원회	3945
재래식	29183
대립	6446
지저분	18234
돼	857
스러	4261
함대	13774
##가을	29473
이름난	25629
베네	10920
##딩크	19098
##다는	4000
수험	8287
##타임	15302
구조물	13582
고령자	16200
생존자	18591
신드	23023
중형차	29060
국악	10107
233	29096
##률	2595
43	5594
커졌	9299
네놈	19240
빅스	27824
가파른	15941
;	31
떨어질	9612
##지도	13807
##각형	23511
후반부	19824
##전등	31330
자투리	27536
풍수	17724
전군	29904
##뱅이	17859
듯이	4490
전기동	25995
메세지	29244
슷	1323
신의	16989
새싹	22985
차로	27119
바닷속	27200
##콤	2987
시가지	20371
닝	808
기쁘	8921
PS	17244
1949	17145
연두	22321
브릿지	24235
##ago	29042
당장	5261
오키	13152
간호사	9768
활기차	27169
달리	4214
철강	7103
개종	26845
실책	15765
그날	5719
##공업	6116
Go	19745
##니	2209
주총	17645
1982	11331
흉터	16812
##≫	3572
도매	11978
코코	13381
sc	19700
만능	17961
##귄	2821
설득력	11097
쿼터	10563
정거장	19944
dis	21147
─	143
진실로	20575
이승엽	13033
##줌	3196
필라테스	25018
정치권력	22886
키워	5972
동영상	7017
##😆	2699
섭섭	16140
##고생	24311
삭스	17357
공범	16079
호주	6248
이적	10093
##센티브	10668
경협	18542
##박질	22016
소강	29089
l	79
지구촌	14830
굉장히	4843
##ㅡ	2573
양반	9527
##캄	3059
##코인	20072
헌장	22248
##이치	13520
맞춰져	24438
무등산	25686
사무소	8157
자영	9026
진전	9345
방황	14231
정답	8801
레이트	22929
대승	15602
數	372
일괄	11465
함부	9374
농성	10497
##줄	2776
전사	8601
##스크림	10389
PGA	14246
이토록	16637
농사일	27472
양승	16813
р	108
인근	4973
발하	18677
피해액	24638
투정	28671
공문	10574
소유주	19207
발레단	21469
원형	10001
rec	23785
##귓	3320
불씨	15197
##순	2017
껄껄	29451
비겁	22122
해지지	29497
시국	13026
##얄	3356
청국장	27385
보호	4216
2014	4845
비트	9947
KO	11690
내줄	29674
송편	28358
벗어나	5151
[unused431]	31931
사부	16736
오대	22825
걸음걸이	24547
정글	17302
남도	15366
전출	31265
권영진	28845
배송	9488
도요	9275
165	14949
서양인	25194
##탐	2735
[unused282]	31782
갖은	26801
방호	28985
종업	9406
내려갔	12314
유포	12502
실망감	22585
왠지	9379
##ject	22266
파헤	13544
##ular	28199
다락방	30946
##afe	17883
썸	1349
ㆍ김	17629
오른쪽	6735
##희	2364
고깃	20768
세계무역	28996
테	1785
EM	29005
함양	11967
정봉주	31062
##로움	9867
곡물	13182
바퀴	8544
부산대	14457
##rit	23363
내디	21375
세요	4164
##버섯	14338
픽업	27962
에피	10999
쏴	1359
질	1586
당일	7494
나간다는	17864
기금	6898
외로움	14090
개성	5879
교신	26899
그나	7005
1933	20998
Society	27944
나쁘	8170
아폴	18494
스트리	21560
케익	20150
찾아온	10458
녁	760
##삭	2812
##섬	2656
선구	16150
등록세	28558
브룩	28488
원어민	20513
마스터	8570
##시장	7149
전라	13216
##ern	14591
조윤	18724
셜록	30717
뚤	924
조약	8604
계획서	13853
검정	10168
디트로이트	23143
카니발	25414
집합	12958
人	229
여명	27901
전역	8334
자가용	21834
공개	4049
차림	10111
조직법	25488
과반수	17641
CR	18205
푸르	10057
거취	16893
선로	20903
사회봉사	23553
나래	23725
어정쩡	28479
William	23142
함정	10997
사직	10962
담당	4476
허니	17945
심심찮	29461
노총	9015
하늘	4573
기단	26797
##임즈	31136
李	1977
잊어버	10829
브루	11653
포퓰리즘	17655
위협	5350
##멍	2742
로봇	6442
살펴봐야	24992
동결	10937
부진	6043
##챔	2868
처단	28081
땀방울	28882
본다면	9969
일군	23935
340	19634
똑똑히	24128
께서	4710
끊겨	29769
뀐	701
호통	21529
명의	8918
138	17080
사대부	18437
왕릉	29151
월스트리트	14896
가도	20243
맞불	26837
##뭔	3257
걸맞	10542
메르	7135
넘어선	11750
허나	20987
James	26041
소파	11559
심성	19362
자신	3638
ㆍ무	28628
공소	12947
##39	24834
불거	8470
장서	24829
숙청	21787
##뛸	3538
토마토	10763
전남	4997
근원	8740
병역	10239
번거	15417
훗날	11821
특이	8329
중학	24700
청중	11347
바실	30029
##팜	3313
기상	7179
보태	12102
필립	12603
평택시	18870
##ER	10646
청와	4447
영산강	21062
안전망	18392
121	14936
##은행	4701
형량	19847
instag	27955
城	298
마이클	10364
최선	5449
##28	21717
황우여	21878
휩싸여	25879
할당	13192
원문	19836
씀씀이	29357
녹여	17257
과중	30690
유력	7271
수행원	29329
이유로	23048
대개	7256
자퇴	30112
비화	20952
성능	6540
的	445
all	21058
들어올	9994
손석희	30712
##렷	3108
잔소리	15645
##쓰	2417
총장	5430
[unused94]	31594
[unused175]	31675
이노	10828
##라스	5822
판서	22907
실수요	14442
##왕산	27649
##촌	2730
외치	8455
낱말	15479
높인	15542
개수	17101
이재오	19970
임대차	15151
##경제	11769
떡	910
설명서	20733
쏠려	27173
##ins	17969
남하	29943
마케팅	4852
둘러싸인	20016
##지휘	21341
사회관	19726
ㅠㅠㅠㅠㅠㅠ	30730
##짜고	28430
애	1389
국고	11795
편파	21415
경고	6151
국제공항	14074
마포구	15680
허균	26183
충청	7265
정족	30782
기저	12175
명심	11741
임직원	6809
부류	15306
##ob	8359
매몰	14108
##une	30769
톈진	28419
훗	1948
일월	21814
언서	27282
Air	29382
귀순	25460
합리	5411
송창	30736
요거	12029
신선	6667
##밌	2671
##성장	8120
학벌	21048
##셔	2415
주채	30453
##eneral	31097
엎	1420
직설	23709
포즈	14968
홍수	10396
방사선	12955
풍요	10236
수해	21325
m	80
Intern	14933
전근대	27782
동적	30755
지치	14613
최고	3841
재판부	7443
수확	9215
난다고	23695
##전	2165
표결	12176
집집	25029
개똥	30661
적군	19831
염두	8650
눴	785
서해	8132
스쳐	13993
핸디	26718
우즈	9132
의한	5085
잡혔	15114
##og	6128
빠져	4774
고을	17705
##마리	12736
밥상	10762
국정	4567
듭	884
강서	18036
오호	22152
육수	13999
한층	7320
럽	969
##턴트	13768
큼직	22121
##수기	10741
영등포	11861
##먹이	18129
할지라도	11568
Je	22958
진면	31233
재력	25007
대표단	12711
##ious	21492
몽골	8836
빌보드	23993
최대치	19252
팀장	5680
돌발	17248
잘랐	28683
탐방	10487
무겸	25524
후세인	26615
지속	4115
産	433
등산	8504
전통문화	15600
GT	16068
챙길	19238
신태	21585
##쯤	3353
반열	18943
##볶음	20291
del	25389
재가동	22814
생물학	11903
요코	18220
오락가락	21976
낼	734
떠올린다	29338
은둔	24289
가중치	26229
달성	4994
##후	2158
되게	6109
살짝	6693
공헌	7021
차가운	10215
그릴	12222
커넥	28159
팸	1841
g	74
이뤄졌	8266
재단	5045
BBC	15617
문헌	10788
구속	4908
전투력	29725
파고드	26601
서대문구	23646
김형	10991
##노	2406
전광판	21218
고기	5257
##um	6306
당수	30863
##ast	10647
[unused66]	31566
C	39
깃털	19915
출토	19055
가덕	19218
샤브샤브	26594
플랜	7942
명시	8144
행복감	26600
게이머	30040
딜	891
선포	9367
숨결	19686
들리	7428
빽빽	22931
##87	25493
기획	4417
##독부	27803
메기	28326
노랑	18805
몰카	29989
후원회	25692
간편	8539
개방	5751
참으로	7654
의아	12782
피드	13876
아찔	16869
팬티	18344
[unused107]	31607
##김	2288
갈비찜	30230
코미	9640
fl	22232
비염	20445
투철	27174
면은	5441
면서도	12208
Eng	31488
추대	15305
화두	10060
휴스턴	23097
시선	5259
foodporn	25391
史	277
청양	16690
도로	4475
휘하	24855
밋	1113
근현	21228
탱탱	26684
대수롭	22694
편했	29529
종단	21685
수수	5381
흔들릴	23298
계열사	6329
편승	21885
들여온	29485
[unused355]	31855
Bu	28005
쥬	1575
불꽃	9376
주안	19164
요새	9730
용산구	19426
보드	11569
맞설	25719
기여	5291
아련	22104
여객선	15646
화보	10879
숲길	18742
킴벌리	29083
탈모	11377
퇴계	17516
클리어	21815
##적	2125
##게임	13960
[unused49]	31549
지하철	6312
produc	31138
성난	22890
두른	24027
고모	13146
##킨다	12038
[unused344]	31844
행여	21909
승전	26921
##룰	3112
##우치	19009
옥시	23636
##극	2216
제목	5772
인플레이션	14069
야크	27348
어버이	16301
Mac	30102
청나라	16716
패자	20540
##왁	3185
모로	16785
명상	11364
##구멍	13634
빅토	14708
펜스	17041
쿠르	30617
김은	14410
비닐	10437
만수	26088
드나들	15887
지원	3691
일심	29634
수출국	23625
빠듯	25065
삼성카드	19564
괴로워	22384
따졌	24993
병무	26640
타이완	29670
##일답	29347
##C	2108
예문	24144
일제	5645
외압	21686
롤	994
내려진	20752
은메달	14576
삼계	19248
원희룡	27855
THAAD	25510
립식	17857
사납	24853
승려	13824
개편	5780
김의	28873
송전	13831
단순	4488
답답	7543
스팸	23075
소유	4913
맹자	17707
은신	24429
DI	26523
살렸	19437
체인점	26251
출력	11232
범주	9593
해외	4075
뒤늦	8406
연성	31252
걸까요	17260
##렌스	19082
생	1250
평가	3777
걸리	6179
최루	26887
산다	10265
앙드레	28366
##주니어	25451
끙	710
##렬	2884
처장	9357
##폴리오	10326
ㅠㅜ	30004
##💕	2152
현저히	17035
자발	7695
##댁	2739
일어	7736
액티브	19764
수레	14190
단결	14560
##멩이	21614
##티티	23314
비수	28771
필라	14193
】	177
불안해하	29232
연승	8690
식욕	15686
##지구	22472
연중	13347
정찬	23354
결론	5431
##란히	6173
신기록	19967
호두	15043
김두한	25662
행복	4202
[unused54]	31554
열심	23436
테너	26411
PI	28973
물러가	22096
조중동	26877
컥	1711
옥외	21975
성취	7408
수치심	23491
골재	27693
부릅	24280
##깅	2186
전술	8928
접속	8407
콰	1734
애쓴	27356
조미료	24085
정순	25690
파괴	5802
최강	9448
강등	20204
배운	8174
초대	6158
미워하	18322
전했	4929
##젤로	30697
조직체	31366
수출입	13154
레아	28444
[unused226]	31726
적성	10533
벌레	12642
기절	19087
얼	1411
그어	28215
눈보라	30779
들어	3685
##액	2432
김덕	20528
개관	9244
이태	8583
ㆍ조	27394
수석	5182
[unused73]	31573
##앉	2873
병합	16021
저탄	16821
##본	2136
##르도	16083
흩어졌	28796
부회장	5875
그리드	20414
노무	6160
삭제	9214
채워	7611
화려	5725
와	1453
하강	21436
[unused48]	31548
멈	1062
선글라스	14692
##IST	11644
환경영향평가	19798
펼칠	11450
방전	28905
삼척	15481
힘들	4390
보트	12840
협연	22913
OEM	31209
229	29416
##살렘	15111
코팅	16509
바빴	18620
##섹	2594
저쪽	12610
다룰	14500
업그레이드	9482
휴	1956
대통령	3698
tvN	13796
두세	14546
화법	15191
변비	17445
유지비	30719
매입	6130
[unused265]	31765
중학생	11362
##◆	3096
##제표	17572
백합	28593
직진	25969
브리티시	26115
서영	17223
훼	1951
삽입	13204
내세워	11572
##칼리	24413
묶음	25288
놓칠	19478
그나저나	19267
갈렸	27956
##모자	26307
세조	21396
##숙고	29364
황금	6983
##융	2433
[unused157]	31657
나기	18827
때문	3624
비엔	13502
퍼거슨	23484
젖소	27206
[unused286]	31786
최병	23558
임동	28892
서슴	16764
설문	7509
당헌	24640
뿔뿔	30476
결제	6286
##래	2315
나루	21846
가락	14597
신용	4965
고위층	30644
관리	3759
턱	1778
효율	4955
열풍	9441
##걀	2724
##페이	13907
##뺨	2909
[unused415]	31915
스노보드	31276
마이크로	25238
맘	1043
##엿	2610
잘난	18728
명가	20200
##비전	7150
력	982
게나	22949
마카오	19229
##숫	3186
달여	27699
SI	22861
달했	9819
몰	1082
##res	24757
說	497
장안	14852
여보세요	20472
중심	3886
시각	4808
University	13935
오보	22680
주량	29511
골수	22278
따내	16461
At	31229
##늑	2856
해야지	10159
입지	6772
관리비	15013
레이디	19449
두각	18250
유휴	23708
##형	2444
재판관	12802
전액	8922
알아차	12643
어린이	4498
연재	12944
폭행	7694
핵실험	10609
기막힌	25366
Pol	14355
◆	153
##반	2536
교육부	7167
뭉치	15077
필러	27826
컬럼	24212
진압	10885
고온	19880
납득	10924
잇따	6313
[unused214]	31714
금연	10916
탈바꿈	13210
전라도	14329
가차	25201
제재	5900
내건	16562
상대편	25762
##일러	11687
우기	21282
회사	3769
탈핵	30135
1952	19951
##숭아	13620
〕	179
불감	23969
굶주린	29638
와일드카드	29831
제품군	21242
삼각	11021
강점	7201
와사	26843
쌍	1342
##랍	2745
##미터	8569
현대식	30789
성폭력	10251
[unused424]	31924
늪	799
마담	22043
랜딩	30791
천부	28761
나옵니다	15307
동반자	12946
콜롬비아	18045
애국가	26605
##넓	3307
강정호	16197
피싱	17300
준	1566
꺾	667
자녀	4861
였으므로	21748
구룡	24346
##금속	14060
변경	5131
##졌	2951
친하	16933
히어로즈	19317
건널	24464
생색	28653
ha	13866
망가지	25195
감염병	22989
##나절	20276
하이브리드	9346
가축	10961
명작	19875
논의	4330
이벤트	5028
得	349
볍	1157
com	6234
센티	16075
##저히	7526
##토토	18716
##네즈	27794
튀김	12561
절규	20677
강조	3986
##하나	8705
양도세	15830
조연	17053
베토	16974
닉스	24196
광둥	28321
책임	3998
이강	14635
##결연	22331
##뜨렸	8776
바울	12237
조수석	31338
##키스탄	10744
동물원	14985
≫	134
유망	8822
게요	31383
사망	4950
심술	25782
자생	13452
##르바	22744
막히	11512
##올로	8890
늘린다	28039
몰라서	16030
한가위	26997
과밀	27458
옵티머스	28881
##69	27336
쯤	1624
탄핵	7224
복고	21301
소위원회	25658
매년	5088
##톈	3209
어떨	8110
##금	2157
넥타이	16990
##anian	24247
리포터	24266
콥	1731
限	525
61	6586
##리에이션	28941
동아리	8394
##느님	8087
에이	6154
##렉트	24745
DA	27585
넓혀	11654
강원랜드	21118
##웬	2842
##적인	31221
할	1892
방금	9684
애애	26670
부원	24068
결별	17912
㎞	207
내다봤	11997
케임	25303
암각	24568
火	422
매니	7532
카우	22487
재무	6090
녹록	22114
유한	11488
기막	20470
정근우	28774
조중	21339
완연	30930
라파엘	29438
시사회	19688
고영	15896
ag	21402
극락	24515
무속	29766
광대	13443
꼭두	28681
철저히	7365
김성수	24704
조마	29425
관상	15846
으냐	17279
아이폰	7765
Korea	16280
출장	8163
공직	6098
무드	19862
정병국	30654
##탕	2798
대륙	7606
셋	1275
미얀	13021
와이드	24206
음미	20076
##이상	18164
광산	10328
##로니	22917
부업	20990
##LO	23235
기다림	21796
현존	12710
향한다	23984
베를	10084
##50	5281
##래기	26965
##mun	14243
순순히	21219
##추어	11596
[unused309]	31809
조별	13142
19	3630
써도	19048
법문	31204
수주	6599
##모닝	23939
갈아	9559
껑	672
##르트	6414
섹스	10758
에워싸	26178
파울	15320
히든	24190
약국	12234
타락	13562
LPGA	13022
##폐합	17281
난치	22341
현명	9283
ex	12235
상속인	27578
격려	7701
정종	18360
정두언	26032
##몰이	19806
##착	2668
뒤져	17517
화원	19812
성기	15394
다큐	9113
##궈	3098
##ization	17906
오랑캐	24261
감정가	27074
난국	31193
고야	19372
ㆍ상	25981
##콩	2658
된	860
대장	6085
##어질	7424
무산	8277
씁	1368
손주	23657
양계	31095
대처	6438
##촉	2665
어획	22221
성주	11003
지지층	13755
##71	23738
공보	14627
경청	15079
IF	20589
투자액	24985
다녀왔	11765
버무려	30409
공감대	10628
we	23638
##봄	3064
인도주의	25898
사상가	17934
칵	1698
버튼	9820
소나타	25822
인권	5188
##광역시	16955
종교	4786
오랜	5017
[unused42]	31542
텔레콤	6976
간장	10110
틀림없	8888
김진표	23514
생리	9014
##짜기	13457
노비	16904
현실	4017
꿈꾼다	28766
안타	4970
상념	27052
곧장	12720
콜럼	24497
Q	53
눈시울	21872
우릴	27869
윌리	10193
당사	11709
아닙	5531
입	1511
학생	3767
인민공화국	28944
양팔	29465
00	8052
공략	7185
마카롱	20210
순자	25885
핸	1899
말	1041
원안	13111
##럭저럭	23278
불끈	26560
저우	25500
이순신	10661
대서	18979
초코	11486
내년	4172
##시안	24944
느껴질	16704
관광지	9417
##벼	2662
기도회	30619
도라지	24389
쿠션	12884
송수	28146
시리즈	5526
잠수함	13711
박지원	11438
실종자	15122
심부	14216
김현수	16788
##번스	26584
##ott	20785
생가	20607
수퍼	15025
고민거리	30087
1948	14384
혐의	4456
가히	18628
##무니	13878
툴	1804
##렁거리	18663
##ft	22366
봉건	14118
쓸쓸	12532
##클라	24818
##저러	27351
##높	3093
콘도	26236
##샀	3575
400	5808
사용법	20650
낚	719
연구회	13442
거나	3730
##버트	9466
로스앤젤레스	17361
끈끈	19569
##ubl	27297
목회	12681
장자	12626
니까요	8491
페더	24672
##여정	22008
##쿠버	15260
안락	14227
아득	17040
대회	3931
해양경찰	29299
뿔뿔이	30964
피스	13041
나오	3853
##이다	28674
신도	11267
1100	15774
쫓아다니	30492
질환	5507
극우	15233
무주	23482
급선무	23683
결전	27757
카다	20462
서머	25910
망설임	23165
본전	25324
외계인	21423
서킷	27614
느릿느릿	30828
크리에이티브	24106
현지인	25592
한국식	26416
부적	8231
[unused385]	31885
게이츠	18594
낙관	11224
조폭	20056
##다녀	26575
##용품	18319
깁	649
내야	24035
옮	1447
##동자	10895
알레	10974
강기	15317
요금제	10841
원재료	17729
자타	30325
데모	17621
염분	27596
##퍼트	18298
풍선	14102
숟가락	15852
근친	30416
[MASK]	4
53	5997
기아	6194
크리스티	21958
In	6528
닷새	19839
청과	28961
CN	11952
문양	17110
떠넘기	20713
충실히	13996
악한	20502
맞선	16020
구급차	22484
장녀	28337
##철	2313
목숨	6132
웃돌	16494
다인	26840
될지	7101
기인	11126
띔	939
##뻑	3434
머리	4100
가슴살	16656
태화	17401
이명박	5554
국밥	18682
레포츠	23519
노고	19018
축	1673
승인	5887
王	429
##축구협회	27642
1958	18199
범어	21824
사명감	19356
관대	16816
철없	27972
초식	28098
108	12309
지은	19067
후유증	12212
해골	27021
통통	17670
돌아서	13297
Rec	26428
신항	17038
피했	16414
과음	29828
스피치	20313
선지자	31376
비씨	18219
work	24208
부적격	23033
##입니다	12190
##퍼	2712
흰	1968
낙담	29597
밴쿠버	18032
참나무	27015
계좌	6964
보령	16495
스펀	29231
##어져	5908
밀려오	24614
##F	2314
맨발	24799
일으켰	9453
EV	20851
추천	4635
전망	4016
쁠	1230
이메일	9729
이종석	29666
체스	26621
金	1974
새내기	22950
하산	20602
조회	10398
개각	19053
치욕	20077
위치	4318
##앗	2767
이행	6162
알베르	25934
신중	6989
SPC	19913
으레	21388
제정신	24006
적십자	16173
Co	16219
월등	15142
취약	6773
시술	8519
지오	18136
##끽	3164
찾아간다	29453
##퍽	3450
극도	12548
중소기업청	16970
블랙홀	20417
연결	4440
교역	9696
칫솔	18391
예전	5378
짐	1588
금지	5040
MD	14857
써먹	25441
평안	14066
데카	18612
블라인드	23371
상태	3889
조	1552
타악	28687
옹호	10951
##뚜	3168
허벅지	13476
준공	7716
제국	6113
잇따르	13081
치러질	28210
대출	4394
담겨져	28623
[unused6]	31506
두려워	9862
국가주의	30822
집안일	19607
완료	6190
기울여야	16727
일념	30289
IB	8617
사위	12429
략	962
뭔가	5079
##미트	26096
코스모스	25479
gre	26292
재	1528
박석	20350
장마	11477
임지	26985
DVD	22730
[unused10]	31510
##Ⅰ	3239
헌터	29613
보완	6374
]	64
구금	20860
출항	20901
국행	28261
동해안	18559
지자	5407
은빛	21967
엘리	7137
제거	5523
재협상	18022
가리킨다	16519
선정	4218
관람료	28491
국어	7062
촉진	6627
##썬	3495
빌어먹	22763
바탕	4875
코스닥	8704
릇	1025
은영	24817
##컴	2996
##교섭	28884
테러리	17193
사람	3611
공동체	5516
될까	8466
##ior	24764
요소	4787
진행	3750
##눔	3134
물길	21207
##é	2080
니깐	12404
감액	22743
##둔	2684
육성	5174
램	956
지검	8621
김인	12307
무분	14233
파동	11344
모스크바	13424
감식	24566
##바탕	13493
주호영	30567
출입국	19753
격전지	29147
백서	20532
UR	28902
하고	6159
후계	12283
치러야	18876
엘시티	29712
##동맥	28726
롬니	28376
집들이	19132
특파	22974
석탑	24756
책임자	8254
지쳐	13847
사진	4035
한시	14396
율동	28284
노년층	23469
900	8389
쌀국수	21964
美	466
름	1023
##olf	30892
적절	5268
성추	12155
만난다	14068
원정	7446
결렬	18583
약간	4943
이지만	27652
어려워진다	29985
춘	1674
가져야	10538
부국	26405
아리	8762
비웠	27968
에게서	5609
확충	7237
유전체	31426
윈도	13783
했으면	27477
평준	16707
달마	29864
##겨	2368
##K	2213
보유자	18275
위례	15629
카타르	13516
##총독부	28707
틈	1817
흡족	23458
마티	23540
청량리	25823
##럽	2319
##ein	23958
경진	18425
브	1184
그제	10419
일쑤	13491
州	333
정립	10205
방식	3981
##땐	2355
출신	4327
불린다	12732
몰려오	25906
진두지휘	25339
거린다	27564
중급	30812
##급수	31226
필수품	22953
어차	8465
각본	19771
##age	10754
詩	495
이례	10156
봉	1168
Wh	14999
애썼	17663
파랑	20712
차질	8436
##쌀	3023
##분자	25354
탤런트	17627
127	15057
##OR	14851
Ag	19738
중형	11731
봉우리	20418
신생	10035
950	24410
최희섭	26562
이글스	28205
감점	28920
285	29401
원인	4511
홍준	9591
##영장	17113
산다고	24928
평론	8833
##면	2460
피시	24641
고사	7613
##치산	21948
김태희	27451
유물	9291
론	993
인천시	7722
##선지	25631
재테크	10594
분홍색	25084
증설	11601
사례	4411
들여다보	8275
구려	18843
도하	26081
후쿠오카	19214
받아들인다	20684
놀란	9920
맹세	14420
순간	4236
흔들	5094
##납니다	15711
담당관	17498
창세기	26676
정치력	29003
엉망	14541
##거스	18001
아닌	3885
띄웠	29601
수려	23662
##의	2079
어	1406
싱크	13134
계열	5096
어항	28302
골칫거리	29732
##좋	2716
평등	6381
미만	6607
영장	7158
초점	6392
김하늘	26754
합심	28746
발송	11786
업자	8927
##con	14489
제보자	23275
진단	5169
애플리케이션	11149
적중	17228
학계	10375
예배당	28656
서한	15675
당해	8379
로그인	26951
화질	15310
팬클럽	25959
엄한	30389
이효	15262
##낙	2921
축적	8460
己	334
벌금	8473
순화	30588
벌어진	8564
기울였	13384
대의	14006
##덜란드	8420
자릿	14155
동정심	28957
메시아	25143
파스칼	29800
열렸	7099
비서실	18828
사온	29771
[unused2]	31502
통틀	16176
떠난	7795
윤정	23171
하얀색	27205
##무역	24711
퉈	1807
이지	9353
지미	19537
저명	17133
당산	27915
동성애	13034
##지기	12593
이따금	16128
살균제	19462
나와도	29164
##곶	3253
해동	26611
과식	26614
##eauty	26434
폭포	12572
루스	14695
▼	152
적시	10483
##ery	21637
신사	8213
걸요	20181
##어나	3829
YS	25746
##정권	31038
마장	23767
정장	12564
##of	14867
[unused332]	31832
물류	6921
경	591
획일	15990
앤드류	30505
수렵	28785
육회	20485
제대	13896
찢어진	28524
사무직	26848
그러므로	5812
혼내	28253
추신수	11329
이야말로	8126
외쳤	9925
헤이	12305
도표	17706
##폴	3030
야겠다	26031
냠냠	17588
대열	14530
누비	14871
##어	2051
##하키	19458
옷	1451
꽉	685
빚어지	20919
총감독	29136
##분투	23663
戰	363
놀라운	8198
공연장	9978
변론	14002
현격	30599
푹	1870
##AS	11648
##포츠	4474
내국	16693
알로	23166
공구	11451
보상	5175
려고	4086
실수	5678
다졌	17097
징조	23898
반가운	14960
은연	29829
1600	14107
스릴	15314
시흥시	21669
타령	23202
그려진	15690
백두산	16407
KBL	22550
충분	4332
초임	31126
당연히	5726
왜냐면	11675
교직원	12936
쳐야	27729
공손	16860
정운	16646
코스피	7866
정병	18726
주년	5710
7500	20311
곱씹	27178
곰돌이	28077
추첨	9520
VIP	14700
여쭤	19485
##카와	22676
검	573
묘역	21049
이놈	12282
빛깔	15073
헌정	18974
영양	5701
빼내	16591
연료전지	18053
##ruc	19281
나갈	5181
애널리스트	15286
통일	4702
윤재	26250
##픔	2914
혈통	20096
##방	2239
라운	14380
한동안	8480
한다는	3807
수입	4471
CO	12776
영양사	27958
공경	22056
좀	1556
줍니다	10976
##란다	5519
라이언	17438
보호자	14280
풍겼	31479
알약	30549
혼탁	28142
코엑스	14262
데이비스	23238
태어났	9499
AG	21015
궁금	5333
내세	5618
생겨난	16062
##눅	3300
유재	13655
기자재	16670
JY	20973
홀로	7248
모방	11280
##횡	2714
##AE	13994
4300	31023
##옵니다	9909
수정	5413
74	6946
고종	11418
고스란히	8838
그런	3637
쓸	1366
헥	1913
김정일	8657
코스타	24908
우울증	10218
스미스	14570
처참	19296
##ia	7856
죽였	13644
넥스트	28538
강한	5031
미각	27163
차남	23859
243	28836
요건	7025
BN	17160
##블러	24703
##브르	21110
이광수	22067
가속도	26510
마지못해	26818
업적	9714
##튜브	10625
요긴	30240
전모	25998
hom	26911
구직	16232
배격	30799
수빈	22180
[unused238]	31738
성교	29331
위	1485
코르	16946
오메	17520
조지	8373
포구	18899
청동기	26732
버버리	31482
1910	16921
대표작	18624
333	29520
[unused239]	31739
청국	29145
섯	1266
한옥	12863
빙긋	26075
전차	13533
착한	8731
기제	21659
보헤	30614
##즘	2774
숙주	22575
더라는	23342
매	1050
다나	22326
메웠	31009
SOC	15723
서강대	15992
깐	656
입증	6850
발상	9938
이계	15552
##난다	5545
##워프	27503
자란다	29301
##ox	18050
##FC	10904
염증	11138
교포	15423
천명	15689
흔들림	17431
해수	7909
한다든지	20585
나뉘	9928
z	93
222	26853
진척	18184
롤러코스터	30375
##뤄	3248
익살	26268
소심	19957
남친	24031
면	1073
영화배우	22055
MT	28795
서청	24297
선비	9943
한반도	5409
출구	9802
포	1862
실업자	14248
넥슨	14859
인품	25405
의연	27264
255	28640
어림	20870
지렛	28455
쿨링	26844
35	4673
방부	27460
[unused323]	31823
[unused230]	31730
인문학	9917
교전	21220
##안	2283
비서	6770
붉	1177
도자기	12760
##리아	4060
법무부	8720
자아내	17974
비서관	7821
여상	30570
이어	3796
불면	19616
공생	19143
Her	22590
##량	2199
뉘앙스	24342
13	3876
이란	4989
ㅎㅎㅎ	9297
##필품	18809
분사	16808
빨라졌	29526
파장	10124
지급	4589
뭇	1095
종양	16215
결사	16884
단번에	18617
##젠	2146
꼬집	10973
##팽이	20515
단풍	12899
대구은행	26087
알려준다	19509
야구팬	28354
모티프	29169
130	8898
진정한	10660
[unused91]	31591
몹	1084
부드럽	7704
기록원	31440
애리조	20421
자비	12167
장례식	11758
Pa	20278
사또	30318
[unused383]	31883
화요일	14353
동식물	23241
춤추	14727
여의	6884
안전벨트	31196
누가	4869
배출권	29588
자이언츠	20562
용호	30219
##눕	3152
리어	15382
트루	18190
고칠	21150
더라구요	6267
훌쩍	10513
아닌가요	16596
##BS	4598
흥부	29845
자루	14447
이광재	30028
극단	7001
골고루	12678
지나쳐	22649
양성	5862
추월	16925
마스크	8979
살인죄	31329
##된	2897
궁전	14029
유성	10351
으스	29652
부활	6973
정동	11109
네온	27624
1936	20727
더욱	3940
스트레	15722
미	1107
차이점	12882
서기관	27340
##이터	4521
압	1384
조언	6169
반주	21807
##노자	29641
스완지	31312
산산	22824
신분	6242
##으며	4007
FC	7992
치켜	13557
달째	28690
별로	5429
깔리	29700
예지	27475
타워	8203
슈퍼	5813
쿡스	28529
샤	1251
키운다	26112
왜곡	7399
안심	7058
##금자리	11478
##상의	24238
북아	17720
써	1345
니다	8648
그래서인지	19378
피케	29938
##좀	2505
삼성증권	15023
우여	16316
맞물려	13223
##커트	14869
이제	3699
##바라기	20873
##each	27542
[unused403]	31903
##sp	20926
우성	27765
자른	27440
##❤	3336
연인	7784
왈	1456
벌렸	24268
본론	27349
kg	8628
국립	5327
와중	9676
평정	15135
APEC	26556
바람	4149
수류	30018
향유	15499
빚어진	24813
직전	6480
토마스	15699
느냐고	9302
각양	24752
👉	1997
가늘	14784
##썹	3128
##죄	2293
자의	15263
꼬이	26725
님	805
중독	7698
낭만	9656
단지	4204
연일	11191
죽일	15270
소울	22051
조리법	28587
하얗	13357
개년	17473
Ge	18952
모자이크	28405
어루	18477
스트로	19088
메밀	17093
번성	22320
##어들	4519
내력	24214
##찌개	12144
##됩	3598
응답자	9440
연다고	30903
##틀리	24314
라이온즈	23682
하얼빈	29030
##tice	29882
양해	10797
대손	25035
센트	11515
한데	5529
무거웠	29621
울음	9483
내던지	31264
기색	13461
아니야	16733
숙	1296
대	823
이공	15532
브라우	18710
바란	19855
자유당	24244
웨이팅	30464
슬며시	26841
뚝심	28112
걸치	16136
Hist	20388
##TRA	20707
3600	24898
비례	7758
못함	21936
난민	10234
절반	5335
##옛	3517
커질	10472
살핀	21667
전갈	28467
##낸다	7151
가을철	28712
시호	24307
정몽구	21065
치우치	27569
및	1116
통일성	25514
IFRS	30761
피운	26591
##미술	25619
##지대	11196
경작	17188
이항	27164
■	146
나머지	5064
눕	783
health	29482
콜레스테롤	14902
대마	14372
향긋	25003
불붙	25096
후문	14797
동두천시	29397
[unused22]	31522
열거	17526
클리블랜드	19912
권선	20645
카르	11395
페미니즘	17345
중거리	24561
진	1585
[unused153]	31653
470	25580
오크	16737
##앤	2261
윤성	18774
전체	3910
빠지	5893
신차	11498
수심	16842
섀도우	27988
해리	14113
me	13352
성벽	15538
##마크	9112
바뀐	8451
감싸	9154
꼬박	14462
스메	20947
적	1536
햄	1900
##폰	2357
호모	24347
전문직	16870
##러운	5464
마르크스주의	19757
불모	24242
##합	2092
입혀	18601
으랴	23001
네모	19694
통지	12004
##숍	3178
##윽	3202
서평	25311
##라지	14406
상처	5456
##대	2104
막판	9901
후손	10965
젖히	27228
##낸	2754
과시	8832
점프	11961
으응	27392
합치	11939
우완	29073
철저	5176
바베	30279
010	25520
목살	27459
우러	15228
산행	11910
gl	24302
얽매	16392
컨벤션	11830
게을리	18798
Par	16718
##이크	4581
[unused52]	31552
겠다	18175
팀	1823
익산	18310
노르웨이	13706
##쁘	3175
밀어주	28987
위스키	15319
굳어졌	28162
박유	24155
사표	13242
뷰스타	28015
Oxford	28917
자켓	30747
##꽤	3570
정해야	30098
소집	9960
설리	25709
공고	7715
포드	11691
따랐	12898
장담	13243
1908	24353
세일	8336
##북자	12015
다녀오	12743
플래시	15214
##향	2482
##받이	21340
팩스	20949
부침	21738
백설	24160
여길	18462
랴	961
용선	23616
프랭클린	25502
녹색당	30714
법인	4932
[unused325]	31825
헤어져	25369
날려	11871
괴롭	8472
말려	15484
아린	27193
740	31160
각계각층	27664
조선소	13073
소량	17989
오뎅	29937
얹혀	30232
음료수	17020
곰탕	29225
可	276
특기	13482
별자리	22739
소속	4546
##동아	24880
농어	9873
비방	14762
김응	27453
##따	2384
그레이	11048
소방관	15776
System	19497
파헤쳐	27050
그러니	16853
거주지	19160
프린	8354
맞붙	12949
109	13880
최일	26571
[unused343]	31843
모사	24621
어업	12489
먹혀	30038
금세	11516
하동군	28865
##금고	24867
미용	9186
##꼈	2527
##😭	2676
##씹	2799
##빽	3549
일부러	8835
이한	15208
V	58
읊	1499
청라	16675
##라드	26487
##org	20962
행하	10106
##ys	19413
되물	19380
화살	9981
말랑	27479
벌컥	27651
자괴	27840
##iti	15718
##리지	27481
서스펜	29466
여아	29001
한중	12611
안간	18245
어떻게	3842
샤넬	22544
한류	8534
##링크	23291
창밖	20351
그녀	3821
미생	12059
[unused112]	31612
친구	3949
##bert	27276
##LC	30682
##바로	5856
인피니티	26247
權	401
##85	21411
포수	12111
약서	26116
장벽	9609
공수	14848
##빈	2626
[unused231]	31731
친서	29087
[unused36]	31536
스킨	9497
달할	17056
막부	27964
성종	21186
소공동	28633
올라서	16595
왜관	29726
증권가	22426
콩쿠르	17784
백마	24950
찔렀	24277
♀	161
##휘	2740
헌재	10316
커머스	17309
마지막	4178
따라다니	20845
##34	24148
##미리트	19115
열병	24768
국문학	23920
헬레	31335
[unused348]	31848
##버리	10592
누	778
##어난	4195
목소리	4243
조용	5574
http	8415
정열	17347
##소송	18098
최하위	22059
##펜하겐	30324
강희	23814
수명	9038
[unused318]	31818
봅시다	15177
인테리어	8100
탄수화물	17959
원점	14981
십자군	24975
소사이어티	28530
어젠	29469
권혁	21496
조선어	30858
마다	4009
자몽	22706
명칭	7864
광역자치단체	27581
모피	22759
비즈	5682
클라	8148
들어왔	6867
스텐	26385
두둔	30446
##시티	16270
진다고	17755
SKT	19963
엄중	13120
운송인	30602
닿	822
받치	27347
샌디에이고	30762
나간다	11314
경치	17199
##oph	25049
잇단	16840
그러고	24105
1967	14925
성남	6406
249	29827
##실현	30490
일명	11889
간호	7578
욕실	14470
뭣	1101
직업	5116
당선인	9571
비쳐	20407
##페르	30962
소아	11520
프렌치	20259
MK	30987
有	387
일반	3935
利	260
타계	25804
##콧	2804
항일	14552
연구실	15541
앓	1382
한나라	5143
참고	6108
전세	6127
조만간	8311
차별	4874
호흡	6161
세계	3665
##샤오	23157
신명	14953
한두	7978
휠	1954
민감	7198
뒤지	11780
프랜차	10002
동요	12233
귀중	12791
볼트	14672
레코드	20683
재협	17592
자세	4558
쓰러질	29560
꼬치	17381
##끄	2212
존엄성	29715
당분간	8349
된장찌개	22245
아쿠아리움	31445
##에스	12830
입장	3946
절단	16331
자체	4029
픈	1879
작가	4197
띄우	17274
화이팅	21121
새겨져	19216
기내식	30244
族	377
[unused278]	31778
성냥	24138
컨디션	10793
만루	22997
박서	30692
원색	23857
흥청	21825
상도	22988
TEU	18338
에세이	14621
DB	16731
##잊	3491
inst	9632
전환	4561
##호영	20689
유고	21246
왜구	24814
컬럼비아	27357
휘파람	25929
오바	6353
발령	11180
##trol	31246
풍미	15708
##우회	25570
도자	22636
주제	4551
박기	15703
스노우	23605
준용	25115
관능	25791
매각	5564
기동	14891
데이트	8698
면담	9222
NH	8933
남겨	6962
탁구	15171
심신	15282
놔두	16423
볼리비아	30411
됐으나	13518
e	72
재량	16435
저질	10570
외침	15947
버럭	24186
랐	949
우승	4564
로펌	17028
겸용	30763
곁	592
태그	16044
국제통화기금	19422
독서실	25193
##렘	3265
신축	9226
부산항	17003
정주영	22716
문재인	5573
불변	21086
박순	27713
과자	9496
비엔나	28178
갸	564
##혹	2994
지도자	5647
센트럴	15674
아태	26824
늑	792
##격	2502
좌절	8642
애니메이션	9296
소변	14215
선팔	12925
주안점	26391
수채화	31167
유흥업소	29420
페르시아	17198
깃든	24412
살펴봤	20051
##rip	26343
락할	23230
Ro	25145
앞치마	30218
취재원	25608
발육	29561
노폐물	18333
문구	8426
[unused211]	31711
줄다리기	24530
교직	21957
국제법	20747
차감	24647
##러진다	22215
민들레	24073
##팩	3227
입상	14566
[unused250]	31750
에메	31388
##시계	16355
성폭행	10648
##시대	13169
엔터	8047
파묻혀	31324
한숨	7470
애로	27531
독서	6133
응집	23629
##생산	12578
이기심	27907
##침	2540
풋풋	28273
비틀거리	24169
초밥	13019
탈퇴	11533
Univers	13198
출국	10314
##사르	17909
0	20
부서	5902
런던	6648
통상	5766
가짜	8711
정해	5596
참모총장	25178
출중	28778
옛말	29552
##평	2139
농수산물	18861
도울	14888
등급	5000
구조주의	27293
의거	13253
시료	25099
##레이터	13088
김용	8536
생소	13517
찾아다니	17121
채굴	27350
##성동	27234
사옥	12458
효종	30522
후퇴	10877
텍사스	11813
공청	12672
경영인	20220
소양	13600
청색	27233
쪼개	13321
[unused21]	31521
##디스	13113
도달	7466
증액	13127
문인	10858
##ett	21794
NBA	21819
웨일	28327
지나	3984
S	55
사이클	12545
통틀어	18651
해남	15368
승률	14389
##래프트	20909
논어	22508
강과	26958
질리	22102
야식	17144
##커스	11990
2025	18994
한나라당	5145
꿈속	26517
##머니	3882
출전	5419
애플	5686
복부	16508
레크	24977
에이전트	19776
잡이	31186
##프란	13512
강수량	21474
유통	4743
쏘나타	15794
났	726
내뱉	12062
##and	7034
플랫	6947
기준	3872
패턴	7257
용감	13583
킬	1757
찌르	14044
텔레	5244
새기	18795
유토피아	20862
한낮	25330
##irect	30898
우이	31281
떼	916
군	617
간사	10412
##엇	2330
스태프	12976
떨치	18619
히말라	18645
해프	21336
콜린	23355
동그라미	27683
간다는	12781
전복	10492
대왕	9577
##뺑	3502
원부	31306
나이	4358
문학상	13570
가비	27573
##교통	10011
지붕	9043
뻑	1210
우연히	8973
포티	21163
창단	10805
##교육	6177
무예	21323
대자	25632
섭취	7226
##urn	23513
안전성	18309
버텨	16557
부동	4403
그야말로	7741
규약	19501
클렌	11509
스토리텔링	18889
묘지	12753
양해각서	20099
묵인	21294
US	9547
수중	13165
엉터리	19939
##거림	19560
한텐	25582
3800	25468
타르	20891
체장	26080
##예프	29020
자카	19689
총영	22556
도왔	15667
##작물	16558
스톤	16459
1976	13252
파운데이션	19994
강도	7514
힘주	23151
사운드	11921
탐라	22429
##OD	17527
식전	24481
선임	6570
알찬	22486
온다고	20309
몰려	6339
수증기	26448
빠르	5185
무릎	6261
##단	2286
밀크	17067
##퀴	2644
마곡	21144
괴담	25712
구가	19594
커피	4930
시켰으며	26639
파열	17907
##칠성	24365
항시	28829
##케	2247
찐	1627
정벌	20028
예리	16428
##외과	12267
싸운	20745
뻔뻔	18810
배석	23549
억압	8538
임원	6101
왼손	12264
채권	5216
비료	15118
중개	8429
불멸	20672
##랐	3226
만나	4026
둘러싼	7078
밤늦	29163
도루	15132
봐도	7293
전지	7413
감옥	8917
상서	25533
31	4529
장재	23987
김제동	25666
충격	5326
##ings	19236
원세훈	24237
그랬었	23676
CA	19186
마인	25909
일차	14083
떨어졌	6207
맞닥	20736
적잖이	31192
져요	23206
오상	30126
##떠	2150
world	30520
##혜원	28673
##럴	2783
오케스트라	10411
편치	29578
향연	20380
갑시다	25749
인플루엔자	15815
컨셉트	25283
##90	11445
십자가	11801
조직원	17930
비타	7143
##콜	2750
##꺼기	20556
[unused7]	31507
남중국해	24892
##HS	30939
적절히	12137
가부	13909
학장	18917
견디	9058
이라든지	14012
1965	15140
와이파이	15274
방책	28641
허겁	26826
살아온	11230
##라이즈	26266
잠정	10808
##인수	27167
##승환	13771
번번	16918
지경	8297
스텔	19733
리니	17194
악화	5915
들어도	16265
연작	21370
신주	14064
방문자	20817
편리	6589
하여튼	14792
빛났	20610
자살	6205
파병	16849
찾아올	20930
미간	21932
앵	1395
주체사상	25881
포만	28265
理	431
獨	428
##농사	25220
순교	18223
##말	2231
고양시	10978
바늘	13121
過	508
[unused281]	31781
화끈	15652
팔짱	22054
끌어올릴	22948
검사	4385
심포니	29015
최상급	28060
이날	3814
넸	757
임씨	31346
앤드	11794
찾아와	11983
거둬	13924
포장마차	24447
이재명	14449
드나드	27127
이주민	20471
용맹	20620
[unused272]	31772
중장	15093
착하	15097
맡겼	15772
##음식	28586
##로워	20536
추적	7499
행정력	23445
면치	15587
구강	17696
메우	15339
다가가	9287
[unused307]	31807
요인	5090
##p	2006
이걸	7027
청취자	15935
방문	4110
##49	24426
비기	26058
Dr	26863
##짊	3573
양말	14370
##itt	15160
fr	13348
정적	13949
한옥마을	28584
風	534
전락	9364
아이비	22797
갈색	14008
124	15590
##플러	19768
다각화	21465
식상	28062
##적ㆍ	22901
이만저만	26528
거세	9198
Tim	28076
후임	12481
▶	150
##ze	22473
##ship	26316
방화	15578
어머니	4226
##★	3279
유쾌	10960
세밀	13900
무척	7065
감싼	29635
임	1510
애덤	23938
중간	5141
##높이	11425
여타	14965
##걔	2889
ㆍ유	21327
RC	26769
꽃미남	30645
위해선	9647
##르크	7702
차이나	19553
휘말려	30057
곱	600
정색	25785
서랍	17026
고로	13237
부각	7214
포용	13568
DG	18290
자존심	8408
평화통일	19687
농	771
동월	17317
고학	27318
프랜차이즈	10024
새우	8780
주축	11581
이마	8950
동감	28082
쏠림	21945
㎖	204
##전입	28727
엎드려	17256
블레	23147
##탱	3278
각료	20409
그러니깐	26664
##춧가루	18346
절전	29110
졸지	30151
##our	8330
샤이	21109
누런	26956
허허허	30486
서초구	12651
끔	708
근	638
조원진	31154
합헌	26381
단념	26969
ed	12117
서포터	18855
분원	27815
할매	25682
등재	12960
펀드	4404
201	3652
##햇	2749
레지	15509
알아냈	24492
##DS	25165
휴지	17177
낙	718
롯데케미칼	28404
돈다	29631
알렉산드	18759
국익	16343
저변	16822
냉정	10536
라즈	25530
구호	8523
글쓰기	10243
신인	7585
##소년	12372
SKC	30891
종횡	30166
꺽	666
하마터면	27639
50	3956
뮤	1103
##리어	5859
등지	9134
##헨	2727
전투기	13501
##부패	18785
197	4626
##보살	22202
제언	23602
##용수	16375
놀랄	15188
쨌	1604
우스	9422
LI	12907
씁니다	29667
대뇌	29440
##sc	21762
[unused285]	31785
ㆍ구	27410
뿍	1224
##효진	22037
양쪽	8108
금전	11993
가나안	30608
무더운	21972
지어	21859
##노당	21302
번갈	13200
윤희	21731
스파이더맨	29493
##런	2957
주간지	21447
막	1037
[unused34]	31534
800	6971
your	24852
떠날	10428
꿔	697
해양	5008
五	227
하드웨어	14651
야마	15523
##fer	19612
프레이	26777
시카고	12528
레이저	11792
점치	28696
말뚝	26216
내세울	23954
단말기	10551
차후	25371
##ul	6228
체크카드	17702
마진	13401
＋	1983
##퉁	2725
언약	28011
##쳐	2675
까만	19943
변수	6979
천체	18772
에센스	15047
단연	12072
고등어	16906
시종	13962
동자	17610
검장	17369
정한	8867
순례	12916
감축	8114
끓여	12040
##테이너	9986
쓰러진	18041
화제	5975
보배	27431
서스	28170
달렸	9974
태산	19494
이권	22561
##소니	24569
##TA	5816
조교	17540
##관리본부	20599
초년생	30398
미망	28436
에콰도르	30701
어쩌	5397
행동	4151
선관위	11456
총괄	7276
지극	9585
증여	9751
지휘봉	20130
[unused195]	31695
론가	19693
식	1326
아냐	8457
천장	9988
었	1417
괴산	25859
식스	22335
지역주의	20226
돌아왔	7152
분뇨	23052
으려	4853
편안	5984
낙양	29823
고선	18165
##중근	28383
y	92
선구자	20420
컨트롤	10922
펙	1851
강해졌	29059
장동건	27039
김구	14230
미드필더	13806
불가피	6678
담장	13130
는디	17536
세울	13391
부주석	27210
뒤집어쓰	27527
통영시	28969
즐거움	7571
##ung	9853
##내렸	18848
브레	14144
들어온다	16177
곁들인	29658
당락	25659
H	44
##싹	3183
목격자	19340
겨누	23634
주고받	8717
영등	11339
강화도	20705
좌익수	28751
올라와	14607
그립	15507
비합	27508
방침	4691
라이스	21265
네임	28680
##남	2172
영월	17376
##써	2525
슬퍼	13150
아로마	24117
엄격히	17972
손학규	13942
다루	5778
##은사	30628
are	20098
##ton	15518
DC	16932
차분	9795
안타까워	27947
##쉴	3322
스며	11854
##뽑	3055
[unused243]	31743
아이디	15129
강의실	18522
##집	2027
모집	5287
근심	13888
##그	2029
무더기	14783
FM	21315
가해	7610
CU	20475
최상	7817
유방암	15522
빌렸	27118
털어놓	10433
영예	14648
싱	1334
타구	17757
증류	28368
but	30103
보답	12460
나올지	24327
송유	26859
##□	3155
텅	1784
따뜻	5349
사선	26716
원리금	19450
무정	28441
##얇	3527
녹화	11739
송년회	29944
연꽃	17699
직경	27450
까르	27151
##구장	18518
해발	15844
게을	16751
떨렸	22317
홍종	28937
영의정	29678
사실	3669
##riv	27284
판타지	13366
밀	1111
##며	2307
##황후	25295
소상	11441
맺힌	27439
comp	20793
빡	1197
陽	527
도화	17319
반덤핑	23377
##널	2781
형평	12470
락	943
기현	28878
유기농	11835
여느	11934
양상	7059
##olog	9966
코트	8202
으려는	8847
이부	27754
삼위일체	25623
가재	29964
터무니	15701
1904	26506
얽	1412
혹시나	16249
##공원	13474
Smart	30775
사설	10196
시킨다고	28194
지요	4282
##은혜	29871
이화여대	13983
##씌	2579
##공사	5634
분류	5784
농장	7828
##리포	9899
복음서	29929
포지션	12856
통진	21270
웨	1481
괄목	23678
사이먼	28074
심리	4779
수재	25266
수두룩	27143
##비아	6428
혼	1928
곧바로	6675
조치	4524
##해야	8084
氣	410
##aum	27768
솔깃	31340
익숙	6579
최문순	26514
합시다	13380
가질	6991
어찌나	16124
초연	16087
[unused256]	31756
1890	28172
터치	9921
때로	6918
##하루	11949
사나	15513
•	118
맞받	28056
##빙	2604
시중	7766
중엽	28511
모아	5302
우에	29332
##ublic	16725
핑	1888
##환경	5298
##섰	3074
[unused14]	31514
마비	9505
물씬	18382
[unused496]	31996
진천	25309
속살	22468
##저지	25598
상하이	12847
교민	20876
##등기	27660
넥	753
내추	22531
고분군	29696
놨	775
##싸움	10957
비해서	11933
水	411
널	747
종업원	9481
일세	12845
[unused44]	31544
정거	19657
중간고사	27244
신혼	8849
본관	14529
[unused440]	31940
민우	22239
아메리칸	15706
지도력	20784
뱅크	8511
유나이티	13791
##신저	13193
Bo	25841
저축	5601
고어	21439
미술가	27049
##넨	2707
문득	8831
1939	20968
더라도	4219
살아가	5933
命	286
임차료	30237
권했	18143
##지먼트	18898
##테르부르크	28958
히트	9327
##띤	3446
보고	4530
황진	25474
매스컴	24118
저작물	18305
폰	1864
##스레	8243
내리막길	27452
##ck	24154
47	5801
혐	1921
채납	29991
보스	10675
회색	13203
고졸	17062
안장	20887
경영학	11984
빵집	15564
단체전	16473
교주	23092
터지	8771
작아지	26831
[unused182]	31682
시바	22158
수공	23601
〈	168
벌	1142
正	403
다크	12393
##줄기	11646
벨트	8528
당했	6220
쌓였	23948
호화	16874
아다	29481
증대	7594
[unused3]	31503
트렌	6764
배급	13803
사임	13563
언덕	8756
임금	4654
서정	10240
포맷	22760
맞은	14397
비행장	21615
쿠키	13980
낄	715
머물러	11609
당나라	14076
끊겼	22268
허영	19307
也	224
##번	2517
IPTV	16957
웰스	30399
정밀	7938
속아	29544
龍	542
종영	19754
##해졌	29919
##로운	6408
##더라	23677
증강	15358
##32	23752
뵙	1172
142	17205
감소세	18473
천주	10507
의대	11927
하이라이트	18694
##민	2114
저하	8693
지나치	6349
<	32
선거	3862
소방	6091
179	13801
ㅏ	194
드러낼	20773
지휘관	16048
쾌적	10208
화엄	25509
약	1397
750	15453
단련	15793
##오피아	21394
용역	6823
스키	7374
공전	23949
또는	4013
매수세	19773
호조	12280
나무라	26638
달랐	8580
[unused57]	31557
상한선	23733
빈민	16942
이슬	7055
연계	5190
주정차	27852
휩	1955
느냐는	8925
힘드	18941
가솔린	16115
알고리즘	22990
##꿔	3165
트친	27468
경운	27613
절박	12739
애틀랜타	24541
증진	8192
만리장성	31489
聖	470
졸음	20221
고초	29639
흥덕	30932
아마	4486
취합	26683
Association	31450
시달렸	18782
타율	9567
이뤄지지	10064
계절	7343
샌더스	28740
소운	31334
사나운	25343
냉전	11941
##엠	3073
##완	2365
##af	9292
배당금	17095
가드	13440
로다	21035
미들	26413
##gram	18173
수식어	18335
환절기	22944
제반	16271
초소	20516
분립	26990
원동력	12053
초창기	16610
대차	20951
엄숙	18476
마나	15287
채색	25183
우루과이	21515
몰아붙이	31325
광명시	20253
어렴	21398
염소	14427
무대	4537
분명	4288
보존	6628
스타인	27398
##안간	29949
W	59
커스	21898
결혼식	8556
백운	19285
주전	10358
중지	10088
기우	18695
밝혀야	18883
나약	20185
발코니	20812
##멘트	10468
줄여	7425
이언	22276
올려놓	23397
휘둘렀	21993
당도	15036
팔레스	13702
UC	23874
일깨우	24039
##운데이션	19988
선결	27667
트로	9689
짜장	27945
[...]
